#version: 0.2 - Trained by `huggingface/tokenizers`
a r
a n
e n
Ġ i
Ġ n
a l
Ã ¡
Ġ m
č Ċ
Ġ ar
Ġ t
Ġ s
q u
e l
Ã ©
i n
Ġ l
e r
y a
Ġ c
Ġ h
e s
Ġ qu
t a
Ġ a
s e
Ã º
â Ģ
t e
Ġ y
n a
Ġ v
Ġn Ã¡
Ġ p
i e
i r
o n
i l
o r
v a
Ã Ń
t an
Ġ e
Ġ u
Ġ an
Ġn a
d e
Ã ³
a s
m e
Ġ âĢ
r e
en na
r u
t i
o l
Ġ Y
n e
y e
âĢ Ŀ
in a
Ġ E
ĠâĢ ľ
r a
l o
Ġs a
al a
i s
v e
y an
Ġqu en
Ġ A
Ġc ar
Ġ o
Ġ ya
Ġi l
ĠE ru
es se
u va
e t
u l
Ġ H
Ã© n
an d
Ġm a
Ġi n
u s
Ġ r
t ar
in e
u v
A r
Ġm al
i m
Ġy e
Ġt Ãº
M al
el te
i en
Ġ en
Å Ł
y ar
Ġv e
s se
Ġ Ãº
Ã© s
Ã¡ n
t o
Ġm i
Ġp a
qu en
a m
as se
Ã©s us
Ã¡ r
t al
Ġ f
Ġl en
p a
c ar
w a
Ġn Ã³
Ġl e
u n
ĠY Ã©sus
Ġt ul
a i
el lo
Ġp an
m a
ĠnÃ¡ ne
Ġm an
Ġm en
Ġ ÃŃ
Ġc o
Ġqu et
el de
p e
. âĢĿ
u r
d a
Ġs e
tan e
t ta
ĠÃŃ re
A n
Ġt Ã©
c a
Ġ or
t er
Ġa s
s en
Ġu a
m b
Ġs enna
Ġl Ã¡
n er
Ġe t
ĠtÃº l
t es
al de
l i
Ã© r
c o
t ala
! âĢĿ
Ġm ir
and o
m en
Ġi m
Ġquen te
Ġh ya
er ya
Ġ al
an ta
r is
Ġ M
Ġ ÅŁ
Ġc en
ĠH ris
Ġqu i
c e
c i
Ġn an
ir e
d o
Ġi s
t ie
Ã¡ m
Ġn ar
Ġt e
Ġm ar
Ġ Ã¡
a u
d or
ĠHris to
Ġna ti
ĠH er
n ar
Ġqu e
Ã ģ
Ġf a
Ġ S
u m
Ġl Ãº
Ġs in
n es
qu e
Ġh l
Ġ P
qu a
Ġ Ã³
an a
an en
ĠEru o
Ġsa m
Ġs ina
ĠâĢ ĵ
Ãº r
Ġh an
Ġh il
Ġy ando
Q u
Ġ el
ti en
Ġna uva
o i
E tta
T Ã¡
ta ina
Ġ es
v i
Ġh r
Ġ er
Ġil ye
al i
Ġmi ci
l e
Ġqu Ã©
l a
Ġs en
Ġt a
Ã©n en
Ġ ra
al te
ĠÅŁ an
Ġn in
Ġt ar
Ġqu Ã©n
Ġm Ã¡
Ġqu al
w e
Ġo a
Ġn Ã©r
Ġa i
uv ar
Ġs ine
Ġe pe
ĠtÃ© na
? âĢĿ
t el
i on
yan e
Ġ I
Ġm el
n en
Ġa pa
al lo
Ġt al
Ġl o
Ġa p
Ġo s
Ġh Ã¡n
en en
Ġp ol
Ġy ar
Ġ ol
Ġs ÃŃ
o s
Ġ F
Ġm er
Ġa u
im b
Ġe x
d ar
Ġquen tes
mb e
uv an
Ġ Ã
i el
Ġsa me
and a
Ġl Ã©
Ġt an
Ġt er
Ġl an
Ġna t
Ġa m
ĠnÃ¡ ner
Ġl a
Ġa ir
Ġe a
h ta
i t
Ġr imb
y on
in ya
Ġl enna
Ġc am
Ġen g
Ġl y
Ġv Ã©
Ġil ya
an na
Ġy Ã¡
Ġy Ãº
tan es
ĠHer u
Ġil li
Ġque te
Ġs Ã©
v ie
Ġs ie
Ġma u
Ġ L
il a
il de
Ġal car
Ġn i
is se
Ġco i
Ġar an
el i
Ġa tan
ĠÃº car
Ġh o
ĠA r
Ġai quen
Ġu n
Ġa ur
d u
ar ya
Ã© va
im a
as s
Ġ N
Ġn ÃŃ
Ġin ye
Ã¡n o
Ġh e
Ġan ta
Ġle m
Ġ T
ĠA tar
Ġh Ã©
l on
Ġt ien
al e
Ġc e
y o
Ġv er
Ġp e
į re
ĠA n
Ġcar e
Ġlen d
ĠquÃ© tala
Ġu ar
Ġ C
Ġu l
Ġan es
Ġun du
t uva
Ġna m
m o
Ġy on
tan a
Qu i
Ġs Ã¡
Ġs Ã¡m
ĠtÃºl e
Ġc an
ĠÅŁan g
el ya
Ġa mbe
Ġan a
Ġim ya
Ġn u
Ġquen i
Ã įre
Ġqu anda
ol i
Ġ on
yan en
Ġman en
el me
Ã©n o
Ġm Ã³
es ta
Ġe ar
yan a
y ala
Ġv an
Ġt Ã¡
tan er
Ġh ÃŃ
ĠY Ãºr
t elte
Ġs u
Ġc a
Ġnan w
or on
Ġman a
n elte
Ġt u
Ġhil dor
Ġn er
tan en
Ġu as
E n
Ġc as
Ġh ar
ĠnÃ³ r
Ġt ai
Ġya sse
ter c
ĠhÃ¡n or
ĠÃ ±
t ina
Ġ '
Ġm ÃŃ
Ġm un
Ġt y
Ġp en
Ġrimb e
e h
Ġen d
ĠlÃº me
ar on
uv alde
ĠtÃº ra
Ġu alde
Ġis ta
Ġ elde
in en
Ġhr o
Ġsa vi
uv al
Ġy Ã©
ĠnÃ¡ v
ĠnÃ¡ ve
Ġquen ter
Ġ re
Ġsin wa
ĠEru terc
t Ãº
Ġ Ãģ
Ġn yar
Ġm Ã¡r
Ġa c
Ġeng e
en d
c an
Ġpe an
Ġc ol
Ġv et
Ġhr Ã¡
Ġce men
ya sse
m enna
m esse
Ġquet in
ĠmÃ¡ ra
ta sse
m ar
o h
Ġ ru
Ġm in
Ã© ter
Ġu an
tal e
Ġair im
Ġs i
Ġv al
S ie
t te
Ġar a
Ġl ai
Ġa tar
Ġy o
s ie
Ġ Mal
Ġtul e
M a
Ġ Ã©
Ġn Ãºr
Ã© ru
Ġo co
ĠEru n
ĠP Ã©ter
v o
Ġmau ya
i er
Ġ V
Ġs an
Ġhan quen
e a
Ġt enna
Ġquet ta
S ÃŃ
Ġn os
Ġfa il
Ġhl ar
Å ŀ
Ġt asse
Ġ Åŀ
el da
Ġt yar
ĠÃ¡ va
Ġc Ã¡r
uva s
ĠH Ã©ru
Ġmun ta
v and
ĠY er
Ġil qua
Ġlen de
Ġp ar
Ġmen el
au lo
s a
Ġor on
En te
Ġ erya
ĠÃ³ se
Ġh ir
Ġfa ire
d an
s o
Ġna i
am b
ĠÃ³ m
Ġc or
Ġa ta
s ale
Ġu alte
ĠM a
m i
p er
Ġa ma
Ġin se
n i
n o
Ġn al
yan na
Ġa tta
Ġpol e
Ġly en
m al
y al
Ãº sale
ĠvÃ© ra
Ġt el
ta ine
Ġex e
Ġy an
Ġe vand
ĠA tan
ĠYer Ãºsale
m on
s sen
Ġm il
il yon
es sen
Ġma i
Ġqual in
Ġaur esse
Ġana ie
Ġevand ilyon
A pa
c ina
m an
ya t
Ġal asse
Ġh yana
ÃŃ r
ĠÃº quen
Ġyon dor
Ġm inya
Qu en
ĠÅŀ an
as sen
ĠP aulo
Ġes taina
Ġl ye
Ġp us
Ġan tane
t ya
v an
Ġt en
ÃŃ ca
Ġan elte
Ġil quen
Ġs esse
Ġu al
um ne
t on
Ġar wa
ĠY oh
ĠA in
ĠtÃº re
Ġet t
N Ã¡
Ġna uvar
ti el
Ġfa ir
t ol
Ġc al
Ġv en
ti er
d on
ĠnÃ¡ se
Ġma pa
Ġim ÃŃca
Ġn o
tan elte
uv alte
tal de
Ġim mo
Ġos to
ĠhÃ© re
d asse
Ġm ol
Ġh a
Ġv oron
ir a
Ġe qu
M ana
Ġn elde
Ġu r
Ġpan ya
ĠtÃºl er
i Ã©nen
l ie
Ġre h
c ir
p an
t or
t so
Ġs er
Ġcoi vie
Y Ã©sus
x e
Ġa ÅŁ
Ġel ye
Ġlend es
Ġhar e
Ġm Ã©
Ġcar na
Ġr an
ĠnÃŃ s
Ġy es
Ġn is
Ġt un
Ġc es
Ġy en
Ġu tÃº
ĠI s
Ġn Ã©
Ġc ir
ĠA l
Ġo i
Ġel men
Ġau re
t en
ar is
Ġl i
er u
Ġnan car
m or
Ġt ala
Ġl au
Ã³ m
ĠY Ã©s
Ġcar ne
y Ã¡r
Ġin te
ĠtÃº r
Ġaran ie
Ġv a
d en
Ġm ass
Ġp er
Ġp oi
yan es
mb a
ĠF aris
ĠÃºcar e
d el
i me
el ta
il e
Ġcar am
Ġr anta
ĠtÃ© cina
Ġhl ass
Ġtar w
ĠL a
ĠmÃ³ l
Ġhanquen te
v ir
x an
Ġc Ã³
il i
ĠYoh Ã¡no
Ġn es
Ġs ello
ĠEru l
ĠS ÃŃ
c en
Ġ R
Ġh or
il ve
it ya
Ġend al
t ine
t ur
u h
il te
ĠA ire
Ġnan ye
Ãģ va
Ġnin na
Ġlem ya
Ġl un
ÃŃ nen
Ġsa ve
ĠHer ul
Ġam il
Ġca me
Ġac Ã¡r
Ġ TÃ¡
Ġl in
Ġr Ãº
ta s
ti Ã©nen
ĠnÃ³ me
Ġtul uva
v ar
Ġt ur
Ġh Ãº
Ġh am
ĠY Ãº
is sen
Ġo an
Ġes tel
Ġol la
y allo
Ġil l
Ġma h
Ġin de
Ġner i
Ġs ar
Ġh en
ĠEruterc Ã¡no
ĠhrÃ¡ ve
ĠAtan yon
Ġyondor ya
I l
i esse
l er
Ġ esse
Ġm o
Ġra u
Ġra ine
ĠEruterc Ã¡n
Ġ "
Ġ O
yan er
un que
Ġet el
Ġmer e
ĠYÃºr ar
c ie
Ġl ie
Ġqu Ã¡
Ġqu er
Ġv ala
ÃŃ a
Ġnan wa
g w
in ye
Ġa h
Ġo tso
ĠsÃ¡ me
ĠÅŁang a
ĠnÃ¡v en
n el
Ġt au
Ġl er
Ġv i
ĠnÃ¡ m
Ġap os
Ġcoi vi
s i
Ġn alde
Ġar can
Ġh end
Ġmen elde
Ġor ta
ĠM Ã³
Ġhildor yar
i Ã©va
v er
Ġl as
Ġh u
Ġcar dar
ÅŁ e
Ġcen del
Ġsam ir
Ġhe qua
ĠÃ³m u
ĠAtanyon do
g a
Ġt ana
Ġy anen
ĠY on
Ġcar ien
Ġapos tel
. '
v ra
Ġl isse
âĢ ľ
Ġy unque
Ġv ali
ĠtÃºl es
Ġul co
ĠhrÃ¡ v
Ġmin na
vra h
N ai
il me
Ġsa vie
que an
Ġmel me
Ġho a
ĠnÃºr o
ĠÅŀan ye
ĠIs ra
H eru
o c
Ġm or
ĠY Ã¡
Ġin d
tal i
ĠvÃ© re
Ġoco mb
Ġn el
Ã¡ v
Ġl elya
Ġv ar
Ġp al
Ġan ai
Ġan anta
Ġqual me
ĠyÃ¡ ve
g ol
u me
y en
Ġ Ã¡n
Ġn Ãº
Ġque ti
Ġairim o
H an
g we
i va
Ġ Qui
Ġv and
Ġna h
ĠA vrah
Ġco s
ĠM ar
i Ã©no
n ye
Ġl ar
Ġl im
Ġa ire
il lon
Ġfa ila
Ġnanw en
al lon
Ġs ana
in qua
Ġe m
Ġmen ello
Ġquet tar
Y Ã©
c Ã©n
Ġm et
Ġar c
Ġl am
Ġe uva
us se
Ġly enna
ĠvÃ© la
Ġyon do
Ġyo men
an e
Ã¡ ra
Ġm ando
Ã© li
Ã¡r ala
Ġco ire
Ġmau re
ĠYÃ¡ co
en ya
Ġt ya
Ġt um
Ġas elte
ĠHeru o
ĠN Ã¡
s enna
Ġl amb
Ġa qua
Ġa xan
Ġquen telte
Ġco a
Ġty er
M anen
ĠnÃ¡ la
Ġna s
Ã³ r
Ġin w
Ġye o
ĠnÃ³ vo
erya sse
Ġrimb ali
Ġatan i
ĠutÃº lie
Ġper per
Han quen
s ar
Ġn y
Ġy Ã¡m
et te
um nes
Ġes sen
Ġcas tanen
NÃ¡ sie
c er
i es
t uvan
ar a
Ġn alte
Ġt i
Ġc u
Ġy al
re a
Ġma quen
Ġr Ã¡
Ġcen ne
Ġval da
Ġequ es
Ġlau me
Ġmah al
Ġyomen co
Ġinw is
M an
f a
m ol
m ello
t uvar
y es
qu et
Ã³ me
Ġsa v
ĠnÃ³ re
Ġis tal
Ġel me
ĠhÃ© ra
Ġfail ie
Ġten n
O no
d anen
p es
y uva
y ale
Ã ī
Ġn ur
Ġs es
Ġc anta
Ġan taina
ĠE tta
Ġcar as
Ġo ira
Ġr ÃŃ
ÅŁ a
ĠÃº p
Ġpa it
Ġmen ta
oi o
ĠmÃ¡ l
Ġeng er
Ġlend er
Ġcemen de
ĠSÃŃ mon
Ġtya s
Ġtenn oio
! '
ti Ã©va
Ġo m
Ġco m
Ġhya m
Ġcen nes
Ġsen dar
Ġser ce
h tar
i o
l es
el va
Ġc Ã©n
Ġa mba
Ġu o
ĠE l
Ġquet ir
Ġas elde
ĠtÃºl a
Ġcen e
uval ve
Y e
m asse
s es
Ġn en
Ġh im
Ġa t
Ġma p
Ġpan yane
Ġquet ie
Ġes s
N a
c or
Ġ ala
Ġn or
qu Ã©
ya ina
Ġh er
ĠY Ã³
Ġcar ir
Ġma t
Ġr oi
ĠÅŁan ye
Ġam yÃ¡r
ĠmÃ³ li
Ġairim or
Ġmenel o
Quen tes
i ello
u o
w ar
an ya
in ta
in nar
Ġl oi
Ġh yane
il Ã¡
men en
Ġsam in
ĠF a
Ġhro a
Ġnal ye
Ġett enna
ĠFaris ar
ĠLa vir
Ġtau ra
l Ã¡r
t ul
w al
an nar
Ġn e
Ġc ala
Ġe que
Ġpar man
ĠYÃ©s un
ĠcÃ³ l
Ġcoire a
Ġparman gol
E l
I nye
c il
Ġc Ã©
Ġqu el
te a
il lo
Ġe ce
Ġma te
Ġma ur
Ġf or
ĠS ie
Ġos cir
Ġvet tie
ĠErutercÃ¡n or
ĠMÃ³ ses
r o
Ġa in
Ġa is
Ġv in
il ie
Ġe te
Ġas inye
Ġis talde
Ġai qua
Ġap sen
Ġpe anta
ĠYÃºr aron
Ġnanw ie
ĠcÃ¡r ine
ĠAin o
ĠErul lo
ĠYÃ¡co v
c ine
an tar
en a
Ġm e
Ġar we
Ġc im
Ġqu anta
ĠÃº fa
tel e
ĠF e
Ġair i
ĠnÃ³r i
ĠnÃºr or
ĠAl ile
c ien
d es
el y
Ġc ai
Ġh Ã¡
ti Ã©no
Ġya i
ul a
Ġlen g
Ġsin asse
ĠÃ³ ma
Ġsam ilde
ĠI l
ĠhÃ¡n on
Ġex i
Ġminya ve
Ġqueti s
Hanquen tasse
a vi
n elme
Ġi on
Ġn isse
al da
Ġar yon
Ã© re
Ġh ra
Ġv Ã¡
Ġv inya
Ġan tana
Ġcar ner
Ġen or
ĠÃº ve
Ġcen nen
ĠP ilÃ¡
Ġhan tale
Ġnauva s
Ġlan tane
Ġaur i
Ġhe h
Ġvan wa
Ġcas ta
Ġoco mbe
Ġnos s
Ġoron te
Ġtel pe
ĠaÅŁ ea
Ġmass a
d ie
Ġt ol
yan elte
yan nar
Ġcar d
Ġcar nes
ĠnÃ³ na
ĠlÃ¡ v
ĠHer ol
Ġmel e
ĠN a
Ġlem pe
Ġnam pe
Ġsu mb
amb e
Ġti u
Ġom pa
l en
al me
in dor
er yanen
Ġc il
Ġqu an
Ġan tan
ĠnÃ³ menna
An anta
ĠlÃº messe
Ġsin te
oi ca
Ġap anta
ĠhÃ¡n o
Ġla va
ĠhÃŃ na
Ġcol e
Ġcemen o
ĠHÃ©ru o
Ġpus tien
Ġah lÃ¡r
o t
Ġs Ã³
el ve
el tes
in d
Ġc ÃŃ
ta t
va s
Ġr ie
Ġmen tane
Ġas tar
ĠYerÃºsale menna
Ġequ Ã©
ĠMar ÃŃa
Ġlim pe
U an
Ġs isse
ya in
on na
Ġis t
Ġer inqua
ĠquÃ© tina
ĠhÃ¡n ol
Ġau ta
Ġaur essen
Ġnu c
Ġon do
ĠhÃŃ n
ĠhÃŃ ni
Ġac Ã¡m
ĠYÃ©s uo
Ġcaram pe
Ġill ume
ĠquÃ¡ tine
n elde
y enen
Ġt o
er yo
Ġqu a
Ġa tte
Ġv anda
Ġen n
Ġhil yala
Ġel ve
Ġex eli
Ġhe p
Ġsavi Ã©nen
h a
Ġi sse
el ma
Ġh y
on i
Ġan tanes
ĠHris ton
Ġis tya
Ġmar d
Ġsin o
ĠÃ³ ne
Ġtan wa
Ġcam ne
Ġsu ila
ĠÃģ va
tol lo
Ġamil l
Ġhu ru
ĠYon do
c Ã¡r
i elde
w i
Ġ Â
Ġar ya
Ġl anta
Ġv anta
Ġquen eli
Ġmal l
Ġsam is
Ġhil ya
ĠquÃ© ta
Ġtar e
Ġlo ar
ĠÃ ļ
Ġla t
tuva s
Ġnos tale
ĠmÃ© ti
ĠrÃº ÅŁ
ĠAvrah am
Ġhra van
N Ã©r
a ul
c ol
g e
t ir
Ġi ta
al tar
Ġm Ã©n
in do
Ġl u
Ġh ru
Ãº me
Ġan elde
Ġcar a
ien ya
tal lo
Ġman wa
ĠtÃºl elte
ĠmÃ¡ re
Ġap an
Ġmer ne
Ġtan ca
Ġcan wa
ĠnÃ¡v el
Ġhir ne
Ġual me
ĠAin ol
ili p
ĠacÃ¡r ie
ĠFa ire
Ġatte a
. "
S i
r i
al ta
Ġm as
er i
Ġc ime
Ġe cÃ©n
Ġna hta
ul ma
Ġin nar
Ġf e
ĠnÃ³ nar
Ġtul ca
Ġco arya
Ġmar do
ĠHristo sse
ĠS Ã¡
ĠyÃ¡ l
Ġcor da
Ġno ir
Ġvoron da
Ġlun te
Ġrau co
ĠamyÃ¡r ar
L au
Ġc esta
Ġqu il
Ġp itya
Ġo htar
im o
tal ve
Ġle h
Ġor tane
Ġsam ilve
Ġhan ya
hta ine
ĠErun na
Ġmil ya
Ġett esse
Ġvoron w
Ġnelde a
Ġpoi ca
Ġtarw es
ĠhÃº mi
Ġny Ã©re
Ġenn oli
Y ando
e antar
al ya
Ġm Ã¡m
el e
ta ve
Ġe h
Ġna it
ĠY e
ĠE n
Ġo c
Ġcen nelte
que te
Ġla ve
Ġtu x
ton na
Ġquel li
I s
v al
v ana
en nar
Ġar mar
Ġs asse
qu es
se f
Ġan na
ĠA ra
Ġil vana
ul e
ul da
ĠtÃº na
ĠnÃ³ te
Ġtul ya
Ġim ne
ĠÅŁ inta
Ġmar tane
ĠHer usse
ĠS am
Ġhl ai
Ġap Ã¡n
Ġex enna
Ġnat to
Ġvan ima
Ġhro ar
Ġcor dasse
Ġapostel i
ĠIsra Ã©
ĠPilÃ¡ to
Ġhru p
H ya
p i
en de
Ġna me
ti ello
Ġr on
Ġel den
Ġtar ne
Ġtal o
iel dan
ĠsÃ¡m es
ĠÅŁang ar
ĠnÃ³r ion
ĠmÃ¡r ie
Ġru ce
ĠV ar
ĠYerÃºsale messe
Quen telte
Ġmando sse
Ġsendar esse
ĠYÃ©sun na
Ġparmangol mor
Ġapanta ina
L a
n ie
t esse
v en
Ã ļ
Ġn Ã©n
Ġm oli
el ye
Ġl esse
Ġl Ã³m
ĠnÃ¡ sie
Ġp el
Ġp il
ĠEru va
ĠÃº ne
ai a
Ġmen e
men tane
Ġte a
dor ya
Ġque tien
Ġer de
Ġqual le
ĠL au
Ġatan ion
Ġul ca
ĠÃ± wal
ĠÃ³m anen
Ġnal ve
ĠHerul va
ĠYÃº re
ĠSÃ¡ tan
M i
M ÃŃ
l ien
p ala
t enna
Ġ U
Ġn illo
es tar
na sse
tan na
Ġan tor
Ã³ ra
ti esse
ĠH el
Ġen ce
Ġen dar
Ġtul uvar
Ã©r ala
ĠM ir
Ġtar as
iel tan
Ġnat tor
ĠT eh
Ġver ul
ĠsÃ¡ ver
ĠsÃ¡m o
ĠÃ± ot
Ġatar il
Ġhlass er
Ġsar no
Ġlas ta
ĠÃ¡n ie
ĠYÃ³ sef
ĠhÃ¡ tina
Ġnuc um
ĠAra u
Ġhrup uh
V e
p o
Ġ Qu
Ġt ambe
qu i
Ġl esta
Ġcar da
Ġma cil
Ġmal le
ĠtÃºl ala
Ġim le
Ġque ta
ĠÃ³ ra
Ġhil do
ĠF ea
Ġaran i
Ġatan in
ĠAtar inya
Ġver ir
Ġcan ne
Ġru n
Ġnis si
Ġtun gwe
Ġelmen danen
ĠHerul vo
Ġill in
g ar
h tie
i a
p en
w ali
Ġn ir
el tar
Ġl ello
er yan
Ġc Ã¡
Ġc ana
Ġa mb
Ġy anna
Ġe tta
Ġan da
ti es
Ġsa p
Ġma tta
Ã¡r ie
Ġal ve
ĠM ana
Ġis tan
Ã¡m ala
ĠHer un
um nelte
Ġhl asse
Ġsam uva
Ġmel da
Ġlan taner
Ġhlar e
Ġmol e
ĠaÅŁ ar
ĠYÃº ra
Ġoan te
ĠIsra el
ĠFe anen
ĠIsraÃ© lo
N eri
P eantar
r on
t umne
in que
Ġan en
Ġna tali
ol lo
Ġsa ilie
Ġcar uvan
yar on
Ã¡n or
tal me
Ġf Ã³
ĠnÃ³ messe
Ġman w
Ġmen a
ĠÃŃ r
Ġor taina
Ġor tana
li er
Ġhl Ã¡r
Ġhl assen
ĠF ilip
Ġaiquen en
Ġlend elte
Ġon gw
uval me
Ġoco m
Ġtyar e
Ġqualin allon
Ġfair enen
Ġrau cor
ĠnÃºro mol
ĠNÃ¡ sie
Ġessen en
Ġses tie
quÃ© tala
ĠlÃ³m isse
ĠArau co
L Ã¡
c el
p elte
t un
y alde
Ġm Ã¡n
Ġar ca
Ġs ir
Ġh ire
Ġv alde
Ġp Ã¡
and or
Ġen yal
Ġve u
am a
ur ya
Ġor a
Ġcen ner
Ã¡m o
Ġnati on
ĠS e
ĠÅŁan y
Ġpol de
Ġla v
esta sse
ĠYÃºr as
Ġfail e
Ġcor don
Ġran ya
Ġelmen dasse
ĠErul isse
l elte
Ġt ir
el do
Ġl el
Ġv Ã©r
or ro
Ġna uvalde
Ġin yen
Ġmal ta
Ġen te
Ġen que
tal te
Ġco asse
Ġet tel
Ġis tala
Ġque an
Ġla p
ĠsÃ¡m er
Ġcan nes
Ġcas tal
Ġtai ti
Ġpar ma
ĠMa cer
ĠYerÃºsale m
Ġpus ta
Ġpanya ina
Ġser c
Ġoan tes
Ġhend ul
Ġyai w
ĠÃºve a
ĠcÃŃ l
N an
c es
m arya
t ye
v el
x er
Ġs Ãº
Ġh arya
ĠnÃ¡ re
ÃŃ re
Ġan nar
Ġna uvan
ĠY Ã©
Ġcar in
ĠEru ion
Ġin sen
Ġr Ã©
Ġf in
Ġmen tanes
Ġquet tal
ĠlÃ¡ ve
Ġet tÃº
Ġhya mi
Ġnar a
Ġmar e
ĠmÃ¡ le
ĠI n
Ġol ce
ĠsÃŃ ve
Ġmau yane
Ġnam pes
ĠhÃ¡nor ya
Ġcol l
Ġlai ta
Ġnal me
Ġilquen en
Ġreh tie
Ġyes tane
ĠhrÃ¡ve o
A l
M ena
P an
T ula
c in
d allo
l ala
m anen
r andor
t uvalte
Ġi h
al ve
Ġt ie
in na
Ġl or
Ġl ien
er e
Ġh os
Ġv is
ĠnÃ¡ r
on ya
ĠE ule
Ġquen ten
ĠA nar
Ġcar uva
Ġma var
ien we
Ġle hta
Ġco ar
Ġquet tanen
Ã©r ie
ĠM an
Ġis tar
ĠÃ įre
iel me
Ġam ar
Ġam or
Ġla h
Ġly Ã©
Ġly ello
ĠnÃŃ r
Ġhe pe
Ġver i
ĠC a
ĠC o
Ġul ce
Ġcan war
ĠhÃŃ r
Ġsu ce
Ġend esse
Ġimmo tun
Ġur yala
Ġyes tallo
Ġli y
Ġhlass elte
ĠR eh
Ġetel end
Ġvali me
Ġmor ni
Ġquan te
Ġmall esse
ĠVar na
ĠMir randor
E que
H orro
P a
c elte
n Ã³
p ie
p Ã¡n
t u
Ġs Ã©nen
er yar
Ġh yar
Ġh eru
Ġu i
Ġan tuva
as ar
Ġcar nelte
Ġma tien
im ie
Ġf enna
ĠnÃ³ tina
Ġtul uvan
ma t
ĠnÃ¡ne t
Ġcen ien
ĠÃ¡ sa
au ya
Ġtal le
Ġmer ilde
ĠÃ ī
iel ta
ĠlÃ© ra
Ġair in
Ġcam nes
ĠÃºcar i
ĠÃºcar indor
Ġul c
Ġtu ru
Ġre hta
ĠV et
ĠcÃ¡r ala
Ġoron tes
Ġfaire o
ĠÅŀan y
pan e
ĠtÃºr enen
ĠrÃº ÅŁe
ĠhrÃ¡v esse
Ġmor nie
Ġanai er
El ye
Ġsumb ane
Ġmard esse
ĠmÃ©ti ma
m ir
ar yar
Ġn on
Ġn et
Ġt Ã¡r
el dar
ya ine
Ġh ol
Ġu s
Ġu ru
Ġsa vir
Ġcar pa
ĠÅŁ inye
Ġmar ir
au re
Ġsin an
Ġhil don
Ġtar ner
Ġol e
Ġol ca
ĠN ai
Ġtu xan
ĠyÃ© ta
Ġsan w
Ġno sse
Ġcir ya
Ġler ta
Ã¡v el
Ġem ma
Ġmaquen te
ĠÃºp oi
Ġhim ya
Ġaryon i
ĠnÃ³nar e
Ġtux a
La va
ĠMacer oni
ĠIn gar
ĠVarna vas
A tar
c al
d ol
y uvar
Ġ čĊ
Ã¡ re
Ġt in
Ġt ello
Ġt elya
Ġs al
el lon
Ġl is
Ãº ra
Ġy enna
Ġy ana
Ġv es
Ġv erya
Ġe uvar
Ġan tien
ol o
Ġquen o
Ġquen en
Ġin senna
Ġte h
ĠlÃº m
Ġsin we
Ġsam uvalde
Ġtal u
Ġmer in
ĠyÃº yo
Ġalcar inqua
Ġyon don
ĠtÃ¡ ra
Ġsu il
Ġhildor yannar
Ġtai te
Ġqualin illon
Ġosto sse
Ġmol ie
Ġnis s
Ġcaram pes
issen en
Ġhen du
Ġhu or
ĠnÃº tina
Ġmet ta
ĠsÃ³ ma
ĠÂ º
ĠEn te
Ġcana quean
ĠfÃ³ le
Ġora vie
Ġtuxan tur
A i
E ru
S Ã©
s Ã©n
t yan
v ien
y uvan
an er
Ġl us
Ġc Ã¡m
Ġh el
âĢ ĵ
Ġy esse
Ġan tala
ĠA pa
Ġcar ie
Ġya ssen
ĠEru sse
et ta
et ello
Ġen v
Ġf as
Ġco ir
Ġquet uva
Ġas elye
ĠHristo va
um ner
Ġhan de
Ġer inque
Ġqual e
Ġtal yat
Ġap sÃ©n
Ġrimb a
ĠsÃ¡ ve
Ġnyar ne
ĠmÃ¡r ien
Ġpean tar
Ġhanquen tasse
Ġtyar ien
Ġcal ma
ĠnÃ© ÅŁ
Ġnancar ne
ĠacÃ¡r ies
ĠquÃ¡ tina
nel tes
Ġtau re
ĠnÃ³re c
Ġain oc
imo ÅŁe
Ġliy Ãºme
C ima
E pe
H l
N yar
c ala
d oli
h l
h an
i h
p ar
p or
Ã¡ rea
Ġm Ã©rala
el tasse
in ar
Ġl uh
Ġc el
Ġy allo
Ġna uvalte
ye t
ve t
Ġquen in
Ġma tso
Ġr o
Ġr in
Ġr oh
Ġr oc
Ġr ely
ien wa
Ġmi t
Ġlen ga
ĠtÃ© cine
Ġal da
ĠM anen
ĠÅŁ un
Ġte c
Ġsin anna
Ġhl ÃŃ
Ġsam il
Ġhil yaner
Ġer d
ali me
Ġra in
Ġnin ya
Ġqual ina
Ġepe ta
ĠsÃŃ ra
Ġau tuva
Ġly esse
Ġilli on
Ġho sse
ĠAn ti
ĠsÃ¡m elte
ĠÅŁang ie
Ġear esse
ĠÃ± e
ĠmÃ¡r yat
Ġpean tanes
Ġual ve
NÃ¡ se
Ġmapa ina
Ġyes tanes
Il ye
Ġind Ã³me
ĠAvrah Ã¡mo
Ġlar mar
Ġsendar e
ĠAlile allo
ĠhÃ¡non yar
ĠlÃ¡v ina
Ġhy Ã³
Ġamill erya
ĠTeh tele
Ġcoir ie
Ġrimba ve
E ques
P aulo
Y oh
c im
f es
g wa
h tane
u hta
y uvas
į sa
an tur
Ġn yÃ¡r
al dar
Ġt Ã³
Ġs o
qu enna
el Ã³r
Ġl es
es s
Ġy ulma
ĠnÃ¡ t
Ġan elme
Ġna can
yan ta
Ã©n ala
Ġr Ã©r
Ġpan yan
Ġman ter
Ġal assen
ĠM el
Ġmar tuva
ĠÃ¡ se
au ra
Ġol ya
Ġol Ã³
ĠÃ įsa
iel da
Ġtan ne
Ġlan co
Ġam p
ĠyÃ¡ ra
Ġatan o
ĠAr an
ĠN asar
ĠnÃŃ ÅŁ
Ġlem yala
ĠT imoÅŁe
Ġce m
ĠhÃŃ nar
Ġsavi el
ĠnÃ¡v ello
Ġnyar e
Ġpean tala
ier yan
Ġerya ve
Ġqualin ar
Ġha im
Ġces tala
Ġmass ar
Ġper p
ĠFaris aron
Ġsar n
Il ya
ĠhrÃ¡v enen
ĠÃºp oica
Ġpait yal
Ġpait yale
ĠLavir o
Ġete quen
Ġcai ta
ĠcÃ¡ ma
ĠnÃºromol ie
Ġettel ea
Yoh Ã¡no
M en
M auya
S ina
c ÃŃ
c uva
i tas
l as
m ali
p al
p ien
t ÃŃr
u ru
v esse
x eli
Ġ alde
Ġ Quentelte
Ã¡ ve
Ã¡ vi
qu Ã¡
Ã© v
Ġl Ã³me
es to
Ġa il
Ãº cen
na s
Ġv el
ĠnÃ¡ mo
il o
Ġan wa
Ġan taner
Ġan tanelte
Ġna pÃ¡n
ti erya
ĠE fes
Ġsa il
Ġo t
ĠH e
Ġf an
Ġtul a
Ġtul ir
Ġtul ce
Ġman ya
Ġquet tan
Ġor me
ĠtÃºl en
ĠÅŁ Ãº
ĠP a
ĠÃ³ ni
Ġmer il
Ġex en
Ġcam uva
Ġho e
Ġce menna
Ġmun tan
Ġty Ã¡rala
Ġend er
Ġhro arya
Ġmin ye
Ġval ima
ĠcÃ³ le
Ġendal da
Ġlin tiÃ©nen
Ġetel ende
ĠnÃ¡m ina
Ġcoivi Ã©va
Ġarcan e
Ġind Ã³m
Ġperper e
Ġmahal ma
Ġistal me
Ġistal ve
ĠEl ÃŃa
ĠecÃ©n ie
Ġquil da
ĠmÃ¡m ar
Ġhlai wa
ĠHel len
Ġyaiw enen
ĠAnti oc
ĠTimoÅŁe o
A ta
S am
S avi
T Ãº
V alime
f ir
g o
i enna
i erya
n in
r Ã©
Ã ĵ
Ġm eh
Ġs Ãºr
el yan
Ã© l
Ġl ely
Ġh and
Ġh un
Ġy uh
ÃŃ va
ÃŃ as
Ġan n
Ã³ re
ti me
ĠY es
Ġen yale
ĠÃº l
Ã¡n ie
Ġpa im
car ne
Ġpan yana
Ġquet ilde
mb i
Ġmar taner
Ġque tier
ĠP an
Ġhil yane
Ġhr Ãºcen
ĠÅŁan ca
Ġos tollo
Ġmer ir
Ġtan ce
inya ve
Ġaran iÃ©no
Ġhe hta
Ġanta uva
ĠAn anta
Ġnam per
ĠÃ± et
Ġsavi Ã©no
Ġfaire va
Ġyan asse
Ġmil lo
man ya
ĠÅŀan yenen
Ġpus tane
Ġfair esse
Ġran tar
Ġli anta
Ġnancar na
Ġnes sa
Ġamil ler
Ġlin gw
Ġetel eh
Ġnel li
Ġanai es
Ġarc and
ĠyÃ¡m ala
Ġoscir ie
ĠÃºfa ila
Ġyai we
ĠHriston en
ĠÃļ y
Ġnostale o
Ġverir ya
Ġves tale
Epe ta
ĠnÃŃÅŁ ima
Ġail in
? '
E la
T a
h tal
h taina
i p
i ve
m as
m oli
t in
Ġt Ã¡rala
Ġs anna
Ã© ne
Ã© la
Ġl al
Ġp it
Ġan t
Ġan tÃº
ti enna
ĠY ando
âĢĿ ,
Ġcar il
Ġcar nen
Ġcar ilde
Ġin t
Ġen ta
Ġpa itya
ĠnÃ³ m
Ġle u
Ġtul is
Ġpan ien
Ġman can
Ġmen tan
Ġas elme
Ġal ass
ĠP aul
Ġmel ir
Ġmel eh
Ġtal ler
Ġpol da
Ġcam ien
ĠsÃ¡ v
Ġon o
Ġvan we
Ġca in
ĠÃ± uru
Ġpen e
Ġsavi esse
Ġsavi Ã©va
Ġnyar ner
Ġac ca
Ġpean tie
Ġvet ta
Ġnos tar
Ġnos tal
Ġtyar ne
Ġlende tte
Ġmenel enna
Ġyan ca
Ġmil ye
Ġces te
Ġhlass es
ĠHerul lo
ĠTÃ¡ ra
Ġham ne
ĠO ron
ĠnÃ¡m ie
Ġcoivi enna
Ġarcan elte
Ġmenelde a
Ã¡v en
Ġqualme o
Ġvand ar
Ġlam a
ĠyÃ¡m es
Ġcu il
Ġyomenco a
ĠrÃŃ e
Ġtyas tien
Ġess erya
Ġete men
ĠLau me
Ġrely Ã¡v
L Ãºme
T Ã©
d anna
m in
p pa
t oli
Ġ Quentes
Ġi mbi
Ġn esta
Ġl Ã©nen
er yanna
ya inen
Ġc Ã¡n
Ġc ima
Ġc aure
Ġh ur
Ġh Ã¡ra
se o
na um
Ġv enna
ir i
il l
ÃŃ s
ÃŃ ve
Ġu m
Ġan do
Ġan elve
Ġna ire
ĠY o
Ġsa ma
Ġma il
im ar
ĠÃº vie
am as
ai va
Ġpan yaner
Ġpan tave
Ġman e
Ġmen taner
tta t
ĠS aul
Ġsam ilme
Ġhan telte
tien wa
Ġra x
Ġra to
Ġra ce
ĠI nye
Ġmel m
Ġtal ul
Ġos c
Ġos tonna
imb ar
Ġlan tanes
Ġair ion
Ġcam ner
Ġeng es
ĠyÃ¡ me
ĠL Ã¡
Ġcoi ve
Ġver yan
ĠC or
Ġnam ie
ĠsÃ¡ tina
Ġca im
ĠnÃ³r enna
ĠhÃ¡nor yar
Ġty el
Ġty Ã©
Ġsavi elda
Ġpean tane
Ġlai tale
ĠYerÃºsale mello
van e
Ġven de
Ġnis senna
ĠnÃ© v
Ġhor tan
Ġhen yat
ĠErutercÃ¡n oron
Ġcardar yar
Ġvand arya
Ġlam ma
quet ie
ĠcÃ©n ala
ĠEl ÃŃ
Ġnen nen
Ġmap ien
ĠequÃ© tie
ĠnÃ¡vel dan
Ġantor ya
Ġanda ve
Ġharya ina
Ġnara ca
ĠhÃŃr ina
Ġmorni esse
Ġsal que
Ġyondon ya
Ġro hta
Ġhosse tur
Savi Ã©nen
ĠantÃº ra
" ,
Y a
c u
c am
c oron
f as
l enya
m es
m ala
m ma
t yar
t uval
y er
y ali
Â »
ar e
an ye
Ġn ulda
al yar
al ÃŃnen
Ġt esse
el yanen
in yar
Ġl Ã³
Ġh Ã³
Ġh as
Ġqu ilde
Ġa quÃ¡
Ãº na
te tte
Ġp ello
or o
Ġan to
Ġna itya
ĠY or
Ġquen ion
ĠA p
ĠA si
Ġo hta
ĠÃº a
ĠÃº h
ĠÃº nes
Ġpa ime
Ġf al
Ġpan yanes
ĠtÃ© ra
Ġor avi
Ġas to
ĠtÃºl ienwa
Ġmir wa
Ġim ye
ĠM en
Ġcen uva
ci Ã©nen
Ġmar ta
Ġmar ner
Ġel ven
Ġqual menna
Ġapa cen
Ġtal en
Ġlo a
Ġpol ir
Ġol le
Ġmer nes
Ġter c
Ġam ma
Ġla tya
yon dorya
Ġcam nelde
ĠyÃ¡ v
ĠL amas
Ġhe pa
Ġanta uvan
ĠAtar in
Ġner o
Ġner en
ĠÃ± en
ĠnÃ¡v eryan
Ġcol la
SÃŃ mon
ĠcÃ¡r ina
per naum
Ġmai ta
tiel dan
Ġfair i
tier yan
Ġha ira
Ġvoron de
Ġreh tana
Ġces taner
ĠutÃº li
Ġcir ih
Ġnancar ie
ĠÃºcare o
Ġcaram per
Ġendal tasse
Ġtur co
ĠYÃº rea
ĠnÃ¡m ine
ĠYon dorya
Ġvar nasse
Ġnanwen ne
cÃ©n ima
tuvan yes
Ġnur ru
Ġcom ya
ĠacÃ¡m ie
Ġcanwa cim
ĠyÃ¡l ine
Ġohtar i
Ġnait yana
ĠapÃ¡n ie
Ġcarda inen
ĠÃ³ra va
Ġlel yala
Ġmalta va
Ġih ÃŃr
Ġamar tie
ĠCa pernaum
ĠIngar an
Ġlus ta
ĠnÃ³rec Ã¡no
Ġainoc im
ĠÃįsa c
ĠNasar etello
ĠÃºl Ã©v
A u
H e
M asse
c asse
d ali
i elte
l ume
m allo
m anna
p p
s s
s an
t uvalde
v alte
Â º
Ġ ?
an es
al ye
Ġs allo
qu er
Ã© o
Ġl Ã©rie
er in
Ġh Ã¡mala
Ġy ello
Ġy uhta
Ġv end
Ġp ulma
il ea
ÃŃ to
tan el
Ġan d
Ġna uval
ti ma
ti elme
ti Ã©li
ye xe
Ġsa ili
yan do
Ġo f
Ġya imie
Ġil vane
Ġin s
Ġr es
Ġen tul
ĠÃº ner
quen en
ĠYÃ©sus se
Ġtul umne
ai o
Ġpan yanelte
Ġmen ie
ur yat
ĠlÃ¡ rea
Ġet senna
Ġim me
ĠM i
Ġis sen
ĠÃ¡ ya
ĠS ÃŃr
Ġhl Ã³
Qu et
vi Ã©va
Ġra h
Ġra vand
Ġai wi
Ġlo mba
Ġpol is
Ġpol ilde
Ġter mar
ĠsÃ© re
ĠT Ãº
Ġver u
Ġver urya
ĠAn d
ĠC ara
Ġnam pelte
ĠsÃ¡ ra
ĠsÃ¡m elde
elya sse
Ġhildor on
En g
Ġty Ã¡r
Ġre mb
ĠmÃ¡r ya
Ġcemen ye
Ġru htaine
Ġairim on
Ġlai tie
ĠPÃ©ter enna
Ġquetta inen
Ġhlar ie
Ġyan gwa
Ġqualin i
ĠYoh an
Ġmol ir
Ġur da
Ġur die
ĠmÃ© le
Ġyen te
ĠAl ilea
ĠhÃº me
ĠO no
Ġnanwa ve
Ġcoivi Ã©no
ĠMÃ³ seo
Ġcendel e
ĠÃ¡n i
Ġvand anen
ĠYÃ¡co vo
ĠyÃ¡m elte
Ġapsen e
Ġnoss ello
Ġnoss erya
cÃ¡r ima
Ġtulca ve
ĠyÃ¡l ina
Ġron go
Ġpel la
ĠÃ±ot tol
Ġnucum na
Ġocom ner
Ġcastal da
Ġfin del
ĠettÃº le
ĠÅŀany esse
Ġuru s
ĠÃºpoi ce
Ġteh tele
Ġhuor e
tyan dor
Ġrain esse
Ġamp itya
Ġrax esse
ĠLamas c
Ġravand asse
L an
L Ã©
L end
U as
Y Ãº
c ali
c eli
e x
h il
i u
i Ã©li
o a
t elde
t enen
t umnes
v Ã©
y uvalde
Ġ Quen
an ga
Ġi mba
Ġi cÃŃ
Ġm ul
Ġt ye
el issen
Ġh es
Ġh ai
Ġh Ã©r
Ġh Ãºr
te an
Ġy alde
Ġy elta
Ġy estasse
Ġv esse
ÃŃ ra
tan do
Ġe f
Ġe cie
Ġan dor
Ġan tol
Ġan ette
Ġna x
as ta
ĠâĢ Ŀ
ol ya
ĠE r
Ġil tan
esse a
ĠH ya
Ġma inen
Ġr anda
tar ya
ÅŁ ar
ĠÃº ÅŁ
ĠÃº ÅŁa
tal ta
tal lon
Ġf Ã¡r
Ġf Ã¡rea
Ġlen Ã¡r
car ien
un en
Ġtul in
Ġtul yane
Ġquet uvan
Ġor tÃŃr
Ġas Ã¡m
ĠlÃ¡ m
Ġcen a
ci er
ci esse
ĠlÃº r
Ġsin allo
Ġhan yane
Ġes ta
Ġer essea
ĠquÃ© tan
ĠÅŁan yen
Ġai quenna
tel er
Ġmel messe
Ġos tor
Ġpol in
Ġol var
Ġau cir
Ġalcar o
Ġcoi ti
Ġatan en
Ġun gw
ĠC Ã©
ĠC Ã©s
Ġnam uva
Ġon tane
Ġsu c
Ġsu cien
Ġca ur
Ġnanw iesse
Ġtu re
Ġner in
Ġty en
Ġatar ya
ĠV e
Ġhir nes
yal lon
Ġalasse o
tiel tan
Ġnancar ien
ĠFaris a
ĠcÃ³ lo
ĠSÃŃ las
ĠacÃ¡r ien
Il quen
Ġraine va
ĠO l
Ġquer a
ĠÅŀanye o
Ġind Ã³
Ġanai elde
ĠÃ¡n ies
ĠnÃº ra
Ġlim p
Ġtum na
Ġaxan i
Ġny Ã©r
Ġessen yanen
Ġnur tane
Ġcaras ta
ĠmÃ¡l tat
Ġnen wa
Na ti
Ġher urya
Ġloi ta
ĠcÃ© ne
Ġoscir na
Ġais tane
Ġvin tane
ĠÃºfa ilie
ĠAlile o
ĠcÃŃ mala
Ġist yanen
ĠÂ «
ĠrÃºÅŁ ie
Ġhravan o
ĠHel lenya
Ġendar ya
Ġtaras taina
Ġenque a
Ġserc enen
Ġlor ne
Ai quen
ĠÅŁun do
ĠhyÃ³ l
ĠrÃ©r ina
ĠÃļy Ãºr
C ena
E r
N ÃŃs
U alme
V al
c as
c is
e quean
n eli
p us
t tar
t ello
y alte
an yasse
al in
Ġm enna
Ġm ina
Ġm and
Ġar po
Ġs oica
qu ie
el dasse
Ġl et
Ġc Ã¡nor
Ġh al
Ġqu Ã©r
Ġa se
Ġy el
na h
tan elde
Ġan el
Ã³ li
ti s
âĢĿ .
ĠE h
ĠE ques
Ġsa ila
Ġquen innar
Ġcar p
Ġcar ya
Ġcar is
Ġin ten
Ġr esta
Ġr estar
uv i
Ġen nen
ĠÃº mir
ĠnÃ³ ne
un yat
Ġtul ie
Ġtul yala
Ġquet ilve
Ġor e
ĠtÃºl ette
co t
Ġal ye
ci Ã©no
Ġnan ca
Ġmar tuvar
Ãģ se
ĠS and
ĠS olo
ĠlÃº mi
Ġsam ilte
Ġer um
ĠquÃ© tine
Ġta inen
ĠÅŁan yenen
Ġtar a
Ġtar ir
Ġtar wa
tel ta
Ġmel menen
Ġtal l
Ġtal ien
Ġap pa
Ġpol le
Ġex in
iel ya
Ġtan e
Ġtan n
ĠyÃº quean
Ġalcar erya
Ġatan illon
ĠT ÃŃr
ĠT ÃŃto
ĠAtar elda
ĠAtar elva
Ġul ya
ĠsÃ¡m al
Ġana ien
Ġvan tane
Ġnanw iÃ©no
Ġner enna
En ge
ĠnÃ³r in
eh tie
Ġhro al
Ġsavi ello
ĠV ara
Ġsan alde
Ġsan wi
Ġfail iÃ©va
Ġmenel die
Ġyan car
ĠAtan ion
Ġevandilyon o
ÃŃr ine
Ġha te
Ġreh tane
ĠmÃ© l
ĠmÃ© na
Ġyes taner
Ġnis sen
ĠutÃº lier
Ġelmen da
Ġli hta
Ġtala menna
Ġlun ga
Ġham nes
Ġquer e
Ġocomb i
Ġocomb enna
Ġnel esta
Ġvand il
Ġnah tien
ĠyÃ¡m er
Ġyal des
Ġmaquen ter
Ġmaquen tes
Ġyomenco assen
ĠmÃ¡l esse
!' ,
Ġat to
Ġne celi
ĠcÃ³l ine
El de
Ġais tie
Ġocombe o
Ġtol por
ĠlÃ¡v ala
Ġtiu tal
ĠequÃ© tien
Ġqua p
Ġlu mb
ĠnÃ¡vel tan
Ġcoarya sse
Ġnoir inna
Ġoc Ã³m
ulda t
Ãļ quen
ĠÃ±wal m
ĠYÃºre o
Ġverul Ã³ra
ĠIsrael ind
Ġamor tie
ĠCo mbe
ĠReh tol
nÃ³ na
Ġnon we
Ġhol mo
Ġhildon nar
Ġhel mol
ĠapsÃ©n ine
Ġroh tal
ĠolÃ³ lie
Ġlanco a
Men el
ĠrelyÃ¡v alda
Ġnulda ve
Ġpello pe
ĠYor dan
Ġpulma xe
ĠhlÃ³ ce
ĠSolo mon
C ar
E xeli
S a
S inen
d assen
h ya
i ce
l Ã¡
m it
p ina
p esse
s on
v ÃŃ
v anen
v aron
x o
y uvalte
an w
an ÃŃas
Ġn esse
Ã¡ li
Ġm asse
Ġm oi
Ġm oica
el a
el tanen
el ÃŃnen
el Ã³ra
Ã© ya
Ġl Ã¡rie
Ġl issenen
er a
Ġc Ã¡ra
Ġh elda
Ġh aura
Ġqu Ã¡r
ta ssen
Ġy enen
Ġp iu
il tar
tan ten
Ġe vet
Ġu ÅŁe
Ġan tar
ĠE ar
ĠA c
ĠA la
Ġcar yasse
Ġin y
Ġen da
ĠÃº pa
ĠÃº vesse
Ã¡n ala
tal li
Ġf el
Ġf arya
Ġle pen
Ġtul ien
Ġtul uvas
Ġpan tane
Ġman we
Ġmen tanelte
Ġco al
Ġco allo
Ġco anna
Ġor tanes
ĠlÃ¡ ra
Ġet Ã©
Ġet tele
ĠtÃºl elme
!âĢĿ ,
Ġim ma
ĠM il
ĠÅŁ a
Ġcen ilde
ci a
ci ello
ĠÃ¡ men
Ġque tiÃ©nen
ĠS a
Ġhl as
Ġhil dol
Ġel yen
Ġra cir
Ġnin que
Ġtar men
ĠmÃ¡ t
Ġai ca
Ġmel do
Ġmel dor
Ġtal an
Ġtal les
Ġol v
Ġmer is
Ġmer ner
Ġmer nelte
iel van
Ġtan nes
Ġtan wali
Ġnat t
Ġcam nel
ĠyÃ¡ vie
ĠL e
ĠL is
Ġcoi vien
Ġaran iesse
ĠÃºcar iva
arya sse
Ġhe m
ĠT a
ĠT Ã©
ĠAtar ello
Ġver yane
Ġnam ien
ĠsÃ¡m alta
ĠÅŁang allo
Ġon gwe
Ġear o
Ġvan tala
Ġca ine
Ġnanw iÃ©va
Ġpen te
Ġpen yain
Ġre htaine
Ġnyar a
Ġnyar in
Ġnyar nes
ĠmÃ¡r yanen
ĠmÃ¡r ieldan
Ġmin de
Ġhlar u
Ġhlar ien
Ġpar e
Ġhir nelte
ĠMa htal
Ġama qua
Ġnal da
mal ya
Ġtel wa
Ġexe o
ĠAin on
Ġven e
don na
Ġno te
Ġno ire
Ġreh taina
ĠutÃº lien
Ġaure o
Ġli enna
Ġnancar e
Ġtala ina
Ġmass aron
Ġpoi ce
ĠLa htie
Ġnes taina
Ġnes tanes
cen ÃŃ
ĠR Ã³me
Ġlie o
Ġquer ner
Ġhildoryar on
ĠYon dor
ĠvÃ©re o
ĠMar ÅŁa
Ġnanwen ner
Ġlam yane
Ġmaquen telte
Ġmahal masse
Ġtyas ta
Ġom Ã³
io t
Ġmap ana
Ġher ul
Ġquel ex
Ġapsen ie
ĠFe o
Ġcai tala
ĠhÃ¡non ya
Ġcard altar
Ġondo sse
Ġqua is
ĠmÃ©ti me
ĠmÃ©n ar
ĠAinol va
ri ppa
Ġmas to
Lau me
Is tan
ĠSam Ã¡r
Ġhroar an
ĠYÃºre asse
Ġrun celte
Ġamb ar
Ġsap sar
ĠSe ver
Ġlav uva
Ġcastal ya
Ġhendul tat
Nan ye
ĠsÃº re
Ġih ÃŃ
Ġcoar yanna
Ġnosse o
Ġlis s
Ġenv in
Ġenv inya
Ġcalma tar
hl ai
ĠÃ±e tien
Ġlarmar yar
ĠnyÃ¡r ina
Ġalassen en
Ġperp Ã©r
ĠHe v
Ġhun d
Ġpaim esta
Ġcuil erya
ss ion
Ġof elme
Eng er
ĠtyÃ¡r ine
ĠhÃºr ala
Ġef fir
ĠCÃ©s are
ĠMahtal Ã©ne
' ,
. Â»
F ilip
L eh
S ama
a p
d er
d ur
i anna
m u
o mas
t Ã¡
t um
t Ãºr
u ne
an elte
Ġn ul
Ã¡ p
Ã¡ men
Ġm elde
Ġt am
Ġs un
Ġs ilo
Ġl erya
Ġl ale
Ġc un
Ãº ne
te f
Ġy ul
Ġy Ã¡r
Ġy ali
Ġv ando
ĠnÃ¡ s
ĠnÃ¡ mon
ir enen
Ġe c
Ġu ÅŁ
Ġan ton
Ġsa i
yan et
yan eltes
ĠA nes
Ġcar uvar
Ġcar uvas
Ġcar ilte
Ġya t
Ġr en
Ġr er
Ġr estasse
Ġr ere
im p
im pa
yar yasse
ĠÃº me
quen tes
Ġlen t
Ġtul yar
Ġtul tane
ai ca
Ġpan o
Ġman cal
Ġmen taina
Ġmen taine
Ġquet uvalde
Ġquet ilte
ĠtÃ© re
ĠtÃ© can
ter ya
Ġas elve
Ġas Ã¡vi
Ġua t
Ġet sa
ando s
Ġim mon
Ġhya ma
Ġal e
ĠM ÃŃ
ĠM ena
ĠM andos
Ġnan we
Ãģ nin
ĠS Ã©
ĠS tef
um o
ĠP ar
Ġel d
Ġel en
oi viÃ©va
le o
Ġra hta
Ġnin qui
Ġqual men
we o
tel tes
Ġmel dar
Ġtal ta
Ġtal ma
ĠF esto
Ġau co
Ġtan ien
Ġnat in
Ġnat tol
Ġam y
Ġla cenÃŃ
ĠL Ã©
Ġalcar yaina
ĠÃºcar el
Ġanta s
ĠT asse
ĠT ula
ĠAtar o
Ġlend elme
ĠC oiviÃ©va
Ġcan w
Ġon na
Ġhildor yain
Ġner tea
Ġpen ir
Ġpen yar
ĠÃģ se
ĠÃģ rippa
Ġru ine
Ġlai tal
ĠV Ã¡vel
Ġsan we
Ġhanquen ter
Ġhlar ir
Ġhlar uva
elda ve
Ġoron ter
ĠÃ³m arya
mi o
mal tar
Ġtel yane
Ġyan gw
ssen en
Ġual ye
ĠAin onya
Ġran ce
Ġnis que
ĠtÃºr erya
Ġva ina
Ġpoi ta
Ġtarw esta
ĠLa va
Ġhor menen
Ġhor ro
Ġendal dasse
Ġlin tave
Ġham me
Ġham un
Ġoan ter
Ġoan telte
Il li
Il lume
Ġarcan es
Ġarcan de
Ġcendel erya
Ġocomb esse
Ġocomb ennar
Ġnel equean
ĠyÃ¡ve o
gol mor
Ġnah tane
Ġnanwen nes
ĠNÃ¡ sar
Ġtyer e
Ġtyer ner
Ġhyam ne
Ġhyam ien
ĠEl ye
Ġala vÃ©
Ġnor ne
Ġroi ta
Ġne cel
Ġfor ma
ĠAlile asse
ĠhÃ¡ tine
ĠahlÃ¡r ie
ĠahlÃ¡r ielde
ĠhÃ¡nol ya
Ġto cot
Ġhy Ã¡m
Ġhuru terc
Ġlat yane
Ġlat yanes
col car
Ġtanca ve
Ġtulca ina
Ġtarwes tana
val ye
Ġtulya ine
Ġimne tyandor
Ġhroar antar
Ãļ sie
Ġverul Ã³r
ĠSe car
Ġcordon i
Ġquettal ÃŃnen
Ġlor na
ĠnÃ¡r enen
ĠÅŁinye mat
Ġniss eli
ĠcÃ¡m ina
Hl Ã¡rala
Ġles tanen
Ġnacan ter
ĠnapÃ¡n ine
Ãĵ mu
ĠYes aia
Ġleu ca
ĠPaul onna
ĠLÃ¡ sar
Ġhossetur co
ĠlÃ³ mio
Ġcanwacim ye
ĠSÃŃr on
ĠlÃ¡m Ã¡re
Ġungw al
Ġase tte
Ġtann ali
ĠVara vas
Ġlale vÃŃ
ĠalavÃ© le
! "
, âĢĿ
C en
C Ã©nala
H er
H Ã¡nor
M eldar
M erin
R avi
T asse
U a
a ine
c on
c Ã¡rala
h ÃŃ
h tana
h eh
m assen
u re
u mb
x and
Ã ±
Ġ Uan
an tane
Ġi re
al oni
Ã¡ tala
Ġm is
Ġt amb
Ġt ÃŃr
Ġs eldo
qu in
el dan
Ġl Ã©r
er yallo
ya ssen
Ġc ilme
Ġh w
Ġa v
Ġa x
Ġa va
se a
te va
Ġy et
Ġy esta
na m
Ġv ir
Ġv il
Ġp Ã©
ir allo
tan elme
tan ette
Ġe an
Ġe cuva
Ġe pesse
Ġan tanen
Ġan yÃ¡r
Ġan ga
Ġan tollo
Ġna sse
Ġna uvalve
de va
as te
re o
ti elda
ti essen
ol lon
Ġsa va
Ġsa ile
is tana
Ġcar dan
Ġcar nel
Ġo h
Ġya ime
et ye
ĠH o
and ar
and ur
Ġma hta
Ġin we
us enna
Ġr ass
Ġr Ã©li
tar o
ĠÃº sa
Ã¡n en
quen te
tal esse
Ġf ind
Ġtul c
Ġtul ilde
Ġman ce
Ġco tya
Ġco antur
Ġquet il
Ġquet uvas
Ġquet ilme
Ġquet tali
ca ve
Ġor taine
Ġor tuvar
Ġas Ã¡
ĠlÃ¡ re
Ġet ul
men ya
Ġhya me
Ġhya pa
Ġal an
Ġal as
ĠÅŁ el
Ġcen nelme
Ġnar ca
Ġte ce
Ġmar ne
Ġmar tar
Ġmar den
ĠÃ¡ sen
ĠÃ¡ valte
Ġnati ssen
nar on
ĠS in
ĠS oro
um na
Ġsin tes
Ġsin telte
Ġsam ien
Ġhan tes
Ġhan quet
le xand
Ġra i
Ġnin ye
ĠmÃ¡ pala
ĠI ÅŁ
Ġmel dan
Ġtal lelte
Ġap pane
Ġpol il
Ġpol dor
Ġol uva
ĠF eli
Ġmer end
Ġau tala
iel yan
Ġtan uva
Ġtan war
Ġlan g
Ġam min
Ġcam ir
Ġcam nen
Ġeng en
ĠyÃ¡ vi
ĠyÃ¡ cine
ĠÃºcar indo
Ġaiquen o
Ġaur eli
ĠN Ã©r
Ġce mello
Ġver ur
Ġver iÃ©nen
ĠAn anÃŃas
Ġlend en
ĠC an
Ġul yane
Ġnam p
ĠsÃ¡ ma
ĠÅŁang annar
ĠmÃ³ n
Ġvan tar
Ġvan cer
ĠYÃºr allon
Ġca p
Ġnanw iÃ©nen
oron da
Ġner ello
Ġhar ive
ĠhÃ¡nor yan
Ġhro asse
Ġsavi elya
Ġpean tier
Ġvet tane
Ġval anna
Ġatar i
Ġsan ne
Ġhanquen tes
ĠÅŀ ess
Ġtyar is
ĠcÃ¡r ima
Ġpar a
sa vet
Ġhir uva
Ġnai ce
Ġcor do
yal ve
Ġyan e
ĠAtan i
Ġevandilyon en
tiel yan
Ġur taine
Ġreh tien
xe o
ĠaÅŁ cÃ©nima
Ġnis so
Ġtun ta
ĠtÃºr ie
Ġhlass elde
Ġtarw erya
ĠLa h
ĠErul issenen
Ġhor ta
Ġendal ta
Ġquer ne
Ġquer nes
Ġlas tar
Ġlas tane
Ġtana ina
Ġmelme o
gwe o
Ġmet tasse
Ġarc ala
Ġtum yaine
Ġlamb esse
Ġlamb essen
Ġperper ir
Ġcu cu
Ġyomenco asse
quet in
ĠÃºp uh
Ġcom yane
Ġnen o
Ġala h
Ġnor e
ĠÅŁanye o
ĠYÃ©sun en
ĠcÃ³l ala
Ġais tana
ĠÃºfa ili
Ġleng ie
Ġtelpe mit
Ġsumb ana
Ġtiu tale
Ġastar mor
Ġist uvalde
ĠacÃ¡m ier
Ġhep ir
Ġlat yana
ĠrÃºÅŁ ea
Ġlu i
ĠAinol ya
Ġfe al
Ġtarwes taina
Ġeh Ã©
Ġtux ar
val ve
Ġarmar or
Ġarmar olya
Ġmoli erya
aia fas
ĠYÃºre allo
Ġendar yasse
ĠÃ±ot to
Ġataril var
Ġhrupuh tie
Ġnir m
ĠÅŁany elÃ³r
ĠcÃŃl ina
Nan wa
Ġnara ce
Al ve
Ġimmotun tiel
Ġetelend es
Ġulc ul
Ġus que
Ġsanw el
Ġsuil ar
ĠapsÃ©n ina
Ġrin c
Ġroc co
Ġetequen ta
Ġot s
Ġot sea
ĠindÃ³m erya
ĠAntioc enna
Ġmeh ten
Ġlianta sse
Ġlianta ssion
Ġpit yar
Ġmeleh te
ĠYo pp
Ġveryan gweo
ĠElÃŃ savet
Ġoravi Ã©va
Ġtalen ti
He pa
Quet in
ĠAnd rÃ©
Ġimba cin
Ġhai me
ĠindÃ³ menen
Val ima
pus tien
ĠÃºmir we
Ġamaqua tien
Ġimmon en
Ġamy Ã¡ra
ĠFeli x
ĠÅŀess aloni
, '
E a
E t
H il
N Ã³
T e
T al
Y en
c oli
c onna
d esse
d elte
i as
i hta
m me
m ne
n ion
r enen
s in
t tan
t us
u tÃº
v in
v ine
v ello
w en
en yasse
Ġi mbe
Ġn il
Ġn eh
Ġar Ã¡
Ġar inyave
Ġt iel
Ġt iesse
Ġt imbar
Ġs Ã³m
el vo
Ġl it
Ġl ier
Ġh au
Ġh elma
Ġqu or
ta inen
ir on
ir yar
on do
il ar
il la
il dar
tan et
Ġe v
Ġe men
Ġna u
ti elde
ti Ã©la
ve a
yan t
ĠA i
ĠA m
ĠA lexand
Ġcar nelde
Ġo ÅŁ
Ġya cien
Ġil lon
ĠH an
Ġma tie
Ġin den
Ġr Ã©n
Ġr ende
Ġr ip
Ġmal lo
Ġmal ler
Ġen wa
Ġen do
Ã¡n on
Ã¡n oli
Ġf ea
Ġf ÃŃr
car as
ĠnÃ³ mi
ĠnÃ³ tine
Ġle ve
un te
Ġtul esse
Ġtul co
Ġpan oli
Ġpan yuva
Ġman te
Ġman nar
Ġmen ien
Ġquet uvar
An elte
Ġor tuva
Ġor tanelte
mb ar
ĠtÃºl ienwe
li on
Ã©r ier
ĠÅŁ anda
Ġcen nel
ĠHris tollo
ire a
Ġis tuva
Ġis tieldan
Ã¡m es
Ġte ca
Ġte hta
Ġte cie
Ġmar nes
Ãģ ni
ĠS umb
um nel
um yando
Ġsin yar
Ġsam ieldan
Ġhan tal
Ġhan quete
Qu e
Ġes taine
Ġhr anga
ĠquÃ© tal
ĠmÃ¡ ma
Ġqual ler
Ġqual les
Ġapa ire
Ġap pan
Ġos tol
Ġpol uva
Ġol oi
ĠsÃŃ s
ĠsÃŃ re
Ġau tean
iel ve
Ġter cen
Ġlan ne
Ġnat innar
Ġnat tir
Ġla hta
Ġcam ie
Ġcam uvar
Ġcam uvalde
Ġcam uvas
ĠyÃ¡ re
Ġalcar en
Ġalcar esse
Ġcoi ta
Ġaur ello
ĠN i
Ġanta ven
Ġlem ne
Ġlem yanes
Ġlem yuva
ĠT ar
ĠT umyando
ĠAtar enna
Ġce ÅŁ
ĠC en
ĠC ir
ĠC aiafas
Ġundu me
ĠsÃ¡m an
Ġcan tea
ĠÅŁang o
Ġon Ã³
Ġon taina
Ġvan w
ĠtÃ¡ lala
Ġhar mar
Ġpen ie
Ġhro alya
ĠyÃ© tala
ĠnÃ¡v enen
Ġnyar d
Ġnyar nen
ĠmÃ¡r yasse
can e
Ġcol ien
Ġru cie
Ġval o
Ġval aryar
Ġlai c
Ġsan nelte
Ġnos sen
ĠcÃ¡r alde
Ġlende t
Ġnai que
Ġnai quetie
Ġmai te
Ġevandilyon nen
Quen i
ĠtÃºre o
Ġett ul
Ġcal asse
Ġcal ima
Ġmapa ine
Ġpanya ine
Ġreh tiÃ©va
Ġyen tes
ĠIs aia
Ġcir ner
Ġcir nelme
Ġoi ale
ĠtÃºr i
Ġva im
Ġva hta
Ġva xeo
Ġper ta
Ġnes tane
ĠR Ã³
Ġendal va
Ġlun ge
Ġlun tesse
Ġlin g
Ġtur qu
Ġah tar
Ġcoivi erya
Ġarcan er
Ġcendel ello
Ġmor na
Ġocomb en
Ġnel ci
Ġpal pa
Ġqueti Ã©va
ĠAvrah Ã¡men
ĠMar co
Ġem Ã©
Ġem pan
Ġarc alde
Ġtyer ir
Ã³r ie
Ġessen ya
Ġsav il
Ġsav uvalde
Ġnur taina
Ġcaras tane
Ġcom yanelte
Na t
Ġala mor
Ġroi tie
tul yane
Ġain o
Ġain ol
ĠnÃºror yar
ĠIl ye
ĠIl quen
alda in
Ġenor tave
Ġcard ali
ĠlÃ¡v es
ĠHerol o
ĠhÃ¡no in
ind oli
Ġlimpe o
ĠhÃŃn ali
ha te
Ġapan tane
Ġnoir illo
Ġrauco h
Ġarmar yar
Ġantor yallo
Ġataril dar
ĠÃ¡nie tye
ĠQu Ã©n
Ġtungwe m
ĠHerun na
ĠaÅŁar enna
Ġmanw ien
ĠhlÃ¡r ina
Ġettel ie
Ġlap se
ĠcÃŃl ine
Ġhos ta
ĠEule o
Ġmavar i
ĠhÃŃr ine
Ġairin te
Ġturu e
Ġus sar
Ġtelya ina
Ġtelya ine
ĠÂº an
Nyar in
Ġrin ga
Ġmit yasse
ĠhlÃŃ vel
elÃ³r ar
Ġcem pal
ĠÅŁÃº l
ĠHellen yar
Ġcain er
Ġcain es
Ġceste alde
Ġlama te
Ġnesta ine
Ġhur indo
Ġosc ÃŃrine
ĠCor in
ĠAsi asse
ĠAtarin yo
ĠÃºlÃ©v ima
ĠYohan nes
Ġiltan ca
Ġaucir ne
Ġlimp enen
ĠhyÃ³l arya
ĠÃļyÃºr ar
neli o
ĠEh enna
Ġlumb o
ĠocÃ³m ienwe
Ġnatt ire
ĠYondor yo
Ġquelex ima
Ġenvin yanta
Leh e
Ġvir colcar
Ġimbacin de
ĠoÅŁ w
ĠSumb ando
Ġcempal ie
A m
C ara
H inyar
O s
P Ã©ter
S ine
S aul
T an
T ira
T eldave
U alte
a h
c ima
c oni
d al
f ÃŃ
h en
h lÃ¡r
i te
l an
l al
l ina
l elde
m Ã©
m is
m aron
p uva
u or
v es
v ala
v anda
w ion
y Ã¡
y umnes
Ġ ?âĢĿ
an te
an yar
an tie
an tanes
Ġn ollo
al l
al issen
Ġm ello
Ġar andur
Ġt ier
Ġt ira
Ġt Ã¡nala
Ġs Ã©r
Ġs elye
Ġs Ã¡nen
el ion
el mo
el ÃŃr
el yallo
el danen
Ġl il
Ġl ass
ya ve
Ġh Ã¡m
es tanna
se v
te al
Ġy ale
Ġv arya
ĠnÃ¡ mi
Ġp on
Ġp et
Ġp ile
ir esse
or ice
tan ya
tan eltes
Ġan talde
Ġan tuvas
Ġna ssenen
ti elte
ĠY a
ye a
is tie
Ġquen enna
Ġquen ello
Ġcar ila
Ġcar mar
Ġo po
Ġya inen
Ġma us
Ġma que
Ġma tuva
Ġma ile
Ġma quete
Ġin yenen
Ġin tesse
Ġr and
Ġr ando
uv ala
Ġmal tanen
ĠtÃº n
ĠtÃº nes
Ġen a
Ġen de
Ġen yala
Ġve h
Ġve assen
ĠÃº re
ĠÃº os
Ġmi tya
quen ter
Ã¡r an
car yanta
car iot
Ġle per
Ġtul ciello
Ġpan yuvar
Ġman telte
Ġmen de
ĠÃŃ ri
Ġco it
Ġquet umne
Ġor tala
Ġor tir
Ġua tte
ĠtÃºl et
li o
Ġmir we
men tanes
Ġim mol
Ġquente t
Ġquente tte
erya ssen
ĠM inyave
Ġcen in
Ġcen ÅŁ
Ġcen uvalde
Ġcen uvalte
Ġqui quie
ce aron
Ġnan cam
Ġmar tya
Ġmar tienwa
Ġmar tanel
Ġmar deva
ĠÃ¡ te
dor yar
Ġnati va
Ãģ men
ĠS ar
ĠS al
um nen
ĠlÃº men
Ġsin ter
Ġhl Ã¡ra
Ġhl Ã¡rala
ĠP eantar
Qu Ã©n
tien we
oi va
vi Ã©no
Ġer nÃ³na
Ġra mb
Ġra xe
Ġra umo
Ġra vanda
Ġtar ilde
Ġepe mma
Ġmel a
Ġtal uva
Ġtal ana
Ġtal tiÃ©va
Ġap ir
Ġpol des
Ġol ler
Ġmer nen
Ġmer ilte
ĠlÃ© re
Ġtan o
Ġtan na
Ġtan nar
Ġtan uvan
Ġlan ner
Ġlan tuva
Ġlan ni
Ġnat inen
Ġnat illon
Ġair inta
it ye
Ġrimb alin
Ġmau yuva
Ġho pie
Ġaur en
Ġaur ion
arya in
ĠN am
Ġlem yar
Ġlem nes
ĠT i
ĠT ro
ĠT ambe
ĠT Ãºra
ĠT omas
ĠhÃ© pina
lon en
ĠAn taro
ĠC ar
ĠC ili
ĠC ip
Ġnam pa
Ġnam iÃ©va
Ġnam Ã¡rie
ĠsÃ¡m anen
Ġon dor
ĠYÃºr annar
Ġnanw ere
Ġhar ma
ĠnÃ³r en
ĠnÃ³r ennar
ĠnÃ³r ellon
ĠÃ± Ãº
Ġmun dor
Ġty Ã¡ra
Ġpen iÃ©nen
Ġend allo
ĠyÃ© talde
ĠnÃ¡ve o
ĠmÃ¡r iesse
Ġvet tar
mar yanna
Ġmin que
Ġval die
ĠV er
ĠV Ã©l
Ġsan ner
SÃŃ ra
Ġfail ar
Ġhlar ul
Ġtyar ir
Ġtyar uva
Ġtyar nes
ĠYer i
Ġpar masse
Ġoron ti
Ġcor dallo
Ġtel p
Ġmil pi
Ġmil lonen
Ġten ce
Ġten cen
ton ya
ton nar
Ġcal o
Ġces tanelte
Ġces tea
ĠIs cariot
ĠAl ÃŃ
Ġli erya
Ġli htar
Ġtala messe
Ġlau ca
Ã³m u
ĠtÃºr ion
Ġva ÅŁar
Ġpoi taine
Ġcaram pelte
Ġtarw esse
ĠLa orice
Ġnes tana
ĠR Ã³m
Ġlin gwe
ĠrÃº cima
ĠhrÃ¡ve va
Ġrau coron
Ġah tu
Ġhend elya
Ġhend usse
Ġlas taner
Ġcardar on
Ġcendel er
Ġcendel enna
Ġyunque o
Ġvali on
Ġvar e
Ġpal la
Ġqualme va
ĠnÃº re
ĠnÃº tine
Ġairimo in
Ġnah tie
Ġcos ti
Ġnanwen e
Ġtum yal
ĠNÃ¡ se
Ġlamb a
Ġaxan yar
Ġtyer ien
Hanquen tes
Ġny Ã©n
Ġcu ru
Ġcu ile
Ġyal le
Ġyomenco antur
Ġistal te
Ġnur r
Ġses tiel
Ġses tiessen
Ġcaras tien
Ġcaras taina
Ġtyas taina
Ġserce va
ĠcÃ©n elÃ³ra
Ġat yÃ¡r
Ġess elya
Ġher un
Ġmat ir
ĠamyÃ¡r aron
ĠFa irenen
ĠLavir ion
Ġparmangol mo
Ġmaur enen
Ġfor yasse
Ġfor manya
Ġapsen ien
Ġcim ne
Ġcim ila
Ġairi ta
ĠIl ya
ĠIl uvala
Ġenor tie
ĠPilÃ¡ tonna
Ġheh tane
Ġheh tana
Ġcard alyar
ĠNa ti
Ġantan elde
Ġapanta ine
Ġastar moli
ĠequÃ© ties
ĠhÃ¡nol yar
Ġqua te
Ġhy Ã¡mala
col ca
Ġapan tie
ĠnÃ¡vel van
ĠAinol vo
Ġmas tonna
ĠecÃ©n iel
Ġvoronw ie
ĠmÃ¡m aron
Ġeh eh
Ġoc caryanta
Is talve
Ġmoli Ã©nen
Ġpil ur
ĠU as
Ġtaras ta
Ġtaras taine
ĠQu etta
Ġmacil den
ĠÃ³ra vie
Ġhildo in
Ġverir yallo
Ġtungwe mo
Ġtungwe mor
Ġnir me
Ġcana que
Ġamb ela
Ġsap s
ĠYÃºra in
Ġongw i
Ġocom ne
ĠmÃ¡n en
ĠpÃ¡ ÅŁ
ĠpÃ¡ ÅŁe
Ġenyal ien
Ġcordon in
ĠErulisse o
marya sse
Ġhyami esse
Ġlaita xe
Al de
Ġhos s
Ġamar imbar
ĠCo mb
Ġcanwar yar
Ġetelend er
ĠMaceroni allo
Ġtin we
Ġtin wi
Ġlus te
Ġfas ta
Ġainoc imie
Nyar a
Ġtec etta
ĠtÃ³ p
ĠMel et
ĠMel cis
Ġtanne xe
Ġperp Ã©re
ĠnapÃ¡n ina
Ġquettan ya
Sam in
TÃº le
ĠsÃºr i
Ġann ali
Ġamiller yanna
Ġmancan e
Ġmelm elda
Ġtalul yat
Ġcaim asse
ĠAp ollo
Ġohta car
ĠÃºa cÃ¡r
ĠÃºh anda
Ġnurru la
Ġsaili Ã©va
Ġissen en
Ġairimon nar
ĠLamasc usse
Lend es
ĠVe tan
Ġtolpor ya
Menel o
ĠquÃ¡r ele
Ġiny esse
Ġlepen quean
Ġolv ali
Ġhroaran tal
Ġsapsar yanna
ĠCÃ©sare anna
ĠNÃ¡sar etello
ĠSecar ÃŃa
Ġungwal er
Ġhyapa t
ĠIÅŁ il
Ġcap taine
Ġtelpemit tar
Ġlui carne
Ġnelci va
Ġveassen en
ĠVÃ©l sev
Ġahtu mat
A s
A in
C Ã©
E ar
H o
H ÃŃ
H uor
M ar
O r
P ilÃ¡
R imb
S isse
T ul
U alde
a in
a ta
c un
c ire
c Ã©no
c ele
d allon
e xe
h o
h ar
h Ãº
h ir
h tala
i essen
l ine
l ai
m erya
m eli
o mar
p as
p ier
p essen
p io
r oi
t t
t umnelte
t umner
t Ã¡ve
t yer
u tÃºr
v or
y Ã©
Â ·
Ġ &
ar yo
an tala
an anta
an we
en quean
Ġm ala
Ġar in
Ġar ye
Ġt or
Ġt ÃŃra
Ġs on
Ġs anen
qu ila
el in
el dallo
el Ã³re
Ã© m
Ã© ra
Ġl ienya
Ġl ÃŃre
Ġc au
Ġc oli
Ġc ÃŃr
Ġc Ã¡mala
Ġh elde
Ġqu ai
Ġa tal
te ar
Ġy ulda
Ġv elde
Ġv ele
ĠnÃ¡ ma
ĠnÃ¡ mor
ĠnÃ¡ ha
Ġp Ã©l
il v
va in
tan nar
Ġe as
Ġe Ã±
Ġu lo
Ġan tie
Ġna pane
me on
ti o
ol le
ĠY eh
ĠY Ã©ru
ĠE xeli
yan elde
yan ette
Ġquen illon
ĠA ÅŁ
ĠA ure
ĠA quila
Ġcar uvalde
Ġcar iÃ©nen
Ġcar uvalve
Ġcar uvalme
Ġo to
ĠEru hÃŃ
ĠH ara
Ġma ta
Ġma car
ĠtÃº cina
Ġen w
Ġen elmo
Ġen enquean
ĠÃº v
ĠÃº van
ĠÃº ÅŁe
ĠÃº tul
ĠÃº han
ĠÃº renen
Ã¡n onna
Ġmi tta
Ġmi quenen
Ġf ir
Ġf ennar
Ġlen ca
car pie
ĠnÃ³ time
un na
Ġtul il
Ġtul lo
Ġtul tanes
Ġtul iello
Ġtul yaneltes
ai on
Ġpan yala
Ġman i
Ġco assen
Ġquet to
ur i
ur ar
Ġor ya
Ġor tuvas
Ġor omar
Ġor utÃºr
Ġas sa
ĠlÃ¡ ver
Ġet te
Ġet san
ĠtÃºl ula
li es
co i
Ġal le
ris to
ĠM asse
ĠM auya
ĠÅŁ Ã¡n
ĠÅŁ amb
ĠÅŁ aura
Ġcen ie
Ġcen uvar
Ġcen uval
Ġis in
Ġis tien
Ã¡m ie
Ġte v
Ġte ar
Ġmar tas
ĠÃ¡ ten
ĠÃ¡ valve
ĠS i
um nelme
um neltes
ĠlÃº mello
ĠP on
ĠP ris
Ġsam uvar
Ġsam uval
Ãºr o
Ġhan teltes
Ġhil yanet
Ġes si
Ġhr ÃŃve
Ġhr estanna
ĠquÃ© tar
Ġta p
Ġra c
ĠÅŁan de
ĠÅŁan wali
ĠmÃ¡ tala
Ġqual uva
tel i
ĠI coni
Ġmel uva
Ġapa cÃ©no
Ġtal unyat
Ġlo im
Ġpol car
os on
Ġmer en
Ġex ion
Ġtan ana
Ġtan wal
Ġlan tar
Ġlan tala
Ġlan tanelte
Ġlan tuvar
Ġam m
Ġam Ã¡
Ġam anw
Ġla ul
Ġcam a
Ġcam is
Ġcam ilde
ĠyÃ¡ na
ĠyÃ¡ cina
ĠL an
ĠL Ãº
Ġalcar nen
Ġalcar inque
ĠÃºcar ner
ĠAr te
arya ina
ĠN an
ĠN Ã³
ĠN anye
Ġlem ner
Ġlem yane
tana el
ĠsÃ¡m arya
Ġcan e
Ġcan in
Ġcan wali
Ġcan asta
ĠÅŁang ali
ĠÅŁang anna
Ġon tar
ĠmÃ³ lo
Ġear enna
ĠhÃŃ no
ĠYÃºr ali
Ġca ima
Ġtu ce
tanen ye
Ġhar i
ĠnÃ³r ello
ĠÃ± ar
ĠÃ± Ã©
Ġty es
Ġpen ye
Ġhro anya
Ġsavi erya
uval tes
ĠyÃ© tar
Ġre mbe
ĠÃģ nin
Ġnyar nelte
Ġpean ti
Ġpean tana
Ġcol le
Ġvet tan
Ġvet tien
Ġru i
Ġru htaina
Ġmin do
Ġlai tala
Ġlai tuva
Ġlai tuvan
Ġatar yanna
Ġatar elyan
ĠnÃºr ol
ier yanen
Ġhanquen ta
Ġnos si
Ġhlar ilde
Ġtyar ila
Ġhir a
Ġhir ner
Ġnai quet
Ġnai cel
Ġata que
ĠMa tt
yal to
Ġtel pen
Ġmil ca
ĠÃºquen en
Quen tette
Ġfair enya
Ġcal tane
Ġimmo tur
Ġha ire
Ġha irallo
Ġvoron we
Ġur ya
cir ie
pan ya
pan yane
Ġser cen
Ġser cer
ĠmÃ© les
Ġyes tanelte
Ġtun tala
Ġces tien
ĠnÃ© ÅŁa
Ġli h
Ġlau pe
ĠtÃºr esse
Ġva htana
elta ssen
ĠcÃ³ la
Ġnes tien
Ġhor me
Ġhor tala
ĠacÃ¡r ier
Ġlin d
Ġlin ta
Ġtur ir
ĠhÃº na
Ġestel o
Ġill innar
Ġrau coli
ĠErutercÃ¡n oli
Ġler yane
Ġler yana
ĠnÃ¡m ien
ĠnÃ¡m oson
Ġhend unyat
Ġhend uldat
ĠYon don
ĠIsra elde
Ġmor do
Ġind esse
Ġvar na
Ġpal pan
Ġanai elme
Ġnah tar
Ġnah tana
Ġlar ma
Ġnanwen nelte
Ġem marya
Ġquettar ya
Ġarc as
Ġlam ya
Ġcoire ar
Ġtum yane
Ġtum yale
Ġtum yaina
Ġnas s
Ġcu mb
Ġyal me
ĠrÃ¡ cine
Ġyomenco allo
Ġyomenco alta
quet uva
Ġsav ilve
ĠnÃ³re tur
ĠmÃ¡l ya
Ġhyam ier
Ġhim yar
Ġmap ie
Ġess eryanen
Ġnor enna
quÃ© tal
Ġher en
Ġher ur
Ġher uvi
ĠYÃ³ na
Ġloi co
ĠcÃ© na
Ġvin co
Ġvin taine
ĠAlile anna
Ġleng aner
ĠhÃ¡non nar
ĠvÃ¡ ne
ĠvÃ¡ quete
ĠvÃ¡ vea
Ġenor tiesse
Ġtol to
Ġtol tea
Ġtiu ta
ĠahlÃ¡r ielme
Ġlimpe vor
Ġist yo
ĠhÃŃn aldain
Ġhep ien
Ġmard il
Ġmard ello
Ġamill inya
Ġamill elyan
ĠÃļ quen
ĠrÃºÅŁ ello
ĠmÃ©n annar
Ġmanwa ina
ĠnÃ³nar i
Ġquil ta
Ġleh tien
Ġvoronw iÃ©nen
Ġnait yane
Ġoc Ã³
Is tala
Is talde
Ġhlai we
Hya ma
Ġpel ila
Ġpil u
ĠÃ±wal yaina
estar ya
ĠTeh tel
ĠTeh teler
ĠÃ±ot tor
Ġmacil lion
Ġnir menen
ĠaÅŁar esse
Ġmanw ane
Ġongw eli
ĠmÃ¡n yat
Ġveu ya
Ġveu yaner
ĠvÃ©r aryar
Ġlap s
ĠnÃ¡re va
Ġhyami Ã©va
Al ye
ere c
Ġlah tala
ĠMirrandor esse
ĠMirrandor ello
ĠtÃ¡r ar
Ġuru ite
Ġhildon yar
ĠMaceroni a
ĠMaceroni anna
ĠIngar anen
Ġlis ce
Ġniss in
ĠcÃ¡m ine
Ġcel var
Ġautuva t
ĠhÃŃnar yar
Ġhaim i
ĠEfes usse
Ġsail iÃ©nen
Ġfan wa
Ġfan yasse
Ġender o
fir in
ĠÃ±et ie
Ġamiller yo
Ġlingw ili
ĠPaul on
Ġcaim alya
ĠaquÃ¡ lie
ĠÃºh and
ĠtÃ©ra ve
Ġterc Ã¡nor
Ġlatya ina
ĠÃ±en te
Ġainocim ya
Ġvend i
Ġins anna
ĠMi ci
Ġtermar e
ĠÃ±ottol yar
Ġfindel erya
ĠhÃ©r i
ĠfÃ¡r anna
ĠCÃ© fas
ĠquÃ©r ine
ĠSand u
ĠSand Ãº
ĠRehtol va
Ġhelmol pi
Ġhelmol pessen
Ġettele ar
Ġhildol yar
ĠLis t
Ġhem pe
Ġquais ta
Ġliss eryo
ĠHev eryasse
Ġeffir ne
Ġcun dor
Ġec coi
ĠStef Ã¡no
ĠlacenÃŃ te
Ġhamun es
ĠLÃ¡sar us
Ġtamb ala
Ġhw er
Ġtulc ana
Ġetul yaina
Ġmerend enna
ĠÅŁanyelÃ³r ie
Nanwa ve
Ġsanwel un
Ġrinc anen
Ġots olo
ĠAndrÃ© as
Ġev Ã©rie
Ġnau ta
ĠAi quen
ĠHan quen
ĠfÃŃr ima
Que ta
ĠonÃ³ tie
Ġempan ne
Ġtungwem Ã³li
Ġmaus tanen
Ġmartanel yane
ĠCip ru
Huor e
PilÃ¡ to
Ġquai hÃº
ĠeÃ± Ã©
ĠYÃ©ru sale
ĠAÅŁ en
Ġoto quean
ĠÃºhan de
ĠIconi um
! ,
A tan
A vrah
A cÃ¡r
A hlÃ¡r
C an
C or
C ol
C Ã©n
H ama
I n
L Ãº
M elme
N as
N alye
R aine
S in
T er
Y es
Y ana
Y ane
c assen
d enna
f r
h Ã¡
h tienna
i ca
i tat
l in
l lo
l issen
m ie
m ÃŃ
n an
n Ã¡
n or
n Ã¡vel
p ul
p ali
s u
t inya
t yal
u el
v uva
v Ã©nen
v ienya
y umne
Ä ¦
Ä §
Ġ Ä¦
an yanna
en yar
Ġn elya
Ġn wal
Ã¡ lie
Ġt usse
Ġs el
Ġs oi
qu asse
el to
el yo
el yala
el van
el tanna
Ã© tan
Ġl ÃŃ
Ġl iel
Ġl estar
Ġc ire
Ġc ilde
Ġc umna
Ġh lo
Ġh Ã©n
Ġh esto
Ġqu es
Ġqu esta
Ġqu Ã³r
ta uvan
Ġa val
Ãº s
Ãº va
âĢ Ļ
te o
Ġy u
Ġv Ã¡n
Ġv iel
Ġp o
Ġp Ã©nala
ir ia
il ya
il yar
or esse
ÃŃ o
Ġe ule
Ġu ÅŁa
Ġan ar
Ġan tal
Ġan dan
Ġan tuvar
Ġan talme
Ġan talte
Ġna p
Ġna in
Ġna tal
Ġna xan
Ġna uvalme
ĠâĢ Ļ
ru la
ti tas
ol l
ne tte
ĠE a
ĠE que
ĠE la
Ġsa te
Ġquen tel
ĠA nah
ĠA istana
Ġcar iel
Ġcar ilme
Ġcar umnes
Ġcar danen
Ġil ce
Ġil yannar
Ġil firin
ĠEru nen
et tar
ĠH ye
Ġin tu
Ġr Ã¡m
Ġr ot
tar co
im me
im pe
ĠtÃº ne
Mal lo
Ġen tasse
Ġen utÃº
Ġve vien
ĠÃº tan
ĠÃº cÃ¡rima
Ã¡n ier
to sse
Ġpa ca
quen i
am f
Ã¡r ar
tal to
Ġf i
Ġf en
Ġf aica
Ġlen ya
Ġlen ta
pa fr
ĠnÃ³ telta
Ġle o
Ġle p
un ya
un qua
Ġtul un
Ġtul yana
Ġtul taine
Ġtul une
Ġtul cane
ai tala
ai tie
Ġpan ie
Ġpan tie
Ġpan tanes
Ġpan tana
Ġpan iÃ©nen
Ġman tes
Ġmen t
Ġmen uvalme
Ġco tye
Ġquet ila
Ġquet uvalve
An es
Ġor ir
Ġor iva
Ġet s
ĠtÃºl ar
li elde
Ã©r on
men de
erya va
Ġal dar
ĠM ass
ĠÅŁ or
ĠÅŁ aure
Ġcen neltes
Ġte cin
Ġmar uva
Ġmar ill
ĠÃ¡ me
ĠHer oli
ĠS er
ĠS isse
ĠlÃº li
Ġsin ge
Ġhl arya
ĠP amf
Ġsam ie
Ġsam uvalte
Ġsam uvalve
Ġhan te
Ġhan ter
Ġhan yanelte
Ġhan yuvalde
Ġhil yar
Ġhil mor
Ġes tanes
Ġes toli
vi a
Ġhr an
Ġer ehtie
ĠquÃ© tane
ĠquÃ© tas
Ġta in
Ġra htane
ĠÅŁan ce
ĠÅŁan cier
Ġnin qu
Ġtar nes
ĠmÃ¡ na
tel ya
tel ÃŃnen
Ġmel ie
Ġmel il
Ġtal len
Ġtal uldat
Ġlo ali
ĠhÃ¡n oron
Ġol o
Ġol va
Ġol len
ĠsÃŃ te
os anna
Ġmer ilme
Ġau tan
Ġau tie
Ġau tas
Ġau cire
Ġex ennar
dar yasse
iel ma
Ġtan asse
it te
Ġrimb ar
Ġcam itas
Ġeng et
Ġeng elte
ĠL er
Ġcoi vienya
Ġaran ien
ĠÃºcar in
ĠÃºcar ello
ĠÃºcar elva
ĠÃºcar eltar
ĠÃºcar indoli
Ġho man
ass i
ĠN Ãº
ĠN oa
Ġlem y
ĠAtar en
Ġtien yasse
Ġver io
ĠAn elte
ĠC es
Ġul car
Ġul quete
Ġyon dol
ĠsÃ¡m asse
ĠsÃ¡m elme
ĠsÃ¡m alda
ĠÅŁang ier
Ġana h
Ġnu quer
Ġqueni va
Ġon tale
Ġon tiÃ©no
Ġon donna
ĠmÃ³ tar
ĠmÃ³ la
ĠtÃ¡ l
ĠYÃºr an
Ġsu cie
Ġsu cuva
Ġnanw er
Ġnanw iello
Ġner te
Ġner wa
Ġner ion
ĠnÃ³r ie
ĠnÃ³r esse
ĠÃ± Ã³
Ġty enna
Ġpen in
Ġend anen
Ġend anya
Ġend eltasse
Ġhro an
Ġsavi elta
Ġsavi eldo
ĠyÃ© tien
ĠyÃ© talve
ĠnÃ¡v enna
tÃº lien
Ġnyar na
Ġnyar ien
end es
Ġpean tien
Ġcol ir
Ġcol uva
Ġvet tala
Ġvet tierya
Ġru ca
Ġmin ar
Ġmin da
Ġairim onna
Ġval ar
Ġval ali
Ġlai tien
Ġatar in
Ġatar yo
ĠnÃºr on
ĠnÃºr oli
ĠPÃ©ter o
ĠV ala
Ġfail iesse
Ġhlar in
Ġhlar is
ĠcÃ¡r an
ĠcÃ¡r al
ĠcÃ¡r ime
uvas te
ĠHÃ©ru sse
Ġoron telte
Ġoron tesse
Ġoron tenna
Ġoron tello
Ġhir is
Ġnai quÃ©
ĠÃ³m alta
Ġlyen ya
yal le
Ġexe va
Ġqualin aron
Ġyondor on
Ġyondor yar
van i
Ġten ge
tiel ma
Ġfair elda
Ġcal pa
Ġcal tala
tier yo
Ġno a
Ġha ta
Ġha me
Ġur d
Ġur tana
Ġreh tuva
ĠaÅŁ ie
ĠmÃ© nas
Ġran c
Ġran tal
Ġtun ce
Ġces tar
ĠAl f
Ġtala ine
Ġlau p
ĠtÃºr eryanen
Ġva t
Ġva ine
Ġva ce
Ġva htar
Ġpoi taina
Ġhlass elme
Ġtarw asse
Ġtarw allo
Ġnes sar
Ġnes tiÃ©va
ĠR Ã¡
Ġhor tane
Ġhor tale
Ġlemya s
Ġlin ga
Ġtur ne
Ġham pa
Ġham ner
Ġham une
Ġmah tala
Ġmah tie
Ġhen ta
Ġhen taina
ĠAtanyon don
ĠO n
ĠO s
Ġetel e
Ġvala ina
gw i
Ġler tal
Ġcoivi esse
ĠMÃ³ senna
ver yallo
Ġcendel eryanna
Ġapostel in
.' âĢĿ
ĠhrÃ¡v en
ĠhrÃ¡v erya
Ġmelme va
ĠYÃ¡ son
Ġind is
Ġocomb in
Ġvar yala
Ġpal p
Ġpal as
Ġqueti ello
Ġcos to
Ġcos tie
Ġcos tier
Ġlim il
Ġnanwen uva
Ġmet tanna
Ġarc ien
Ã©li on
Ġtum ya
Ġlamb i
Ġcu iva
Ġyal ir
ĠrÃ¡ cina
Ġmahal mallo
quet ila
Ġsav ien
Ġsav ilde
Ġnur taine
Ġmenta uvas
ĠmÃ¡l ta
ĠmÃ¡l yanen
Ġtyas taine
Ġhyam nes
ĠcÃ©n al
ĠcÃ©n ina
ĠcÃ©n ine
Ġnen ion
Ġat wa
Ġess elyanen
cor Ã©m
tul yanes
Ġne me
ĠcÃ³l ina
ĠcÃ³l ima
Ġparmangol moli
Ġmaur i
Ġfor ya
Ġfor yaryasse
Ġoscir iÃ©va
Ġais ta
Ġpeanta ina
Ġcim ir
ĠvÃ¡ vie
Ġheh taina
Ġheh tuva
Ġtol o
Ġtol lo
ĠNa tanael
Ġsumb ie
Ġcil m
Ġcil le
Ġquan tie
Ġantan el
ĠahlÃ¡r ien
ĠahlÃ¡r iel
ĠahlÃ¡r ier
ĠsÃ³ ve
Ġastar mo
ĠequÃ© tier
Ġist yanna
ĠhÃ¡nol ma
ĠhÃŃn ion
ĠÂ ª
Ġlanta s
ĠÃļ sie
Ġhravan i
ĠmÃ©n al
Ġlu mbe
Ġlu xo
Ġapan tien
Ġapan tiÃ©nen
Ġmas tonnar
ĠecÃ©n ies
Ġnoir i
Ġleh tie
Ġoc ca
ĠSam Ã¡re
ĠSam Ã¡rea
Ġhlai war
ĠapÃ¡n ien
ĠapÃ¡n iel
Ġhroar yo
ĠIsraÃ© len
La vir
Ġquetien yar
ĠSÃ¡tan o
lien wa
Ġverul tar
ĠYÃ³sef o
Ġhrupuh taner
Ġarani erya
Ġrun cer
Ġrun dali
Ġamb os
ĠaÅŁar o
ĠÃŃr enen
Ġocom nelte
ĠmÃ¡n yanen
ama cil
ĠÅŁany ello
Ġlap sar
Ġhendul yat
ĠcÃŃl in
ĠcÃŃl inar
ĠettÃº ler
Ġhyami Ã©nen
Ġnampes es
Ġcoll asse
Ġcoll arya
Ġcoll altar
Ġvis ta
ĠMan w
Ġlah tanes
ĠCa in
Ġimmotun tie
ĠReh to
Ġhyar yaryasse
asar us
ĠlÃ©ra ve
ĠÅŀany ello
Ġnet yana
Ġcirya m
ĠÃºpoi cie
ĠMaceroni asse
Atar inya
Ãºra in
ĠlÃºm erya
Ġhendu ttat
ĠÂº anye
Eru o
ĠmÃ¡rien yan
Ġpeantar i
han te
han tes
Ġluh tya
Ġcel ume
Ġroh tarya
Ġroc coron
Ġerd eli
Ġqualina iva
Ġsendare o
aldar on
Ġso val
Ġnacan telte
Ġalassen ya
ĠÃįsa co
ĠhÃŃnar ya
Ġpaityal erya
Ġpaityal elda
Ġettelea in
Ġvel ien
Ġvel le
ĠEfes us
Ġsail ar
Ġorme va
ĠÅŁÃº le
ĠindÃ³m elya
ĠsÃºr inen
ĠYes us
ĠPan yuvan
Ġpit ye
Ġant Ã¡ven
Ġalass elda
ĠsÃ¡v ala
ĠsÃ¡v elde
Ġnostar u
Ġnostar yat
Ġnostal er
ĠOron tenna
Ġlama ti
ĠcÃ¡n ina
Ġum ne
Ġosc aitala
ĠCor nelio
Ġtyel pe
ĠnÃ©v es
ĠnÃ©v elte
Ġhas taine
ĠaquÃ¡ lier
Ġtalen t
Ġamma te
Ġamma tir
Ġcolla ttar
Ġhaira ve
Ġnurru ner
ĠCapernaum enna
ĠIngaran o
Ġand amacil
Ġins asse
Ġres tan
Ġentul esse
Ġurda ve
Ġfindel e
Ġurus teva
Lend elte
hil yane
ĠicÃŃ lie
Ġhes sa
ĠEr as
ĠÃºÅŁ er
ĠÃºÅŁa htie
ĠfÃ¡r asse
ĠÅŁanyen golmor
Ġcoiti on
Ġsuc uvan
ĠnyÃ©r esse
Ġerum asse
Ġtall eltes
Ġtiutal Ã©nen
ĠIsraelind i
ĠSolomon do
ĠAc ai
ĠAla ti
Ġcoal yanna
Ġtarmen ello
Ġtarmen issen
ĠRÃ³me a
ĠRÃ³me ar
ĠSamÃ¡r io
ĠSever aio
hlai wa
ĠÃ±etien yan
ĠHev erya
Ġhund ier
Ġeffir nes
Ġanton en
Ġsai cel
Ġsai cele
Ġrer indo
ĠasÃ¡vi er
ĠPar masse
Ġeld enen
Ġnecel tus
Ġhuruterc Ã¡noli
ĠverulÃ³r ar
ĠlalevÃŃ te
Ġmis te
Ġrass ion
Ġalas a
Ġmeldan ya
Ġammin de
Ġnamp eltes
ĠmÃ³n allo
Ġcucu ar
Ġulcul lo
Ġliantasse o
ĠYopp anna
ĠÅŀessaloni c
Hil doryar
Ġnil da
ĠarÃ¡ cie
Ġtimbar eltasse
Ġappan es
ĠTar s
Ġvanw iesse
ĠemÃ© lie
Ġraucoh aryaina
ĠÃ±Ãº le
Ġmundor on
ĠAlÃŃ le
ĠnyÃ©n iron
ĠatyÃ¡r ie
Ġherun yanna
ĠMelcis erec
Ġhroarantal dar
ĠEruhÃŃ ni
ĠÃºvan ima
Ġtanwal ÃŃnen
ĠArte mis
Ġlaituvan yexe
Ġsercer yanen
Ġyomencoalta ssen
ĠcÃ©na ina
pul Ãºne
Ġandan Ã©ya
corÃ©m us
Ġrundali on
' ?
A na
A istana
C ama
E tel
E cÃ©n
H Ã©
H ara
H Ã¡non
I m
I sse
L e
L er
M Ã¡
M er
M ai
M inya
N u
N alde
N alme
O l
P en
R u
S Ã¡mes
T yar
T ai
T ana
T Ãºra
U i
U al
U alye
V Ã¡
Y ar
Y er
a ca
c esse
c erya
c ind
d ul
d enen
d eli
d aiva
e an
f an
h e
h or
i asse
i allo
i eryasse
m er
m Ã³
m Ã©n
m oron
m Ã©o
n un
n oli
o sse
p ine
p oi
r anga
s ol
s am
s ello
t se
t to
t tes
t oron
t ilte
t uvalve
t innar
u a
v ina
v is
v allo
w es
y enna
y Ã¡vi
y Ã¡ven
ar we
an ne
an tien
an tuva
an elme
Ġi qu
Ġn impa
al Ã©
al ie
al car
al ma
al li
al tasse
Ã¡ ne
Ġm Ãº
Ġm esse
Ġm us
Ġm ine
Ġar car
Ġar inya
Ġar mal
Ġar por
Ġar maron
Ġt umne
Ġs or
Ġs is
Ġs it
Ġs arya
Ġs ely
el Ãº
el yar
el yanna
el var
Ġl ÃŃr
Ġl ÃŃve
er quean
Ġc Ã¡no
Ġc umne
Ġh ala
Ġh anda
Ġh yal
Ġh ele
ta mi
Ġa talli
Ġy Ã³
Ġy ala
Ġy Ã¡n
Ġy elde
na i
na htar
Ġv ai
Ġv ello
Ġv Ã¡ra
Ġp ale
Ġp oc
ir o
on en
on nar
on io
va i
tan ie
tan dor
tan doli
Ġe cien
Ġan h
Ġna mb
Ġna iresse
Ã³ va
as tar
me t
ru va
ti u
ti elya
ol is
ĠY en
ĠY esse
ĠY os
ĠY anna
ĠE ul
ĠE li
yan ten
ĠA v
ĠA ta
ĠA na
ĠA ir
ĠA ris
ĠA io
ĠA ÅŁar
Ġcar i
Ġcar ion
Ġcar uval
Ġcar umne
Ġcar nelme
Ġcar pala
Ġcar ieltan
Ġcar pie
Ġo tor
Ġo htal
Ġya ce
Ġil au
Ġil quasse
Ġma xe
Ġma quetin
Ġin ya
Ġin sa
Ġin tya
Ġin tenna
us to
Ġr ind
Ġr impa
Ġr ihta
Ar an
Ar can
Ġye va
Ġen ne
Ġen caras
ÅŁ ina
ĠÃº m
ĠÃº na
ĠÃº pe
ĠÃº nen
ĠÃº anwe
Ġmi tye
Ġpa i
am me
am nor
tal yar
tal le
Ġf anya
Ġf ele
Ġf Ã¡rie
Ġlen da
car e
Ġtul taina
Ġtul iÃ©nen
Ġtul yanes
Ġtul yaner
Ġtul umnes
Ġtul yaina
Ġtul cala
Ġtul Ãºna
Ġpan ta
Ġpan taner
Ġpan yalde
Ġpan yuvan
ma pien
Ġman c
Ġmen ne
Ġmen uva
Ġmen tana
Ġmen tanen
Ġmen ieltan
ĠÃŃ ta
Ġco tum
An tan
ca vo
Ġor tu
Ġas ca
Ġas tassen
Ġet y
ĠtÃºl an
ĠtÃºl el
li el
co m
Ġmir u
Ġim men
ĠM illo
ĠM erin
ĠÅŁ ar
ĠÅŁ in
Ġcen iÃ©nen
Ġcen nelde
ĠHris tor
ce ar
ci o
ci Ã©va
ci tas
Ġnan ce
Ġnan cÃ¡r
Ġis istie
Ã¡m elte
Ġnar ta
Ġnar can
Ġte cien
Ġmar cir
Ġmar tuvas
Ġmar illa
Ġque tiel
Ãģ te
Ãģ valye
ĠS ina
ĠS ion
ĠS os
ĠS inen
ĠS iri
ĠS ilv
ĠlÃº sse
Ġsin tel
Ġsin telde
Ġhl us
ĠP er
ĠP et
ĠÃ³ r
Ġsam pe
Ġsam ieltan
Ġsam ielvan
Ġsina pio
Ġhan quÃ©tal
Ġhil doli
Ġel a
Ġnauva t
Ġes tol
Ġer ta
Ġer ume
ĠquÃ© talte
la ur
Ġsen de
Ġsen wa
Ġta is
Ġra p
Ġra mba
ĠÅŁan ya
Ġtar uva
ĠmÃ¡ o
Ġqual ine
Ġqual uvalde
Ġqual lelte
Ġepe m
ĠI tali
ĠI quin
Ġmel in
Ġmel ilde
Ġmel ilve
Ġtal ar
Ġtal uryat
Ġlo mbe
Ġlo ima
Ġap p
Ġap Ã¡rie
Ġos ti
Ġpol uvalde
Ġyar on
Ġol oresse
ĠsÃŃ ti
os ta
ĠF or
Ġmer ila
Ġau p
Ġau talde
uvan es
uvan yet
iel tasse
iel man
Ġtan anna
Ġlan e
Ġlan tie
Ġlan tanen
Ġlan nel
Ġlan tiello
Ġlan nion
Ġlan telya
Ġam Ã¡p
Ġla htie
Ġair il
Ġair it
Ġair elÃŃr
yon do
Ġcam nelte
Ġcam ilve
Ġcam ielvan
Ġeng we
ĠyÃ¡ ma
ĠyÃ¡ ver
ĠyÃ¡ vel
ĠL isse
Ġalcar elta
Ġalcar eryasse
Ġcoi te
Ġcoi va
Ġcoi tas
Ġaran ier
Ġatan nar
Ġatan nahtar
Ġatan yondo
ĠÃºcar il
ĠÃºcar eldar
Ġho cir
ĠAr ima
Ġun unte
Ġaur enna
Ġanta ve
Ġanta ine
Ġanta uvar
Ġlem ie
Ġlem nelme
Ġlem yuvan
ĠT er
ĠT ie
ĠT ul
ĠT ur
ĠT ri
ĠAtar elya
Ġce u
Ġver ie
Ġver ca
Ġver ce
Ġver taine
Ġver uvi
Ġpe te
ĠAn nas
Ġlend an
ĠC e
ĠC rÃ©
Ġul um
Ġul yaina
Ġul qui
Ġul quetie
Ġnam iesse
Ġnam pen
Ġyon doli
ĠsÃ¡ men
ĠsÃ¡ tine
ĠsÃ¡m elve
ĠsÃ¡m alya
ĠÅŁang an
ĠÅŁang asse
Ġnu te
Ġvan tea
Ġsu cir
Ġtu c
Ġtu i
En yala
En noli
Ġcas tas
Ġhar yuvar
ĠnÃ³r essen
ĠhÃ¡nor yo
ĠÃ± on
Ġmun do
Ġty Ã¡ve
Ġpen ya
Ġpen ter
Ġpen nelte
Ġpen ielta
Ġend an
Ġend anyasse
Ġhro alda
Ġhro aldar
ĠyÃ© tie
Ġre mma
ĠÃģ tar
ĠÃģ sa
ĠÃģ si
ĠÃģ ron
ĠÃģ valye
Ġnyar ie
Ġnyar dan
Ġac cas
Ġpean tal
Ġpean tiÃ©nen
Ġpean talli
Ġcol is
Ġvet tanes
Ġru s
Ġru cir
Ġru ive
Ġru ciÃ©nen
Ġru ciesse
Ġru ciÃ©no
Ġmin yar
Ġmin nÃ³na
Ġairim Ã³va
Ġsi to
Ġlai tan
Ġlai tar
Ġlai tiÃ©no
Ġatar elva
ĠV o
ĠV enya
Ġsan e
Ġsan an
Ġsan al
Ġsan nes
SÃŃ s
Ġfail iÃ©nen
Ġfail iÃ©no
Ġfail ierya
Ġhlar a
Ġhlar uvar
ĠÅŀ ia
Ġtyar in
Ġtyar ie
ĠcÃ¡r as
ĠHÃ©ru n
Ġoron tinnar
Ġhir ie
Ġhir ien
Ġhir uvalde
Ġnai quete
ĠÃ³m ali
Ġcor danna
Ġata qui
ĠMa ttat
mi elte
ĠvÃ©ra ve
Ġyan ce
Ġyan allo
Ġyan cali
Ġmil cie
Ġqualin ion
Ġpus tala
Ġpus tanes
Ġten g
Ġten gw
ĠtÃºre a
Ġett ule
NÃ¡ ne
tiel ta
tiel tasse
tiel van
Ġfair en
Ġfair enna
Ġfair erya
Ġfair eryanen
Ġcal ta
Ġcal ca
Ġcal maltar
Ġven esse
don yar
Ġno ta
Ġno tin
Ġimmo sse
Ġmol a
Ġmol ien
Ġmol iel
Ġmol ila
Ġha ur
Ġha tien
Ġha tiÃ©nen
Ġvoron wa
Ġvoron dar
Ġur de
Ġreh tiel
Ġreh tiÃ©no
pan yanes
Ġran to
Ġran tali
Ġran ces
Ġces tanes
Ġyen ter
ĠnÃ© ve
Ġcir ie
Ġcir ihta
ĠAl ve
Ġelmen dar
Ġelmen dali
Ġli ello
Ġnancar uva
Ġlau tala
Ã³m essen
ĠtÃºr ar
Ġva htaina
Ġva imar
ĠFaris ali
ĠÃºcare va
elta inen
Ġcaram p
Ġhlass el
Ġtarw ello
Ġtarw antur
Ġnes s
Ġnes tala
ĠSÃŃ meon
Ġhor tie
Ġhor talme
Ġendal yanen
Ġendal tanen
Ġlun tenna
Ġlun tenen
Ġlun tello
ĠrÃº cala
Ġtur cor
Ġtur Ãºna
Ġtur con
ĠhÃº ra
Ġoan tie
Ġestel elva
Ġsar te
Ġhen tane
ĠErutercÃ¡no in
Il qua
Ġesse o
ĠO nÃ³
Ġetel es
Ġetel elya
Ġquer ie
Ġquer ir
Ġler tan
Ġler tane
Ġler talde
Ġhend elyasse
Ġorta uva
Ġlas talde
ÅŁe allo
Ġapostel ion
Ġapostel innar
Ġlisse o
ĠhrÃ¡v enna
ĠhrÃ¡v enya
ĠnÃºro moli
Ġind enna
Ġocomb essen
Ã¡v ala
Ã¡v ien
Ġlelya s
Ġvar tane
Ġvar nas
Ġpal an
Ġpal ie
Ġpal le
Ġanai elte
ĠÃ¡n in
Ġairimo sse
Ġlar manen
Ġnanwen uvan
Ġquettar on
Ġmet se
Ġarc uva
Ġarc alve
Ġlam yuva
Ġyondo tya
Ġlamb e
Ġaxan nen
Ġtyer ne
Hanquen telte
Ġyal ie
Ġyal ien
Ġyal delte
Ġmahal mo
Ġsav in
Ġsav is
Ġnur tana
Ġses tier
Ġpait yuva
Ġcom yala
Ġcom yaner
Ġhyam ilde
Ġserce o
ĠcÃ©n elÃ³rar
Ġnen i
Ġhim yane
Ġhim yalde
Ġhim yuvas
Ġat tan
Ġat Ã¡r
Ġmap uvan
Ġess eryasse
Ġnor esse
Ġmat uvalde
Ġmat talta
Ġmat son
Ġroi tane
Ġroi tien
ĠamyÃ¡r annar
Ġloi taner
Ġne ve
Ġne mne
Ġcala va
ĠcÃ³l ar
ĠcÃ³l enen
Ġparmangol moron
Ġmaur eryar
Ġfor malya
Ġoscir ne
Ġain or
Ġain oli
Ġvin im
Ġvin imo
Ġete mentane
Ġpeanta ine
Ġcim ie
Ġcim ner
Ġcim ilde
ĠÃºfa il
ĠÃºfa ile
ĠnÃºror yannar
Ġcai tumnelte
ĠIl lume
Ġhra vo
Ġenor tale
Ġenor tuvanyes
Ġenor tÃ¡ve
Ġheh tanes
Ġheh taner
Ġheh tanette
Ġtelpe o
Ġtelpe va
Ġtol u
Ġcard assen
ĠNa t
Ġlempe a
Ġtiu taine
Ġcil in
Ġantan etye
Ġastar i
Ġnuc umne
Ġnuc ume
ĠhÃŃn anya
ĠacÃ¡m ien
ĠacÃ¡m iel
ĠacÃ¡m ielde
Ġto m
Ġto pe
ha tin
ha tis
ĠHriston na
Ġistya va
ĠÃļ car
ĠmÃ©ti mar
col casse
Ġapan tana
ĠFaire o
Ġmas tar
Ġmas tollo
Ġfe u
Ġfe ar
Ġfe anya
Ġtulca ine
ĠyÃ¡l inar
Ġnoir isse
Ġquil desse
Ġpitya ve
Ġleh tane
Ġeh en
Ġeh tel
Ġeh ehtie
ĠEn ge
Ġimne t
ĠSam a
ĠlÃ³m issen
Ġerde o
ĠÃ±wal yaine
lien we
ĠU alde
estar a
Ġataril tar
Ġnucum ie
Ġnucum nie
Ġhrupuh tal
ĠQu et
Ġarani enna
Ġverir yo
Ġhlasse t
Ġoante tte
ĠfÃ³ li
Ġmanw ana
ĠÃŃr ime
ĠhlÃ¡r alde
ĠFilip p
ĠFilip enna
ĠnÃºromol ienya
Ġvalde a
ĠpÃ¡ lala
ĠpÃ¡ line
Ġenyal in
Ġveu yane
Ġtir ne
Ġtir ner
Ġlel yan
Ġserc esse
Ġserc ello
Ġhendul tanten
ĠsÃº cala
ĠEruion o
Ġinsen en
Ġvis tane
Ġvis taina
ĠnÃ¡r wa
ĠnÃ¡r nen
ĠEule va
ĠAnar o
Ġcoar yo
Ġcoar yallo
Ġamar tier
Ġlah taner
ĠnÃŃr elissen
Ġliy Ãº
Ġetelend elte
Ġetelend elde
Ġmorni Ã©no
ĠMirrandor o
ĠMirrandor enna
nÃ³ time
ĠÃºcarindor on
Ġulc uva
Ġulc un
Ġulc unen
ĠVet Ã¡n
ĠrÃºÅŁe o
ĠrÃºÅŁe va
Ġnet ya
Ġnet erquean
ĠtÃ¡r i
ĠtÃ¡r ane
Ġsanw eltar
Atar il
Ġtin wion
Ġteh teler
ĠlÃºm eli
Ġniss ion
Ai qua
Ġfas tane
Ġfas tala
Ġhande o
Ġtalyat se
ĠnÃ©ÅŁ ar
Hl ara
par ma
Ġluh tanes
Ġrely Ã¡vi
Ġtec et
ĠhlÃŃ v
ĠhlÃŃ ve
Ġerd erya
ĠÃ±e te
ĠhyÃ³ la
ĠtÃ³ pina
Ġso va
Ġso ve
ĠrÃ©r yar
Ġpanyan ette
ĠolÃ³ lier
Ġlanco ar
Ġamp it
ĠNasar et
Ġcem pali
Ġsaviel danen
Ġsarn ollo
Ġpaityal elta
Ġanwa ve
ĠHe pa
Ġquettan yar
Ãĵ ma
Ġlely uvan
Ġamiller yan
ĠÃļy Ãºrain
Ġlal ane
Ġint yala
Ġint yalde
Ġmeleh tenen
Ġnostal Ã©lion
Ġetemen ne
Ġetemen nes
ĠrelyÃ¡v al
ĠcÃ¡n ala
ĠElÃŃ an
Ġantorya me
Ġsalque c
Ġhossetur conna
tyar nes
tuval den
ĠAsi allo
ĠÃºa iri
Ġfal asse
Ġasto va
ĠMen tan
Ġterc Ã¡n
ĠyÃ¡v erya
ĠutÃºli el
ĠutÃºli elde
Ġnanwenne tte
ĠihÃŃr ie
ĠihÃŃr ien
ĠCapernaum esse
ĠÃºlÃ©v im
Ġvend en
Ġsaili Ã©no
Ġrah tala
ĠCara xo
Ġremb ettar
ĠÃ±ottol ya
ĠLamasc us
Ġimba cind
Ġhai ya
Ġiltan ce
ĠasÃ¡m ie
ĠasÃ¡m ielde
Ġcaur ie
ĠOl ca
ĠOl co
ĠnyÃ©r enen
Ġmina ÅŁ
Ġhal ma
ĠquÃ©r ina
ĠEh en
Ġcarp alte
ĠmÃ©na ssen
Ġnissen en
Ġquap talesse
ĠRehtol vo
ĠquÃ¡r el
Ġevet tie
ĠAc aia
Ġlepen que
ĠetÃ© cie
ĠetÃ© cien
ĠMil pi
ĠMil pier
Ġolv arya
Ġtannes exe
Ġherul tar
ĠSamÃ¡r ia
ĠihÃŃ lier
Ġcalmatar masse
ap pi
tÃ¡ la
Ġnul dasse
Ġsun celte
ĠnÃ¡mon dur
Ġelen g
Ġelen tir
Ġnattol dar
ĠlacenÃŃ ti
ĠLÃ© vi
ĠÃºcarel var
Ġcanw ara
ĠVÃ¡vel enna
Ġyangw asse
Ġnisque o
Ġhuruterc Ã¡no
ĠLÃ¡sar o
Cen nen
Her unya
Ġav Ã¡nie
Ġvil ya
ĠanyÃ¡r ie
ĠanyÃ¡r ien
Ġanga ina
Ġcarnel yane
Ġfind il
ĠasÃ¡ vie
ĠasÃ¡ ties
ĠSoro m
Ġmeldan yar
Ġpoldor e
Ġammin da
ĠCan Ã¡
Ġquerne xe
Ġcucu a
Ġalah as
ĠehÃ© pien
Ġimmotuntiel ta
ĠYopp asse
ĠamyÃ¡ra in
ĠÅŀessaloni casse
Te ca
Ġquor ner
Ġemen ta
ĠAlexand er
ĠAlexand ri
Ġhantal Ã©nen
Ġoloi tie
Ġlanne o
Ġundume o
Ġharmar yallo
Ġnyard ala
Ġlaic elda
Ġoiale a
ĠRÃ³ messe
Ġturqu ime
Ġpalpa ina
ĠÅŁÃºl enen
ĠCorin tesse
fÃŃ rula
all elÃº
Ġtier yar
Ġlil tane
Ġmaque tier
Ġcoit uvalve
Ġmartya ina
ĠSal mon
Ġlanner yar
ĠNam iÃ©va
Ġnampa it
ĠLaorice asse
Ġtumyal Ã©nen
Ġcuru nen
Ġnurr eli
Ġsestiel ÃŃnen
HÃŃ na
Rimb ali
cun do
Ġtor ye
Ġcau ma
ĠnÃ¡ma ina
Ġfir ne
ĠNan car
Ġcanasta tur
Ġtyes taina
ĠMatt Ã©o
Ġimmotur ie
Ġsercen ya
Ġlimpevor ma
ĠÃºhand ie
ĠSandÃº cearon
ĠList ra
ĠYÃ©rusale menna
Avrah am
mÃŃ no
Ġhlo irea
Ġaval er
ĠvÃ¡n er
Ġnap sa
ĠAnah risto
Ġrot to
ĠMass aron
ĠPamf ili
Ġnanwer enen
Ġranc uryat
ĠOn tie
Ġetele hta
ĠAcai asse
ĠTars us
ĠAlÃŃle a
HÃ¡non yar
Ġiqu indo
alÃ© mo
Ġmus si
Ġhele xe
Ġnamb ÃŃre
ĠAris tarco
Ġilau rea
Ġrind esse
ĠMillo aldaron
ĠnancÃ¡r ine
Ġmarcir ya
ĠSilv Ã¡no
Ġestol ie
ĠArima ÅŁeallo
Ġcastas ta
ĠVenya mÃŃno
ĠMilpier on
allelÃº ya
! âĢĻ
) ,
, "
. .
A pÃ¡n
A ppa
A uri
C e
C es
C ana
E s
E quÃ©
F a
F e
F ah
H ir
H yane
H yana
H Ã©ru
H ira
H osanna
H allelÃºya
I mne
L en
L ai
L elyala
M Ã³
M elda
M Ã¡ra
M inyave
N i
O tso
P ol
T ar
T enna
U l
V et
Y al
Y Ãºr
a va
a pa
c uvar
c Ã³m
c Ã¡ra
d i
d ier
d alta
e o
f tali
f imo
h t
h er
h te
h us
h tien
h ÃŃr
h ia
i vi
l enen
l elme
l alme
l elve
l aner
m um
m ion
m elda
m manen
n ane
o in
p ilde
r io
s or
s au
t Ã©
t il
t yane
t yanes
t illa
t sol
u ine
u ca
u yaron
v ul
v uvar
w enna
x on
y ello
Ġ Ġ
ar et
ar ea
an de
an tes
en te
en yan
Ġn un
al do
al ima
al yo
al tiel
al Ã³re
Ã¡ va
Ã¡ co
Ã¡ tie
Ã¡ tina
Ã¡ nas
Ġar na
Ġar tar
Ġar maltar
Ġt ire
Ġt anen
Ġt ielta
Ġt yet
Ġt eldave
Ġs imp
qu ar
qu il
qu Ã©rala
qu ante
el li
el eh
el yen
el danna
Ã© a
Ã© tima
in esse
in co
Ġl ala
Ġl Ã©n
Ġl and
Ġl Ã¡r
Ġl ur
Ġl um
Ġl umne
Ġl elye
Ġl andar
ya cim
Ġc Ãº
Ġc ul
Ġc ile
Ġc elva
Ġc Ãºna
Ġh in
Ġh li
Ġh esta
Ġh inna
es tonna
es ron
es talta
Ġqu ar
Ġqu am
Ġqu ali
Ġqu estar
Ġqu Ã©rala
ta m
ta in
Ġa pe
Ġa van
Ġa caras
Ġa carpie
Ãº en
Ãº lo
Ġy er
Ġy anta
Ġv ÃŃ
Ġv eli
Ġv esta
Ġv inye
Ġv inta
Ġv estara
Ġp ele
Ġp imp
on dor
il ye
il da
il des
il ÃŃva
or tanes
va ina
va ssen
ÃŃ vesse
tan ien
tan Ã©ya
Ġe ul
Ġu Âº
Ġu amme
Ġan an
Ġan er
Ġan de
Ġan Ã¡m
Ġan tuvanyes
Ġan cÃ¡rima
Ġan donna
Ã³ na
Ã³ ni
re as
re hta
ti ssen
ol ta
ol ÃŃnen
ol issen
ĠY usto
ne a
ne o
ĠE pe
ĠE pafr
lo ire
is tala
yan te
yan yasse
Ġquen issen
ĠA reo
Ġcar uvalte
Ġcar iello
Ġcar indo
Ġcar itas
Ġcar pien
Ġcar umnel
Ġo ire
Ġo poi
Ġya m
Ġya x
Ġya me
Ġya im
Ġya cie
Ġya ciÃ©nen
Ġil quenna
Ġil cerya
uva t
et ya
et eleh
ul i
ul tan
ĠH yar
ĠH orro
ĠH rÃ©
ĠH Ã©ra
ĠH esron
Ã©n er
Ġma ira
Ġma val
Ġma quetie
Ġma tis
Ġma quetuva
tar i
uv Ã¡vel
Ġmal o
ĠtÃº ner
ĠtÃº cine
ien yan
Ġen tÃº
Ġen cen
Ġen yalde
ÅŁ ie
ÅŁ ea
ÅŁ amb
ÅŁ ambe
ĠÃº f
ĠÃº nelte
ĠÃº sie
ĠÃº man
ĠÃº cÃ©n
ĠÃº nÃ³time
Ã¡n ien
Ã¡n ielde
Ġpa casse
tal ya
tal ÃŃnen
tal laner
Ġf ar
Ġf indor
Ġlen ce
pa hus
car a
car ya
car uva
car uvas
car pala
ĠnÃ³ tala
ĠnÃ³ mello
un yant
Ġtul ta
Ġtul yan
Ġtul car
Ġtul ila
Ġtul uvalde
Ġtul yanelte
Ġtul yalte
Ġtul carpie
Ġpan or
Ġpan yar
Ġpan taine
Ġpan tiÃ©no
Ġpan yalve
ma u
ma va
ma puva
Ġman anen
Ġman nen
Ġman cali
Ġmen is
Ġmen tie
Ġmen nes
Ġmen tuva
ĠÃŃ tali
Ġco mbe
Ġco anya
pe o
pe antala
da ina
Ġse va
ĠtÃ© vine
Ġor ie
Ġor taner
Ġor menen
Ġor Ã¡ve
Ġet ya
Ġet tan
Ġet yali
Ġet utÃº
Ġet yÃ¡
li elve
men o
Ġim na
Ġim messe
erya inen
Ġal Ã¡
Ġal ie
Ġal mar
Ġal dasse
Ġal umo
ris toli
ĠM er
ĠM Ã¡r
ĠM ess
ĠM Ã©tima
ĠÅŁ Ã©
ĠÅŁ ambe
ĠÅŁ Ã¡mo
ĠÅŁ Ã©ya
ĠÅŁ amnor
ĠÅŁ Ã©ner
Ġcen d
Ġcen il
Ġcen is
ci me
ci enna
ci eldan
Ġnan quer
Ġnan cÃ¡rima
Ġnan cÃ¡rala
Ġis tie
Ġis tuvan
Ã¡m alte
Ġnar taina
Ġte vir
Ġmar a
Ġmar ien
Ġmar da
Ġmar tanes
Ġmar tumne
Ġmar tiÃ©la
Ġmar tumner
ĠÃ¡ pan
nar e
nar o
Ãģ sa
ĠS Ã¡r
ĠS ara
ĠS ilo
um nelde
ĠlÃº lissen
Ġsin g
Ġsin en
Ġsin gwa
nes aret
Ġhl Ã¡p
ĠÃ³ nen
ĠÃ³ maryanna
Ġsam uvas
Ãºr or
Ġhan u
Ġhan yaner
Ġhan yuvar
Qu Ã©tan
oi talde
Ġes telde
vi on
Ġhr Ã³
Ġhr ÃŃvesse
Ġer eh
ĠquÃ© taina
ĠquÃ© tanes
la ina
Ġta ur
Ġta urar
Ġta tallaner
Ġra cine
Ġtar is
Ġtar we
Ġtar uvar
Ġtar nen
Ġtar amb
Ġtar weo
ĠmÃ¡ ta
Ġqual ilve
Ġqual mello
Ġqual menen
Ġqual merya
?âĢĿ ,
tel ma
tel essen
ĠI m
Ġmel is
Ġmel uvar
Ġmel ila
Ġmel mello
Ġmel donyar
Ġapa ir
Ġtal elya
Ġtal uvas
Ġtal ane
Ġtal masse
Ġtal unyant
Ġlo asse
Ġlo mb
Ġlo allo
Ġlo anna
Ġlo assen
Ġap Ã¡r
ĠhÃ¡n oli
Ġpol ilve
Ġpol lelte
Ġpol ieryan
Ġol lo
os s
os enna
os sen
ĠF Ã¡r
ĠF ri
ĠF estonna
Ġmer ende
Ġau men
Ġau tuvan
Ġau tul
Ġau tumnes
Ġau teal
imb e
Ġex ello
Ġex elin
ĠÃ ĳ
ĠÃ ĵ
iel yar
iel do
iel yo
iel mo
iel dasse
Ġtan w
Ġtan ar
Ġtan an
Ġtan as
Ġtan iÃ©va
Ġtan umnes
Ġtan Ã¡ven
Ġlan te
Ġlan ca
Ġlan go
Ġlan tienwa
Ġlan tuvalde
Ġnat wa
Ġnat ton
Ġam mir
Ġla ire
Ġla vi
Ġla quentes
Ġair iva
Ġair innar
Ġcam pe
Ġcam uval
Ġcam pes
Ġcam nelme
Ġcam ieltan
ĠyÃ¡ nasse
ĠsÃ© va
Ġmau yanelte
ĠL o
ĠL ir
ĠL asarus
Ġalcar ya
Ġalcar yuva
Ġcoi talve
Ġaran wa
Ġaran ion
ĠÃºcar en
ĠÃºcar unqua
Ġun un
Ġun que
ass o
ass elde
ĠN as
ĠN yar
ĠN alte
Ġhe htaine
Ġanta uvas
Ġlem yalde
Ġlem yuvas
ĠT o
ĠT al
ĠT Ã¡rar
ĠT inco
ĠAtar esse
ĠAtar yo
ĠAtar eldo
ĠhÃ© pa
ĠhÃ© pine
Ġce Âº
Ġver in
Ġver uo
Ġver ildar
Ġver ilya
ĠC Ã¡n
ĠC Ã©nala
ĠC Ã¡malte
Ġul le
Ġnam in
Ġnam il
Ġnam ne
ĠsÃ¡ ne
ĠsÃ¡m ar
ĠsÃ¡m el
ĠsÃ¡m ala
Ġcan ya
Ġcan is
Ġcan nen
Ġcan wal
ĠÅŁang iesse
Ġnu ta
Ġnu htane
Ġon tana
Ġon taine
Ġon don
Ġon naron
ĠmÃ³ tie
Ġvan ce
Ġvan ime
Ġvan talve
Ġvan talme
Ġnanw ienna
oron te
Ġtu cuva
Ġner nen
Ġcas tan
Ġcas to
Ġhar na
ĠnÃ³r ala
ĠnÃ³r elva
ĠÃ± and
ĠÃ± au
ĠÃ± war
ĠmÃŃ r
Ġmun tasse
Ġty Ã¡vel
Ġpen ilde
Ġend asse
Ġend eldasse
ĠlÃºme o
Ġelde va
Ġhro allo
Ġhro aron
Ġhro anyasse
uval den
uval yes
ĠnÃ¡v elta
ĠÃģ vel
Ġnyar is
Ġnyar uva
Ġnyar ier
ĠmÃ¡r al
ĠmÃ¡r ala
ĠmÃ¡r iÃ©va
ĠmÃ¡r iÃ©no
Ġac Ã¡nie
end el
end uri
Ġpean tiesse
Ġpean tierya
Ġcol de
Ġcol ca
Ġcol ilde
Ġcol ler
Ġcol les
Ġvet taner
Ġvet tiÃ©va
Ġvet toli
Ġru htane
Ġmin ques
Ġmin nÃ³
Ġairim ollon
Ġval arya
Ġval taner
Ġval annar
Ġval aryain
Ġlai ca
Ġlai tuvar
Ġlai tuvas
Ġatar o
Ġatar yan
Ġatar inya
Ġatar elda
Ġatar yallo
Ġatar eldo
Ġatar etta
Ma quetin
ĠnÃºr onya
ĠPÃ©ter en
ier yar
ĠV a
ĠV alime
ĠV alima
Ġsan ar
Ġsan as
Ġsan nelme
Ġsan alve
Ġhanquen tar
Ġquetta tya
Ġfail aron
Ġtyar a
Ġtyar ner
Ġtyar uvalte
Ġtyar ilte
Ġtyar iello
Ġtyar uvanyet
ĠÃ¡va s
ĠÃ¡va tte
ĠÃ¡va sa
ĠcÃ¡r ar
Ġmunta va
ĠYer e
ĠYer us
ĠYer Ãºs
Ġmenel den
Ġhir na
Ġhir nen
Ġhir nelme
Ġhir uvaste
dan nar
Ġnai quente
ĠÃ³m anyanna
ni ce
no c
Ġnal die
Ġatta sse
mal da
mal lon
yal des
Ġtel ien
Ġtel yala
Ġtel mello
Ġyan nar
ĠAtan illon
mon nar
Ġmil yar
Ġmil ce
Ġmil yala
Ġmil yalde
Ġmai tar
Ġmai tana
man te
man nar
man ten
Ġyondor yan
ĠÅŀan yen
Ġpus taner
Ġantane xe
van nar
Ġten ces
Ġilquen o
ĠYoh Ã¡n
ĠYoh Ã¡non
ĠtÃºre va
Ġett ira
Ġett ula
NÃ¡ la
tiel ve
Ġfair ello
Ġfair eli
Ġfair ellon
tol ion
Ġcal anna
Ġcal yaina
Ġven eli
ĠhÃ©re o
Ġmol indor
Ġmol ielda
Ġha t
Ġha tie
Ġha tuva
Ġha tumne
Ġha tuvalte
Ġur na
Ġur tane
cir na
pan er
Ġser ien
ĠaÅŁ cen
ĠaÅŁ cÃ©n
Ġran tanna
Ġyes tala
Ġtun tan
Ġtun cer
Ġces tane
Ġyen telte
ĠIs tan
ĠIs cÃ¡r
ĠIs talve
Ġcir ne
Ġcir ca
Ġcir yo
Ġcir nelte
Ġcir yasse
ĠAl de
ĠAl ye
ĠAl lio
Ġoi alie
Ġli v
mor ra
Ġcarne t
Ġcarne tte
ĠtÃºr elta
Ġva htaine
Ġpoi tie
Ġpoi tien
Ġpoi tana
ĠFaris annar
Ġtarw enen
Ġtarw aryasse
ĠmÃ³l er
ĠErul is
cen nen
ĠR e
ĠR Ãº
ĠR am
ĠR aine
Ġhor tal
Ġendal yasse
uh tie
ĠrÃº cina
Ġtur i
Ġtur ie
Ġtur ien
ĠhÃº ta
ĠhÃº tie
Ġham mar
Ġham mer
Ġestel inya
Ġestel den
Ġestel elta
Ġestel elma
Ġmah taner
Ġsar ni
Ġhen do
Ġhen tea
Ġraine car
ĠO nes
ĠO tso
ĠO tsol
ĠO morra
Ġetel ely
ĠquÃ¡ taina
Ġvala te
Ġah anen
Ġah Ã¡mie
ĠÅŁanga in
ĠnÃ¡ven yan
Ġler tas
Ġler talve
Ġler talme
ĠnÃ¡m ienya
Ġapos tolion
Ġcoivi elda
Ġhend ion
Ġhend uryat
ĠMÃ³ sen
ĠMÃ³ sello
ver ias
Ġlas tala
Ġlas tien
Ġlas tanelte
Ġhu re
Ġhu ine
Ġcendel esse
Ġcendel elya
Ġcendel elta
ĠhrÃ¡v enyasse
ĠÅŀanye va
Ġocomb ion
Ġocomb enduri
Ġnel mo
Ġvar tumne
Ġanai el
Ġanai elve
ĠÃ¡n ien
ĠnÃº te
ĠnÃº ti
ĠnÃº telÃŃnen
Han tale
Ġnah tuval
Ġnah tieltan
Ġcos ta
Ġcos tiÃ©li
Ġlar o
Ġlar nen
Ġlim pen
Ġem Ã©n
Ġem Ã©li
Ġem manen
Ġem pane
YÃ© tala
Ġarc anen
Ġarc alme
Ġyomen cavo
Ġcoire aron
Ġmaure o
enya iva
Ġlamb arya
Ġaxan inyar
Ġtyer me
Ġtyer uvar
Ġtyer indor
Ġnas tar
Ã³r ali
Ã³r ima
Ġperper in
Ġperper il
Ġperper ier
Ġperper umne
Ġperper iÃ©li
sar ne
Ġessen yasse
ara v
Ġti ello
Ġti um
Ġcu ive
Ġyal les
Ġcenne t
Ġmahal manna
Ġmahal maryasse
Ġinwis tenna
Ġinwis teva
Man o
Ġsav uvar
Ġsav ila
Ġsav ienya
yale o
Ġses tuvan
Ġcaras tala
Ġcaras taine
Ġcaras tuvan
ĠÃºp ar
ĠÃºp uhta
Ġpait yane
Ġmenta uvan
ĠSÃŃmon wa
Ġtyas tie
Ġtyas tana
Ġtyas tiesse
!' âĢĿ
Ġcom ien
Ġhyam ienya
ĠcÃ©n alde
ĠcÃ©n ima
ĠEl de
ĠEl yacim
Ġnen ello
Ġhim yalve
Ġat tie
Ġat tanen
Ġat Ã¡li
Ġat yÃ¡vi
Ġmap uva
Ġmap iello
Ġess eli
Ġess eryo
Ġala mo
Ġala pulÃºne
Ġnor nes
ĠYÃ³ ra
ĠYÃ³ no
Ġmat tar
Ġmat ila
Ġmat ilde
Ġroi tanen
Ġroi taine
Ġroi tier
ĠamyÃ¡r ali
ĠmÃ³li on
Ġloi tane
Ġloi tala
Ġloi tie
ĠFa ila
Ġne vir
ĠcÃ³l an
El den
El ÃŃa
cil la
Ġfor marya
Ġain as
Ġvin cassen
Ġete mÃ©n
Ġapsen ne
Ġapsen uva
Ġapsen ilde
Ġpeanta ve
ĠYÃ¡cov en
Ġcim uva
ĠFe anna
ĠnÃºror ya
ĠnÃºror yain
Ġcai tar
Ġcai tienwa
Ġyai wi
Ġleng iÃ©nen
Ġleng iÃ©va
ĠIl li
ĠIl qua
Ġaryon o
Ġhra vanen
ĠvÃ¡ cina
ĠvÃ¡ cine
ĠvÃ¡ quente
Ġenor ta
Ġenor tiÃ©nen
Ġheh tala
Ġnoss eryo
Ġmassa va
Ġtol l
Ġcard al
Ġcard alÃŃnen
ĠlÃ¡v elte
ĠHerol enna
ĠNa ftali
ĠNa xon
Ġtiu tane
Ġtiu tie
Ġcil ta
Ġcil menen
Ġcil des
Ġquan telte
Ġantan elme
Ġantan yes
ĠahlÃ¡r ielte
ĠsÃ³ mar
ĠsÃ³ manya
ĠsÃ³ vina
ĠcÃŃ ma
Ġastar mon
ĠequÃ© tiel
Ġist yasse
Ġist umne
ĠhÃ¡nol va
ĠhÃ¡nol dar
ĠhÃ¡nol yo
ĠhÃŃn in
ĠhÃŃn altar
ĠhÃŃn alyar
ĠhÃŃn anyar
ĠacÃ¡m ielte
Ġto p
Ġto pa
Ġqua tien
Ġhep itas
ha v
ha ira
ha tir
Ġhy ul
ĠHriston dur
Ġamill enna
Ġhuru o
Ġhuru nen
Ġmall elya
Ġmall eryasse
ĠÃļ re
Ġlat il
col lo
col co
col indor
ĠmÃ©n allo
ĠmÃ©n anna
ĠmÃ©n allon
Ġmanwa ine
Ġapan tiesse
ĠnÃ¡vel yan
Ġhirne t
ĠAinol ta
Ġmas ta
Ġmas tor
eri eryasse
ĠecÃ©n ielme
Ġfe aldar
Ġnoir illon
Ġlunte o
Ġrauco in
Ġohtar in
Ġohtar ion
Ġleh taina
Ġleh tana
Ġleh tanelte
Ġvoronw elda
Ġtarwes tane
Ġtarwes tanelte
ĠmÃ¡m annar
Ġeh tele
Ġeh teler
Ġnait yanes
Ġnait yaner
Ġnait yale
ĠEn nesaret
Ġoc cal
Ġarmar o
ĠAra via
ĠÅŁinta ve
Ġhlai w
Ġnatto in
Ġhroar anta
Hya m
Ġtarne t
ĠVar sa
Ãļ car
Ġmoli Ã©no
Ġmoli eryasse
Ġmoli eryanen
ĠÃ±wal me
Mi ci
ĠU i
ĠU al
ĠU alve
Ġantor yasse
ĠMir ra
Ġnattor ya
Ġverul ya
Ġataril varon
Ġsarno sse
ĠYÃ³sef en
Ġnucum ien
Ġhrupuh tiello
Ġhrupuh tieryo
ĠQu ean
Ġlesta sse
Ġmacil ya
ĠÃ³ra viÃ©va
ĠAtarinya va
Ġrun da
Ġrun ce
ĠcÃ¡ tina
Ġamb assi
Ġsap san
Ġhlasse tte
Ġoante t
Ġmanw an
ĠÃŃr ima
ĠhlÃ¡r ar
Ġongw enen
Ġongw eldar
ĠmÃ¡n aron
ĠpÃ¡ lina
Ġenyal ie
ĠSe vul
ĠÅŁany era
ĠÅŁany elÃ³re
Ġlav ila
Ġlav ilde
Ġcordon en
ĠErulisse va
Ġtir isse
Ġtir neltes
ĠvÃ©r arya
Ġlap si
Ġparma golmor
ĠMacer onio
Ġhendul talto
Nan w
Nan wen
ces tear
ĠsÃº ma
ĠsÃº ca
Ġharya ine
Ġnauvan e
Ġfin wa
Ġfin cave
Ġquettal yainen
ĠettÃº les
Ġhyami essen
ĠmÃ¡le va
Ġcoll alya
Ġcoll aryo
Ġvis taine
Ġlehta xe
ĠMan asse
Ġamor tala
ĠnÃŃr ala
Ġimmotun tien
ĠReh tando
Ġmorni ello
Ġmorni Ã©va
ĠÃī sau
Ġulc uo
Ġturu ne
Ġturu valte
ĠVet sa
Ġnon tes
Ġnon wen
Ġnet yaina
Ġhol ta
Ġus Ãº
Ġhildon ya
Ġsanw eli
Ġcirya mor
Ġtin w
Ġteh telessen
Ġsuil ier
Ġsuil ienya
ĠÂº inta
Ġtuxantur enna
Ġfas tien
Ġpeantar elda
ĠnÃ©ÅŁ arya
ĠnÃ©ÅŁ anya
ĠnÃ©ÅŁ aryar
ĠnÃ³rec Ã¡nonna
Hl ar
Hl asselde
hl ÃŃve
par mar
Ġcel varon
Ġro queni
Ġroc cor
Ġmit tar
Ġmit yallo
ĠÅŁun dul
Ġrain enna
Ġhosse o
ĠmÃ¡ryat se
ĠhyÃ³ lo
ĠnyÃ¡r an
ĠtÃ³ pala
Ġles tali
ĠrÃ©r inar
Ġpanyan eltes
ĠMel a
Ġcem ne
Ġcem naro
Ġsaviel vanen
Ġsarn or
Ġetequen tane
Men tanes
Ġvel uva
ĠEfes usenna
ĠEfes uyaron
ĠHe ver
Ġfan yar
Ġhroarya sse
ĠindÃ³m eryo
ĠHellen yali
Sam ilte
TÃº les
Ġmeh tinya
ĠsÃºr inna
Ġlely alde
Ġlely umne
Ġlely umnes
Ġhand enna
Ġhand enen
Ġyuh tie
Ġyuh tiÃ©nen
Ġann alya
Ġann alyar
Ġpaim en
Ġpaim es
Ġquetier yar
ĠhrÃºcen o
ĠhrÃºcen nen
Ġlingw i
Ġlingw ilÃŃva
Ġeteleh tanes
Ġeteleh tuvas
Ġarcand eli
Ġarcand enya
Ġailin de
tin we
Ġant umnes
Ġint yanelte
ĠnÃ³m essen
ĠnÃ³m eryanna
ĠnÃ³m elissen
Ġleu car
Ġtulis te
Ġmancan Ã³messen
Ġalass eryanen
Ġalass elma
ĠsÃ¡v elte
Ġono tie
Ġnostal elvo
Ġceste al
TÃ© can
min arav
ĠcÃ¡n oron
Ġcaure o
Ġhur ila
ill elya
Ġmelm erya
Ġmelm elya
ĠyÃ¡me tte
ĠnÃ©v ala
ĠnÃ©v elme
Ġsalque colcasse
ĠlÃ³ te
ĠhÃ³ p
ĠhÃ³ pa
ĠhÃ³ pala
Ġnaitya ina
ĠYor danna
ĠAp ollon
Ġohta sse
Ġpaime o
Ġfal as
Ġfal ma
ĠMen ello
ĠyÃ¡v ello
ĠAtarin yanna
ĠAtarin yallo
ĠÃ±en tes
ĠutÃºli es
Ġcanwacim ya
ĠihÃŃr ier
Ġainocim ye
Ġainocim iÃ©va
ĠÃºlÃ©v imar
Au re
Au tala
He ca
quer na
Ġof el
Ġins esse
Ġrah tanes
Ġrah tanelme
Ġtermar nes
ĠsÃ©re va
ĠAnd reas
ĠtyÃ¡r ina
Ġremb eltar
ĠYohan neo
ĠLamasc usenna
hil yaner
ĠQuen i
ĠQuen wa
ĠQuen tette
ĠicÃŃ lies
Ġmul ielta
Ġmul ondo
Ġtye tir
Ġhes tanelte
Ġyelta s
Ġnax a
ĠÃºÅŁa htienna
Ġtulin wa
ĠortÃŃr ie
ĠortÃŃr iesse
ĠlÃ¡m Ã¡r
ĠÅŁanyen gol
Ġaucir na
Ġcaur enen
Ġcaur eltanen
Ġtyen ye
ĠmÃ¡ltat se
ĠHellenya in
ĠÃļyÃºr annar
Ġmand on
Ġmand ollo
Ġerum esse
ĠTÃŃr o
ĠsÃ¡mal yanen
ĠmÃ©l ine
ĠmÃ©l etye
Ġvandil den
Ġquap taner
ĠÃ±walm eli
ĠIsraelind ion
ĠIsraelind innar
Ġrohtal ya
Ġrohtal va
Car nes
Sa ira
Ġiny enna
Ġfel mi
Ġcoal yasse
ĠMil et
Ġmeldor yar
Ġtalan tes
Ġtalles et
Ġnatt ÃŃra
Ġcamnel ve
ĠLe vi
ĠTÃ© can
ĠsÃ¡malta ssen
Ġvene o
ĠomÃ³ lie
Ġquais tar
Ġambar enna
ĠSever ai
ĠSever aion
Ġliss eryanen
Ġenvin yante
Ġenvinya ta
hlai war
ĠperpÃ©r es
Ġhund iÃ©li
Ġofelme o
Ġnul la
Ġtam an
Ġtam po
Ġsun cer
Ġlerya ina
Ġyul mo
Ġyul mallo
ĠnÃ¡mon na
Ġanton ya
Ġrer ien
Ġmancal en
Ġmancal Ã©va
Ġetsa tien
ĠStef Ã¡nas
Ġnattol tar
ĠLÃ© mas
Ġcanw anen
ĠAinonya va
ĠNÃ¡sar et
ĠhyÃ¡m alme
ĠSÃŃron o
ĠlalevÃŃ ti
heh tala
ĠlÃ©r ya
Ġhw an
Ġav Ã¡nier
Ġax or
Ġava ma
ĠpÃ© tala
ĠpÃ© tina
Ġnasse o
Ġoh tan
Ġoh tali
Ġyaime a
ĠrÃ©li on
ĠÃºsa htie
ĠlÃ¡re ar
Ġalan tier
ĠÅŁel manya
Ġnarca ina
Ġhantes et
Ġhanquet uvar
Ġrai ca
Ġverur yan
Ġverur yo
ĠÃºfaili Ã©va
Ġfeal yanen
ĠehÃ© pie
Ġarmaror ya
Ġimmotuntiel do
Ġrinc enen
Te cin
Tal o
Ġtiel masse
Ġlit te
Ġhau ta
Ġhau tie
Ġhelma hlÃŃve
Ġemen tie
ĠAm minarav
Ġostol lon
ĠNi col
ĠNi corÃ©mus
ĠceÅŁ ie
ĠsÃ¡man yanen
Ġnossen yo
Ġnaique tier
Ġnaique tiÃ©li
Ġettul ir
ĠRÃ³ ma
Ġling ala
Ġturqu ima
Ġahtar ie
Ġussar denen
ĠhlÃŃvel ÃŃnen
ĠÅŁÃºl elda
Lehe messe
Ġvircolcar on
hen ta
lal uval
lal anes
ĠsÃ©r enya
Ġlass eli
Ġveh ter
ĠÃºos cirie
Ġimmol lo
Ġimmol aitie
ĠcenÅŁ elte
Ġnancam uva
Ġmartya ine
Ġlanner anta
ĠTi verias
ĠTro as
ĠTro asse
ĠCili ci
ĠCili cia
Ġnampa itya
Ġminque a
ĠVer oi
ĠVer nice
Ġhlarul tat
Ġhlarul tanten
ĠYeri co
Ġmilpi alda
Ġlihtar ya
Ġlihtar yar
ĠRÃ³m ello
Ġsestiel issen
Ġparmangolmo in
Ġeheh tielme
Ġsaps asse
Ġsaps anna
ĠpÃ¡ÅŁ enen
ĠComb esse
ĠtÃ³p asse
ĠMelet ya
ĠMelet yar
Ġtalulyat se
Ġcaimasse a
ĠÃºacÃ¡r ie
ĠVetan ianna
ĠVetan iasse
Ġungwaler on
ĠVÃ©lsev uv
Ġson dar
ĠcÃŃr ina
Ġatal antie
ĠYeh Ãºra
ĠYeh Ãºro
Ġmacar i
Ġenw ina
Ġenw ine
ĠÃºv oronda
ĠorutÃºr ie
ĠorutÃºr ielde
ĠÅŁÃ¡n y
Ġisin tie
ĠPon tus
ĠPon tio
ĠPris ca
ĠPris cilla
Ġrac ma
Ġmeren tur
ĠÃ±ar mor
Ġpeanti eryasse
ĠnÃºrol da
Ġnaiquet ir
Ġlih tan
Ġvarna ve
ĠnÃ³retur wa
Ġloico ttat
ĠocÃ³ mi
ĠtercÃ¡nor yaron
ĠSandu cear
Ġsanwelun ge
ĠHanquen telte
ĠCipru s
ĠquaihÃº mi
AcÃ¡r ies
AhlÃ¡r ielde
Can in
Cor nelio
Col a
Yes aia
nan wa
nÃ¡vel dan
ĠquÃ³r ine
Ġviel Ã³rali
Ġnain ie
ĠHye altiel
ĠÃºtan ca
Ġfi fÃŃrula
Ġaldar on
Ġmarill ar
ĠHeroli asso
ĠSer uvÃ¡vel
Ġestoli enna
Ġhran g
Ġolo ire
ĠÃºcarelva in
Ġulcar indor
Ġhiris es
ĠRÃ¡ hav
ĠOs tor
Ġpalp uvar
Ġtolo que
ĠÂª anye
Ġocca t
Lavir ion
ĠcÃŃlin aron
Ġnostaler on
Ġrestan dier
ĠEras enyaiva
Ġsucuvan yes
Ġsaicel Ã©li
Ġneceltus so
ĠÅŀessalonic allo
ĠArtemis so
MÃ¡ lo
Ol ca
Yer Ãºsale
Ġhyal in
ĠyÃ¡n allo
vai tanes
Ġanh oa
Ġotor nasse
Ġortu re
Ġmiru carne
ĠÅŁar nun
ĠSiri anna
ĠPer es
laur io
Ġepem mar
Ġosti messe
Ġaup sarne
ĠyÃ¡vel Ã³ra
ĠCe ÅŁa
ĠCrÃ© teo
ĠÃģron o
Ġaccas u
ĠVo as
Ġteng es
Ġcalca va
ĠOnÃ³ no
Ġimnet yaleo
Ġcempali Ã©li
ĠtercÃ¡n onya
ĠÃºlÃ©vim anna
ĠMilpi oiva
Ġelentir mor
Ġalahas tima
ĠAlexandri allo
EquÃ© tien
Fe anya
Lai tan
Ġvestara cie
Ġpele c
ĠEpe ta
ĠAreo pahus
Ġmaval li
Ġencen uvalden
ĠÃºcÃ©n imar
Ġfindor iva
ĠetyÃ¡ me
ĠMess ÃŃas
ĠSilo am
ĠhlÃ¡p ula
Ġereh ties
ĠFri hia
Ġammir wa
ĠIscÃ¡r iot
ĠOtsol aron
Ġnahtuval tes
ĠemÃ©li er
Ġhyamienya ssen
ĠNaftali o
Nanwen uvan
! ",
" .
A va
A ire
A qua
A man
A pan
C aris
E uva
E li
E ce
E pafr
H a
H or
H yar
H Ã¡n
H Ã©r
H Ã¡no
H end
H Ãºna
H ata
H ranga
I ta
I hÃŃr
L in
L asarus
M el
M Ã©
M Ã©n
M anna
M ane
M eldo
M aure
M ela
N es
N ÃŃ
N am
N alte
O n
O ron
P itya
Q Ãºen
R a
R Ã¡
R in
R on
R ÃŃ
R us
R appi
S ar
S en
S ana
S Ã©nen
S alta
S Ã¡melte
T el
T ien
T ur
T yal
T ambe
T imoÅŁe
T yÃ©
U m
U tÃºlien
V ende
V oronda
V aca
V Ã³rima
X X
Y asse
Y unque
Y ulma
Y Ã¡co
c c
c re
c enna
c elde
c Ã¡m
c um
c anen
c enen
c anna
c ila
c ilde
c elme
c ilte
c uvalve
c uo
c eltes
c alya
c onya
c aiva
d um
d ion
d elya
d elme
d ili
d iesse
d ollo
d alÃŃnen
d iryar
e cien
e cia
f os
f Ã³r
f ia
g and
h al
h es
h ol
h am
h Ãºr
h tanes
h tya
h talde
h tiÃ©nen
h yer
h tando
h osta
h ristoli
i co
i tiel
i Ã©la
i cia
i Ã©ron
i fÃ³r
l ta
l esse
l uva
l et
l elta
l ette
l ÃŃva
l endes
m ien
m pe
m anta
m os
m ÃŃa
m Ã¡ra
m ÃŃre
m Ã¡rea
m mes
m elÃŃnen
n al
n na
n enna
n ala
n ien
n yar
n Ã©r
n du
n inen
n Ã³m
n elta
n allon
n annar
n alda
n ielta
n Ã¡ven
n ÃŃs
n anw
n Ã³rie
o p
o ir
o po
p ÃŃ
p ion
p ila
p arya
p uh
p eltes
p onna
p par
p Ã©rier
r an
r Ã¡
r es
r Ã³
r esse
r asse
r iel
s Ã©
s ÃŃ
s esse
s ÃŃr
s si
t ilde
t yana
t uvalme
t Ã¡ven
t ÃŃra
u an
u as
u alde
u men
v enna
v elde
v alde
v Ã©r
v erya
v enen
v uvan
v inya
v ilde
v allon
v Ã©la
v oronda
w ien
w enen
w eltar
x i
x ello
x enen
y el
y uh
y uvalme
Ã ĳ
Ġ (
Ġ q
Ġ Ã¡r
Ġ ĠčĊ
Ġ QÃºen
ar esse
ar wa
ar da
ar cala
ar yallon
an o
an ca
an ter
an tanelte
an yÃ¡r
an eltes
an ties
en ello
en da
en yallo
en aio
Ġi va
Ġi que
Ġi quin
Ġi vin
Ġn ie
Ġn iel
Ġn ilme
Ġn unte
al en
al yan
al tie
al tanen
al illon
al masse
al ÃŃva
Ã¡ to
Ã¡ sar
Ã¡ pi
Ã¡ nasse
Ã¡ por
Ã¡ har
Ġm Ã¡no
Ġm usse
Ġm ondo
Ġar e
Ġar ta
Ġar te
Ġar anen
Ġar man
Ġar war
Ġar mali
Ġar ciÃ©nen
Ġar alli
Ġt il
Ġt ali
Ġt Ã©nen
Ġs esta
Ġs Ã¡nala
Ġs impa
qu ala
qu Ã©n
qu ere
qu antie
el l
el ar
el tan
el esse
el mar
el yes
el ind
el tallo
el varon
Ã© co
Ã© vi
Ã© van
Ã© mielte
in qu
in es
Ġl ir
Ġl ieryan
er indo
Ġc ur
Ġc imb
Ġc ÃŃrine
Ġh yan
Ġh Ã¡rala
Ġh alda
Ġh inyar
Ġh Ã¡rar
es Ã©n
es ecia
es opo
Ġqu estasse
Ġqu estarya
ta mo
ta yer
Ġa tya
Ġa Âº
Ġa xo
Ġa quantie
Ãº mello
Ãº vas
Ãº lienwa
te alde
te men
te aste
Ġy un
Ġy Ã©r
Ġy erya
na it
Ġv Ã³
Ġv enen
Ġv oro
Ġp ÃŃ
Ġp ala
Ġp ul
Ġp elde
Ġp eli
Ġp ilie
Ġp oro
Ġp Ãºlienwa
ir ya
ir ello
ir anna
ir eli
on o
il quen
il tes
il it
il yaner
or ya
or tane
or cas
or tayer
va t
ÃŃ anna
ÃŃ vie
tan uvan
tan tur
tan oir
Ġe p
Ġe ter
Ġe uvan
Ġe per
Ġe ces
Ġe alve
Ġe vÃ©
Ġe yÃ©
Ġu ien
Ġu mbar
Ġan am
Ġan no
Ġan tuvan
Ġan tieryan
Ġan tieltan
Ġan Ã¡mie
Ġan haira
Ġna ÅŁ
Ġna ma
Ġna pan
Ġna irenen
Ġna tainen
Ã³ vo
Ã³ mi
Ã³ lie
Ã³ lala
Ã³ vine
as in
as tantur
me o
re htane
ru puh
ti sse
ti mar
ti tat
ol a
ol Ãº
ol tar
ol yar
ol asse
ol ion
ol dar
ol isse
ol ler
ol ÃŃto
ĠY ess
ne va
ne as
ina iva
ĠE t
ĠE le
ĠE tse
ra va
ra ina
Ġsa tien
Ġsa iron
yan car
yan da
yan ca
yan elme
Ġquen wa
Ġquen da
Ġquen elion
ĠA t
ĠA u
ĠA qua
ĠA nen
ĠA ha
ĠA cÃ¡r
ĠA mali
ĠA ss
ĠA mbar
ĠA hlÃ¡r
ĠA nette
ĠA hyer
Ġcar o
Ġcar esse
Ġcar inya
Ġcar yo
Ġcar yanna
Ġcar pan
Ġcar ieldan
Ġcar umnelte
Ġcar ieryan
Ġcar eldasse
Ġcar itye
Ġo x
Ġo tar
Ġo men
Ġya in
Ġya ca
Ġya cir
Ġya viÃ©no
Ġya mie
Ġya htya
Ġil in
Ġil yo
Ġil imo
Ġil aica
Ġil ÃŃvie
ĠEru co
et o
et ar
et ie
et yar
et tes
et yet
ul va
ul lo
ul yanes
ul tat
ĠH a
ĠH Ã©
ĠH il
ĠH im
ĠH Ã©r
ĠH elma
ĠH oa
ĠH osanna
ĠH Ã¡har
Ġma tiello
Ġma tielyan
Ġin g
Ġin en
Ġin que
Ġin ga
Ġin gar
us o
us tar
Ġr i
Ġr Ã³
Ġr asse
Ġr Ã¡nie
Ġr ice
Ġr andar
Ġr impe
tar nelte
tar yanna
ine a
Ġmal len
im on
im annar
ĠtÃº nen
ĠtÃº po
Ġen ner
Ġen cam
Ġen yali
Ġen equean
Ġen yÃ¡
Ġen hir
ÅŁ el
ÅŁ olo
ÅŁ Ã©o
Ġve mb
Ġve aner
ĠÃº nar
ĠÃº nelde
ĠÃº cÃ¡r
ĠÃº vel
ĠÃº cÃ©nima
ĠÃº vello
ĠÃº cÃ¡ra
ĠÃº nanwa
ĠÃº resse
Ã¡n i
Ã¡n ies
Ġmi er
Ġmi que
Ġmi xe
Ġmi quin
Ġpa hta
Ġpa hte
Ġpa ÅŁel
quen tette
am ar
am it
Ã¡r i
Ã¡r ine
Ã¡r alte
tal ma
tal da
tal yasse
Ġf elme
Ġf ili
Ġf Ã¡re
Ġf ill
Ġlen cave
Ġlen daryasse
pa ina
pa ter
pa it
car ila
car ni
wa t
ĠnÃ³ taine
ĠnÃ³ nie
ĠnÃ³ tesse
Ġle v
Ġle vi
Ġle quet
un elte
un ga
un Ãºror
Ġtul y
Ġtul uval
Ġtul ilte
Ġtul ieltan
Ġtul umner
Ġtul ess
Ġtul ieryan
Ġtul ienna
Ġtul ierya
ai ce
ai yaron
Ġpan taina
Ġpan yanen
Ġpan ieldan
Ġpan ieltan
Ġpan yuvas
Ġpan ieryan
Ġpan yuvalte
Ġpan yea
Ġman o
Ġman na
Ġman car
Ġman ca
Ġman yane
Ġman yala
Ġman yanes
Ġman cien
Ġman yaine
Ġmen i
Ġmen ya
Ġmen ir
Ġmen tar
Ġmen ner
Ġmen nelte
Ġmen uvas
Ġmen umne
Ġmen tas
Ġmen tuvan
Ġmen talme
Ġmen tarya
ĠÃŃ quala
Ġco aron
Ġco aldar
Ġco anyasse
Ġco anyanna
Ġquet uval
Ġquet tasse
Ġquet tanna
pe an
ur tiel
ur enya
da t
tta ina
tta sse
An ar
An en
An talme
An anÃŃas
ĠtÃ© r
ĠtÃ© ma
ĠtÃ© ca
Ġor t
Ġor tien
Ġor tea
Ġor tumne
Ġor tanelde
Ġor yuvalte
Ġor tanie
Ġor ortayer
ter yar
ter yainen
Ġas Ã¡nie
Ġas Ã¡nien
sen en
mb in
ĠlÃ¡ ta
ĠlÃ¡ quete
ĠlÃ¡ vaina
Ġet se
Ġet yar
Ġet ter
Ġet terya
tes et
li a
li Ã©la
co mbin
Ġmir w
Ġmir ilyaner
men yar
men yasse
men tauvan
Ġim len
Ġim nin
erya mum
Ġal al
Ġal ir
Ġal wa
Ġal ler
Ġal dali
Ġal Ã¡li
Ġal yave
Ġal Ã¡vien
Ġal quar
Ġal mÃ¡rea
anta uvanes
ĠM is
ĠM Ã©n
ĠM au
ĠM inya
ĠM ÃŃca
ĠM Ã¡ra
ĠM eri
ĠM esopo
ĠÅŁ Ãºr
ĠÅŁ oron
ĠÅŁ elma
ĠÅŁ ure
Ġcen uvan
Ġcen uvas
Ġcen umne
Ġcen ilve
Ġcen ilte
Ġcen umnes
Ġcen iello
Ġcen ielyan
ce va
ci el
ci on
ci co
ci eryan
Ġnan a
Ġis tuvar
Ġis tiÃ©no
Ġis tuvas
Ġis tieryan
tie t
Ã¡m ielde
Ġnar wa
Ġnar tie
Ġnar nen
Ġnar tanelte
Ġnar cie
Ġnar cien
Ġnar cane
Ġte as
Ġte ve
Ġmar ie
Ġmar il
Ġmar enna
Ġmar esse
Ġmar tala
Ġmar ilde
Ġmar yanna
Ġmar iÃ©nen
Ġmar ilte
Ġmar ilme
Ġmar tea
Ġmar elma
Ġmar tienwe
Ġmar elyanna
Ġmar tyana
ĠÃ¡ re
ĠÃ¡ ra
ĠÃ¡ yar
ĠÃ¡ ven
ĠÃ¡ tu
ĠÃ¡ valye
ĠÃ¡ vani
au co
ĠHer uva
ĠHer mes
Ġque ar
Ġque quentes
Ġque quentette
Ãģ me
Ãģ valve
Ãģ vani
Ãģ paina
ĠS en
ĠS ine
ĠS pan
ĠS avi
ĠS era
ĠS iria
um pen
ĠlÃº ÅŁina
Ġsin anen
Ġsin yali
ĠP is
ĠP enya
ĠP era
ĠP op
ĠP eryamum
ĠÃ³ co
ĠÃ³ reo
ĠÃ³ com
ĠÃ³ cÃ³m
Ġsam iello
ĠâĢĵ âĢĿ
Ãºr esse
Ġhan y
Ġhan tan
Ġhan tane
Ġhan tala
Ġhan yala
Ġhan yuva
Ġhan yanelde
Ġhil ien
Ġhil yanes
Ġhil yaneltes
Ġhil yea
Qu anda
Qu alme
Qu ata
Ġel i
Ġel end
Ġel eryan
Ġel vesse
Ġel Ã©mielte
tien yan
Ġnauva tte
Ġes tar
Ġes tal
Ġes ce
Ġes talde
vi ur
Ġhr esta
Ġhr estasse
Ġhr ondor
Ġer o
Ġer taine
Ġer den
Ġer mava
le mo
la ine
la quet
Ġsen ya
Ġsen dasse
Ġta x
Ġta ce
Ġta tya
Ġta var
Ġra ur
Ġra it
Ġra mo
Ġra inen
Ġra cie
Ġra cil
Ġnin dor
Ġnin yallon
Ġnin der
Ġtar ya
Ġtar ma
Ġtar nelte
Ġtar uvalde
Ġtar mar
ĠmÃ¡ tanelte
ĠmÃ¡ ttat
ĠmÃ¡ tienwe
Ġqual m
Ġqual ir
Ġqual is
Ġqual ien
Ġqual messe
Ġqual umnes
Ġqual uvalve
Ġqual lelde
Ġai ce
Ġai wion
Ġai Ã¡lie
tel tan
tel yanes
Ġmel u
Ġmel uvalde
Ġmel dol
Ġmel menya
Ġmel dal
Ġmel etya
Ġmel menyasse
nen en
Ġapa cÃ©n
Ġapa itiel
Ġtal as
Ġtal ala
Ġtal mo
Ġtal mar
Ġtal mon
Ġtal manna
Ġtal yant
Ġlo s
Ġlo xi
Ġap pala
Ġap esÃ©n
Ġos ton
Ġos por
Ġos time
Ġos tonnar
Ġos toron
Ġpol ca
Ġpol it
Ġpol ila
Ġpol den
Ġpol ilme
Ġpol ieldan
Ġpol ieltan
Ġpol cal
Ġpol lelde
Ġpol caiva
Ġol car
Ġol os
Ġol cie
Ġol les
Ġol lelte
Ġol ciÃ©no
Ġol lelde
ĠsÃŃ r
os tar
ĠF il
ĠF oi
ĠF aica
ĠF ilar
Ġmer ye
Ġmer ilve
Ġau h
Ġau ce
Ġau tien
Ġau ÅŁa
Ġau cor
Ġau tuvas
Ġau tumne
Ġau cel
Ġau tienwa
Ġau tienwe
Ġau querna
Ġex ellon
Ġex elion
dar ya
iel va
iel lon
iel yasse
iel yes
iel massen
ĠlÃ© li
ĠlÃ© ven
ĠlÃ© vala
Ġtan ie
Ġtan or
Ġtan ner
Ġtan uvas
Ġtan iÃ©nen
Ġtan nelde
Ġter cÃ©nima
Ġlan tien
Ġlan tiÃ©va
Ġlan talte
Ġlan neli
Ġlan naron
Ġnat tÃŃr
Ġnat inyar
Ġnat tonya
Ġnat ilyar
Ġam nes
Ġam per
Ġam nalda
Ġla tta
Ġla quete
Ġla imar
Ġla istie
Ġla quenter
Ġla quetuva
Ġair enna
Ġair esse
Ġair iryar
Ġair elind
Ġea t
it uva
Ġrimb alillon
Ġcam ila
Ġcam umne
Ġcam ilme
Ġcam iÃ©no
Ġcam umnes
Ġcam uvalve
Ġcam umner
Ġeng ette
ĠyÃº yon
Ġmau yar
Ġmau yanes
Ġmau yaner
ĠL u
ĠL Ã³me
ĠL ica
ĠL iria
ĠL orcas
Ġalcar enna
Ġalcar wa
Ġalcar inya
Ġalcar yanen
Ġalcar eryo
Ġalcar eryan
Ġalcar yuvan
Ġaran o
Ġaran nar
Ġaran elda
Ġaran iva
Ġaran iello
Ġaran ienya
Ġaran ielyasse
Ġatan issen
Ġatan iva
Ġatan elma
ĠÃºcar ir
ĠÃºcar enna
ĠÃºcar ne
ĠÃºcar uva
ĠÃºcar ilde
ĠÃºcar umne
ĠÃºcar elta
ĠÃºcar ind
ĠÃºcar eryar
Ġho pila
Ġaiquen de
Ġun dum
Ġun urtiel
du o
arya t
ass eli
ĠN el
ĠN ine
ĠN eri
ĠnÃŃ tanes
ĠnÃŃ essen
ĠnÃŃ ri
ĠnÃŃ teal
Ġanta uvalde
Ġanta uvalte
Ġanta uvaltes
Ġlem yan
Ġlem yuvar
ĠT ien
ale menna
Ġce ÅŁe
Ġce ÅŁa
yo ÅŁa
Ġver ta
Ġver ien
Ġver yar
Ġver tane
Ġver yanes
Ġver yaner
Ġver inna
Ġpe tiello
Ġpe Ã¡nie
ĠAn el
ĠAn elde
ĠAn tauvan
Ġlend anyasse
ĠC Ã¡no
ĠC endel
ĠC laurio
ĠC Ã¡nasse
Ġul yanes
Ġul ler
Ġnam ir
Ġnam nes
Ġnam uvar
Ġnam nen
Ġnam iÃ©no
Ġnam ienna
Ġnam uvaltes
mo tun
Qui quie
ĠsÃ¡ la
ĠsÃ¡m alde
ĠsÃ¡m aryasse
Ġcan ie
Ġcan ye
Ġcan tar
Ġcan ner
Ġcan nel
Ġcan yave
Ġcan talyar
Ġcan astantur
ĠÅŁang anen
ĠÅŁang iÃ©nen
ĠÅŁang iello
ĠÅŁang iÃ©li
ĠÅŁang iessen
Ġon tal
Ġon tie
Ġon Ã³r
Ġon talesse
ĠmÃ³ le
ĠmÃ³ ron
ĠmÃ³ tielda
ĠmÃ³ tielma
Ġear ello
Ġvan ye
Ġvan tanes
Ġvan celte
ĠhÃŃ Âº
ĠhÃŃ ÅŁie
ĠhÃŃ raina
Ġsu h
Ġsu mba
Ġsu ilie
Ġca pa
Ġca vo
Ġnanw Ã©nala
oron w
Ġtu ra
Ġtu pe
Ġtu cir
Ġtu ia
Ġtu ias
Ġner eli
tanen yes
Ġuas te
En ta
En dan
Ġcas tar
Ġcas tali
Ġcas tarya
Ġhar w
Ġhar ie
Ġhar ne
Ġhar uva
Ġhar we
Ġhar yane
Ġhar yana
Ġhar yanelte
Ġhar nie
ĠnÃ³r eli
ĠnÃ³r elta
ĠnÃ³r iello
Ġtai tin
terc Ã¡no
ĠhÃ¡nor yanna
ĠÃ± andar
ĠÃ± ande
Ġmun dorya
Ġty al
Ġty ello
Ġty Ã¡v
Ġpen il
Ġpen nes
Ġpen iesse
Ġpen nelde
Ġend eldallo
Ġhro anen
Ġhro anna
Ġhro amit
Ġsavi enna
Ġsavi elva
Ġsavi eryanen
uval o
ĠyÃ© tal
ĠyÃ© tuvalde
ĠnÃ¡ve va
ĠEruterc Ã¡ne
tÃº le
ĠÃģ mon
ĠÃģ cim
ĠÃģ Ä§
ĠÃģ via
ĠÃģ sor
ĠÃģ viur
Ġnyar uvan
Ġnyar ilme
Ġnyar nelme
Ġnyar nasse
Ġnyar daina
ĠmÃ¡r ar
ĠmÃ¡r an
ĠmÃ¡r yanna
ĠmÃ¡r yallo
ĠmÃ¡r yalto
ĠmÃ¡r yanten
Ġac aitie
Ġac altie
can te
Ġpean tan
Ġpean tuva
Ġpean tiel
Ġpean tiÃ©va
Ġpean tiÃ©no
Ġcol uvalde
Ġcol ilte
Ġcol des
Ġcol malya
Ġvet to
Ġvet tuva
Ġvet tol
Ġvet tier
Ġvet tiÃ©nen
Ġvet talme
Ġvet tumnes
Ġvet tonya
Ġvet tielya
Ġvet tielta
Ġcemen nen
mar uine
Ġru ve
Ġru cin
Ġru cuva
Ġmin to
Ġmin dar
Ġmin yanna
Ġmin alya
tale o
Ġairim oron
Ġairim Ã³li
Ġval ta
Ġval tala
Ġval tana
Ġval taine
Ġara h
Ġara ta
Ġlai as
Ġlai ve
Ġlai tane
Ġlai tana
Ġlai tea
Ġlai tiello
Ġlai talme
Ġlai talte
Ġlai tuvalve
Ġatar en
Ġatar illon
Ġatar wes
Ġatar nÃ³m
ĠMal lo
ĠnÃºr i
ĠnÃºr enen
ier yo
ĠV inya
ĠV oronda
ĠV Ã©ra
Ġsan alte
Ġsan nen
Ġsan wali
Ġsan alye
Ġquetta va
SÃŃ ve
SÃŃ meon
Ġnos tane
Ġfail ien
Ġfail anta
Ġfail annar
Ġfail ielda
Ġfail ienna
Ġhlar un
Ġhlar uvalde
Ġhlar uvas
Ġhlar uvalte
Ġhlar indo
Ġhlar unna
ĠÅŀ Ã¡mo
ĠÅŀ omas
ĠÅŀ eo
elda in
Ġtyar uvar
ĠcÃ¡r anen
ĠcÃ¡r alte
ĠcÃ¡r alme
ĠHÃ©ru llo
Ġpar ne
Ġpar ce
Ġpar taina
Ġpar nel
sa hta
Ġhir in
Ġhir ir
Ġhir uvar
Ġhir uvalte
Ġhir ieltan
Ġhir neltes
Ġhir diryar
dan t
Ġnai te
Ġnai quenter
ĠÃ³m anya
Ġcor danen
Ġcor daryasse
ĠMa ttan
ĠMa irea
Ġama htien
ni erya
mal ta
mal dar
mal ÃŃnen
mal issen
mal tassen
yal en
yal me
yal dasse
Ġtel yan
Ġtel tane
Ġtel yana
Ġtel yanes
Ġtel yuva
Ġtel cor
Ġtel yumnes
Ġtel yanette
Ġyan we
Ġyan ces
Ġyan cal
Ġyan cassen
ĠAtan o
ĠAtan in
ĠAtan ello
Ġmil l
Ġmil yan
Ġmil yain
Ġqualin iltar
man e
man yasse
man wien
ÃŃr ina
Ġpus tuva
Ġpus tanelte
Ġpus tanelme
Ġpus tanette
van er
Ġten cer
Ġten gwa
ĠYoh Ã¡nonna
Ġett ir
Ġett ello
NÃ¡ s
tiel tar
tiel lon
tiel tanen
Ġfair ion
Ġfair eryasse
Ġfair ennar
Ġfair elÃŃr
Ġcal anen
Ġcal arya
Ġcal mo
Ġcal par
Ġcal mali
Ġcal pien
Ġven i
Ġven t
Ġven in
don nar
Ġno e
Ġno tir
Ġosto in
Ġmol is
Ġmol ienya
Ġmol ieltan
Ġmol ielta
Ġha tir
Ġha urar
Ġha titat
Ġha ustar
Ġvoron dal
Ġvoron gand
Ġequ Ã©rie
Ġequ Ã©rier
Ġnelde o
Ġur ta
Ġur tala
Ġreh tuval
Ġreh tieldan
pan yaner
Ġser e
ĠaÅŁ al
ĠaÅŁ cÃ¡rima
ĠmÃ© ler
ĠmÃ© nasse
Ġran yala
Ġran cen
Ġran cer
Ġran gar
Ġran gwi
Ġyes taina
Ġtun t
Ġtun na
Ġtun tie
Ġtun taina
Ġtun tiello
Ġtun celte
Ġtun tierya
Ġtun gwi
Ġtun celtes
Ġces tuva
Ġces talde
Ġces tuvar
ĠnÃ© ver
Ġcir yar
Ġcir yanen
Ġcir umne
Ġcir yallo
Ġcir nette
Ġcir carya
Ġcir calya
ĠAl car
ĠAl antie
Ġelmen en
Ġelmen dalÃŃnen
Ġaure pait
ten es
Ġli htaine
Ġnancar iÃ©no
Ġnancar itas
Ġnancar umneltes
Ġtala t
Ġtala mello
Ġlau ce
Ġlau rea
yÃ¡r ina
ĠtÃºr ello
ĠtÃºr eli
ĠtÃºr enya
ĠtÃºr eryasse
ĠtÃºr eryo
Ġva c
Ġva ca
Ġva ttar
Ġva ttaina
Ġmass o
Ġmass erya
Ġmass anen
Ġmass ali
Ġmass elda
Ġmass elta
Ġmass alma
Ġper ranga
Ġpoi car
Ġpoi ciesse
Ġpoi tielyan
Ġtarw andur
ĠmÃ³l en
ĠmÃ³l in
ĠmÃ³l es
ĠmÃ³l ala
ĠmÃ³l yar
ĠmÃ³l iryar
vir on
ili Ã©va
Ġnes tie
Ġnes tando
ĠSÃŃ s
ĠSÃŃ on
ĠSÃŃ ra
ĠSÃŃ nai
ĠR avi
ĠR appi
ĠR imbe
Ġhor tar
Ġhor tien
Ġhor taner
Ġendal ya
Ġendal to
Ġendal dan
Ġendal danen
Ġendal masse
Ġendal tallo
ilte xer
Ãģva se
Ġlun ti
Ġlun tel
Ġlun teli
ĠHerul ma
ĠHerul vanen
Ġamil li
ĠacÃ¡r iel
ĠacÃ¡r ielde
ĠacÃ¡r ielme
Ġlin te
Ġlin que
Ġlin die
ĠrÃº cime
var yanes
Ġtur ner
Ġtur yaina
Ġtur col
Ġtur Ãºne
Ġtur Ãºva
ĠhÃº m
ĠhÃº ne
ĠhÃº tar
ĠhÃº messe
ĠhÃº min
Ġham a
Ġham pe
Ġham masse
ĠYÃº lio
Ġestel ya
Ġestel enna
Ġestel wa
Ġestel elda
Ġill umen
Ġmah tar
Ġsar da
Ġsar nel
Ġsar deli
Ġhen tanelde
Ġhen yant
ĠAtanyon donna
Il ce
Ġesse tya
Ġesse tyan
Ġraine o
ĠErutercÃ¡n oiva
ĠErutercÃ¡n ossen
ĠO r
ĠO la
ĠO loire
ĠquÃ¡ lalme
Ġquer uva
Ġquer ien
Ġquer nelte
Ġvala tie
Ġah a
Ġah ya
Ġah as
Ġah yane
ĠsÃ¡me t
nel ve
nel yaner
Ġtau tamo
Ġler yala
Ġler yanes
ĠnÃ¡m oli
ĠnÃ¡m ielta
ĠnÃ¡m ielyar
ĠnÃ¡m oldar
Ġcoivi elva
Ġcoivi eryo
Ġhend en
Ġhend esse
Ġhend ulma
Ġhend elyallo
Ġhend unÃºror
Ġorta uvan
Ġorta xe
Ġorta vÃ©nen
ver yo
Ġlas tas
Ġlas tanelde
Ġhu onnar
Ġcardar yainen
Ġcardar yallon
Ġcendel elda
Ġcendel enya
Ġcendel eryasse
Ġcendel eltasse
Ġcendel eltanna
ĠAtanyondo va
ĠAtanyondo sse
ĠYon dol
Ġcarien yan
ĠhrÃ¡v elda
ĠhrÃ¡v elvo
Ġmor e
Ġmor ne
Ġocomb ello
Ġnel cil
Ġnel estasse
Ã¡v esse
Ġvar anda
Ġpal ya
Ġpal ler
Ġpal les
Ġpal pala
Ġpal pie
Ġpal pane
Ġpal massen
Ġpal Ãºresse
Ġqualme tta
Ġqualme har
ĠÃ¡n iel
ĠnÃº tala
Ġqueti esse
Ġqueti Ã©no
Ġqueti Ã©li
Han tan
ĠQui quie
Ġvand ali
Ġvand altar
Ġnah tuva
Ġnah tier
Ġnah tiÃ©no
Ġnah tumne
Ġnah tuvalte
Ġcos tala
Ġcos tien
Ġcos tiÃ©va
Ġcos teli
ĠMar ÃŃo
ĠMar ÃŃanna
Ġlar tane
Ġlar tala
Ġlar mo
Ġlar mor
Ġlar mali
Ġlar nelta
Ġlim ili
Ġfaila ve
Ġnanwen is
Ġnanwen nen
Ġnanwen uvas
Ġem me
Ġem mar
Ġquettar yar
Ġmet taryanna
Ġarc uvas
Ġlam Ã¡re
Ġlam anwe
Ġlam malta
Ġeuva t
Ġyomen iel
Ġmando ssen
Ġmando cundo
enya in
Ġtya vuvar
Ġtum p
Ġtum yala
Ġtum per
ĠNÃ¡ ne
Ġlamb erya
Ġlamb ion
Ġlamb anya
Ġlamb elissen
Ġaxan ya
Ġaxan ion
Ġtyer a
Ġtyer ilde
Ġtyer nelte
Ã³r ello
Ġrimbali on
Ġperper a
Ġperper ie
Ġperper is
Ġperper uva
Ġperper ien
ette t
Ġessen yan
Ġessen yo
Ġti erya
Ġti eryasse
Ġti cuvar
Ġcu ivi
Ġcu cuo
Ġyal ta
Ġyal tanya
Ġmaquen ten
ĠrÃ¡ na
ĠrÃ¡ va
ĠrÃ¡ men
ĠrÃ¡ nea
ĠrÃ¡ vion
Ġcenne tte
Ġvalda ve
Ġmahal marya
Ġmahal mali
Ġmahal massen
Ġmahal maryanna
Ġyomenco altasse
Ġinwis to
fa t
mol in
mol ie
mol tar
mol ila
mol lon
quet ta
quet uvan
Ġsav uva
Ġsav uvalte
Ġsav ilte
Ġsav uvalme
Ġistal ye
Ġistal des
Ġses tiÃ©nen
Ġcanta sse
Ġcaras tar
Ġcaras tana
Ġcaras tiÃ©no
ĠrÃŃ er
ĠrÃŃ cina
ĠrÃŃ cine
ĠrÃŃ pelte
Ġpait yana
Ġpait yuvan
Ġmenta ve
ĠmÃ¡l yat
ĠmÃ¡l tanten
ĠmÃ¡l dat
ĠSÃŃmon na
ĠSÃŃmon do
Ġtyas tane
Ġtyas tiÃ©va
Ġcom yal
Ġcom yaine
Ġcom yuvalte
Ġcom yanelde
Ġhyam in
Ġhyam ie
Ġhyam uvar
Ġcennes es
elva sse
elva ssen
ĠcÃ©n ienwe
ĠcÃ©n imar
ĠcÃ©n elÃ³re
ĠEl ve
ses o
Ġnen issen
Ġhim yala
Ġhim yaner
Ġat tanna
Ġat Ã¡nie
Ġat sin
Ġat Ã¡lie
Ġmap ar
Ġmap as
Ġess eryan
Ġess elyan
Na uvalde
Ġala pi
Ġala iri
Ġala mÃ³
Ġala monnar
Ġala vÃ©la
Ġnor ie
Ġnor me
Ġnor ello
Ġnor nelte
Ġnor iesse
Ġnor oll
quÃ© ta
quÃ© tina
quÃ© time
Ġher enya
Ġher unen
ĠYÃ³ hya
ĠYÃ³ tam
ĠYÃ³ seso
Ġmat tan
Ġmat to
Ġmat tanen
Ġmat uvalte
Ġmat ten
Ġroi tar
Ġroi taner
Ġroi tanelte
Ġroi tuvalte
Ġloi tan
Ġloi tar
Ġloi tuva
Ġloi tiÃ©nen
Ġloi cor
Ġloi talte
Ġloi tanelde
tul ya
tul lo
tul tanes
tul yuvas
Ġne m
Ġne mir
Ġparmangol moltar
El me
El ve
El yenen
cil ar
ĠcÃ© ÅŁ
ĠcÃ© ÅŁina
Ġquel le
Ġmaur esse
Ġmaur elta
Ġmaur elma
Ġmaur eltar
Ġmaur enyan
Ġfor masse
Ġfor maryasse
Ġoscir iÃ©nen
Ġoscir naron
Ġais tala
Ġais tiÃ©va
Ġais talve
Ġvin yali
Ġete quÃ©tala
Ġapsen a
Ġapsen ir
Ġapsen nes
Ġapsen iÃ©nen
ĠYÃ¡cov ello
Ġcim nes
Ġcim iÃ©nen
Ġcim nelde
ĠÃºfa ilar
ĠFe an
ĠFe asse
Ġairi tie
Ġairi tiÃ©nen
ĠnÃ³ri enna
ĠnÃºror yan
ĠnÃºror yaron
Ġcai tea
ĠhÃ¡ ma
ĠhÃ¡ tala
Ġleng ala
Ġleng ien
Ġleng alde
Ġleng iesse
Ġleng iÃ©no
Ġleng iello
Ġleng ielda
Ġleng ierya
Ġleng anes
ĠIl quenen
ĠIl uvalo
ĠhÃ¡non il
ĠhÃ¡non ilme
ĠhÃ¡non yain
avi ÅŁa
ĠvÃ¡ quenter
ĠvÃ¡ quetila
ĠvÃ¡ vaner
Ġenor talesse
Ġcennen yes
ĠPilÃ¡ ton
ĠPilÃ¡ tollo
Ġheh tien
Ġheh tanelte
Ġcasta tya
Ġnoss ion
Ġnoss elya
Ġnoss elyo
Ġoronte tte
Ġmassa inen
yanelte t
Ġcard allon
Ġcard alta
Ġcard aldar
Ġcarnes es
Ġsumb anen
Ġtiu ca
Ġtiu tien
Ġtiu tieryan
Ġcil taina
Ġcil tanes
Ġcil les
Ġquan ter
Ġquan tala
oica ve
ĠsÃ³ vine
ĠsÃ³ vala
Ġastar o
Ġastar indor
ĠequÃ© tielme
Ġist uval
Ġist yal
ĠhÃ¡nol yanna
Ġondo va
Ġondo colco
ĠhÃŃn al
ĠhÃŃn annar
ĠacÃ¡m ies
ĠacÃ¡m ielme
Ġto ava
Ġqua ta
Ġqua tir
Ġqua inea
Ġatte an
Ġvanda va
Ġenn Ã³na
Ġhep ie
Ġhep ilde
Ġhep uvalde
Ġhep uvas
Ġhep ienya
ha titas
Ġmard enna
Ġamill in
Ġhuru n
Ġhuru li
Ġhuru vi
Ġhuru hristoli
Ġhuru pean
ĠYondo tya
cÃ¡r o
Ġlanta ssion
Ġmall enna
Ġmall enen
Ġmall essen
Ġlat ili
ĠrÃºÅŁ en
ĠrÃºÅŁ enna
ĠrÃºÅŁ erya
ĠrÃºÅŁ eryava
ĠAvraham ello
altar on
ĠmÃ©n ienwe
Ġlu mba
Ġhru cen
Ġapan tanes
Ġapan tuva
Ġapan tiÃ©va
Ġcanwa inen
ĠAinol lo
ĠAinol da
ĠAinol van
ri p
alta in
ĠecÃ©n ien
ĠecÃ©n ielte
Ġfe an
Ġfe anna
Ġfe alda
Ġfe alya
Ġfe aldain
ĠnÃ³nar essen
ĠnÃ³nar Ã©li
ĠnÃ³nar eryasse
ĠSÃ¡ lemo
ĠyÃ¡l ala
Ġcorda hes
Ġnoir io
Ġquil tal
Ġquil tane
Ġohtar ho
Ġohtar hosta
imo ÅŁÃ©o
Ġleh tiÃ©nen
Ġleh tuvan
Ġleh tuvanyes
Ġvoronw erya
Ġvoronw iesse
Ġvoronw iÃ©va
Ġvoronw ielda
Ġvoronw ielya
Ġtarwes tien
Ġtarwes taner
Ġtarwes taneltes
ĠnyÃ©re o
ĠmÃ¡m anya
ĠmÃ¡m aryar
ĠmÃ¡m anyar
Ġnait yar
Ġnait yala
ĠYe conya
ĠEn yala
Ġoc Ã³li
Ġtux i
Ġtux ali
val ima
sef ion
ĠSam in
ĠSam uel
Ġhlai wali
ĠapÃ¡n ier
ĠapÃ¡n ies
ĠapÃ¡n ielde
ĠapÃ¡n ielve
Ġnatto sse
Ġhrup uhta
pi Ã©li
ende tte
Ġron da
ĠVar ÅŁolo
La htala
Ãļ h
Ãļ voronda
Ġmoli er
Ġmoli enna
Ġmoli eryo
Ġpel taina
Ġpel tanes
Ġpel der
Ġpel onen
Ġpil ir
Ġpil il
Ġpil uvas
Ġpil wi
Ġpil weo
Ġpil unna
Ġquetien ya
Ġulca in
ĠÃ±wal ya
ĠSÃ¡tan wa
ĠU l
ĠU alte
ĠU tÃºlien
ĠU ndu
ĠU ssi
Ġantor yo
Ġendar on
Ġendar yanna
Ġtaras tie
Ġataril vain
Ġataril vannar
Ġnucum ila
ĠArau con
Ġhrupuh tor
Ġhrupuh tandor
ĠQu Ã©tan
Ġlesta ssen
Ġcarda in
Ġmacil elya
Ġmalle o
ĠÃ³ra vi
ĠÃ³ra vas
ĠÃ³ra viÃ©no
ĠFea va
Ġverir yanna
Ġrun ces
Ġtungwe mende
Ġnir men
ĠcÃ¡ tine
Ġamb asse
Ġsap ta
Ġsap sa
ĠHerun ya
ĠIsrael yar
Ġcaruvan yes
ĠfÃ³ ler
Ġmanw aner
Ġmanw anes
Ġmanw anelte
ĠÃŃr in
ĠÃŃr eli
ĠÃŃr eltassen
ĠhlÃ¡r al
ĠhlÃ¡r alve
ĠhlÃ¡r elÃ³ra
ĠhlÃ¡r elÃ³rar
Ġongw el
Ġongw eltar
Ġongw eryar
Ġocom uvar
ĠnÃºromol ien
ĠnÃºromol ielya
ĠmÃ¡n ar
ĠmÃ¡n ten
Ġsir peo
ĠpÃ¡ laina
Ġenyal uvan
Ġenyal der
Ġveu yar
Ġveu yal
Ġveu yanes
Ġveu yaina
Ġora vuva
ĠÅŁany er
ĠÅŁany enna
ĠÅŁany esse
Ġlav in
Ġlav ien
Ġlav uvan
Ġlav umnes
Ġcordon ion
Ġcordon tyer
Ġtir ie
Ġtir uva
Ġlel yar
Ġlel yal
ĠvÃ©r alda
ĠvÃ©r alta
ĠvÃ©r alya
ĠvÃ©r aryallon
Ġlap sen
Ġlap seo
ĠYerÃºsalem anna
Ġserc enna
Ġserc erya
Ġhendul ta
Ġhendul manten
Ġyaiw esse
Ġyaiw elta
ces tane
tye t
vel ien
vel unte
ĠrÃ© l
Ġfin de
Ġquettal ta
ĠettÃº lienwe
Ġnara cie
ĠmÃ¡le a
ĠmÃ¡le o
Al anties
cin ar
Ġlor nar
Ġlien yan
Ġhos tar
Ġhos tie
Ġhos tien
Ġvis tanes
ĠnÃ¡r en
ĠAnar en
ĠAnar esse
Ġmavar o
ĠMan o
Ġamor tiÃ©li
Ġlah tane
Ġlah tanelte
Ġlah tiÃ©va
ĠnÃŃr ar
ĠnÃŃr ina
ĠnÃŃr ion
ĠnÃŃr essen
ĠnÃŃr eryar
ĠnÃŃr elÃŃnen
ĠnÃŃr eryainen
ĠCo irea
ĠhÃŃr ala
Ġimmotun tiÃ©nen
Ġimmotun tiÃ©no
Ġimmotun tiello
ĠReh ton
ĠReh Ã³vo
Ġhyar yasse
Ġhyar mello
Ġhyar malya
Ġui uhtie
mat Ã©
ĠÃī ve
ĠÃī noc
Ġcamnes et
Ġturu vas
ĠVet to
ĠÅŀany eldasse
ĠtÃ¡r alde
ĠtÃ¡r iello
Ġus quenen
Ġhildon na
Ġsanw enen
Ġsanw enyar
Ġnosse tÃºr
Ã¡vel tan
ĠIngar anna
Ġsal pe
Ġsal quenna
Ġlis so
Ġteh to
ĠlÃºm issen
ĠlÃºm eryasse
Ġtalu ttat
Ġyondon yan
ĠtÃ¡ra ve
Ġsuil ane
Ġhendu o
Ġhuor elma
ĠÂº Ãº
ĠfÃ³le o
ĠfÃ³le va
Ġtuxantur en
Ai ya
Eru tercÃ¡no
ĠcÃ¡m alÃ³re
Ġhel yan
Ġfas tana
Ġnyarne t
Ġnyarne tte
ĠnÃ©ÅŁ al
ĠnÃ©ÅŁ enyallo
ĠnÃ³rec Ã¡nor
Nyar nes
Nyar nen
hl ar
hl asse
han ter
Ġluh tane
Ġluh tala
Ġluh tien
Ġcel um
Ġmatso va
Ġmatso colcar
Ġro quen
Ġrin celte
Ġroc oll
Ġmit tala
Ġmit yaldasse
ĠÅŁun duo
Ġtec uvan
Ġtec umne
Ġerd ello
Ġerd ion
Ġerd elya
Ġerd eryan
Ġqualina in
ĠÃ±e tienna
ĠnyÃ¡r alme
ĠtÃ³ panya
Ġso a
ess erya
Ġnacan telde
Ġpanyan et
ĠMel ci
ĠolÃ³ lielde
Ġamp itye
ĠnÃŃÅŁ ime
ĠhÃŃnar yain
Ġsaviel tan
Ġsaviel yanen
Ġsaviel dan
Ġhaim erya
Ġhaim enen
Ġhaim assen
Ġhaim eryanen
Ġperp Ã©rala
Ġsarn enna
Ġsarn eli
Ġsarn inen
Ġpaityal eryo
Ġetequen talve
mali on
pal Ãºne
pal paner
tÃŃr asse
Ã©v anen
ĠnÃ¡mo ham
ĠnÃ¡mo combin
Ġsail aron
Ġsail allon
ĠÅŁÃº re
ĠPa t
ĠPa fos
ĠHellen yan
ĠHellen yasse
ĠHellen yaron
ĠAntioc esse
Sam uvalte
Sam ilve
Sam ilme
Ãĵ se
Ãĵ rava
Ġmeh tenen
Ġmeh telma
ĠsÃºr illon
Ã©l in
Ġhand al
Ġhand esse
Ġhand allon
Ġhun ter
Ġhun telte
Ġyuh tiÃ©no
Ġann alÃŃnen
ĠÃºl Ã©vi
ĠPan yala
ĠhrÃºcen i
ĠÃ±et ala
Ġpustane xe
Ġrantar on
Ġlingw ion
Ġlingw io
Ġeteleh tie
Ġeteleh tien
Ġeteleh taina
Ġnelli va
Ġarcand enen
Ġarcand eldanen
?' ,
Ġlal ar
Ġlal ye
Ġlal anelte
Ġant Ã¡veltan
Ġcaril tasse
Ġcarnen gwe
Ġint yane
ĠnÃ³m elta
Ġleu coron
Ġmancan er
Ġmentan etye
Ġalass ie
ĠsÃ¡v es
ĠsÃ¡v ina
ĠÃ±uru h
ĠÃ±uru llo
Ġnostar uryat
Ġnostal Ã©nen
Ġceste an
Ġceste alte
Ġceste aste
ĠOron tesse
Ġvandar yanen
Ġlama telta
Ġyomencoa in
Ġetemen taina
Ġetemen tanes
ĠcÃ¡n oli
Ġhur ir
ill ÃŃnen
Ġum ilde
Ġum ilte
Ġum ilye
ĠYo anna
ĠYo sefion
Ġmail eryar
Ġtalul dal
Ġveryan we
Ġveryan wenna
ĠCor asin
Ġlaitale o
Ġvende o
Ġhortan elme
Ġhenyat se
ĠElÃŃ o
Ġsalque o
cam ner
tyar ien
tyar ila
yer a
Â» .
Ġhas tima
ĠaquÃ¡ lielve
Ġnaitya ine
Ġohta carien
ĠÃºa ire
Ġpaime tien
Ġpaime tiello
Ġoravi Ã©no
ĠMen e
ĠMen tanes
ĠMen tuvan
Ġterc Ã¡no
Ġterc Ã¡noli
Ġamma tuva
Ġamma ira
ĠyÃ¡v eli
ĠyÃ¡v elda
Ġantauvan e
ĠÃ±en telte
ĠutÃºli elme
Ġcirih tuva
Ġcirih tuvar
Ġturco va
ĠihÃŃr iel
ĠihÃŃr ielme
ĠIngaran wa
pp as
san te
Âº er
Ġsaili esse
Ġres tallo
Ġres tallon
Ġentul uva
Ġentul uvan
Ġpanyanelte t
ĠSÃŃr io
Quet ie
Ġtermar uvan
ĠTÃº les
ĠTÃº lelte
ĠTÃº reo
Eng es
ĠYohan nenna
ĠhÃºme o
ĠÃ±ottol dar
Ġurus tami
Ġhuore o
Uas te
YÃº yo
ex en
ĠQuen eli
Ġmul manen
Ġhes tane
Ġhes tiÃ©la
tando iva
Ġef f
Ġandor yar
Ġantol ta
Ġantol tasse
Ġantol tallo
Ġantol dallo
Ġnax alissen
ĠÃºÅŁ elte
ĠÃºÅŁa htaina
ĠÃºÅŁa htiÃ©nen
ĠlenÃ¡r i
ĠlenÃ¡r ion
Ġtulin we
ĠortÃŃr ala
ĠortÃŃr ielda
ĠasÃ¡m ier
ĠÅŁanyen yar
Ġostor amb
Ġungw alÃŃnen
ĠCÃ© fan
ĠCÃ©s area
Ġsuc ila
Ġsuc ilde
Ġsuc uvalde
Ġsuc uvaste
Ġcaur esse
Ġtyen yar
ĠFarisa va
ĠOl yoÅŁa
ĠindÃ³ men
Ġlimp unque
Ġlimp unqua
Ġtumna ve
ĠnyÃ©r i
Ġoscirna in
ĠhyÃ³l ar
Er ya
Er yave
Ġmand ol
Ġmand onna
Ġlet se
Ġhal ar
Ġhal la
Ġhal yaina
ĠquÃ©r inar
Ġyel we
Ġresta ssen
Ġrestar yasse
Ġennen ya
ĠÃºmir wa
Ġtall un
Ġtall ette
Ġtalien yan
Ġalcarerya va
ĠTÃŃr en
ĠsÃ¡mal do
ĠsÃ¡mal yo
Ġhroal to
Ġhroal oi
Ġhroal masse
ĠmÃ©l ina
Ġnissen nar
Ġneceli va
Ġtiutal eldan
ĠocÃ³m ien
ĠocÃ³m ienwa
ĠÃ±walm eryava
ĠCombe o
Ġrohtal ie
Ġrohtal yo
ĠYordan ello
Car am
Car ilde
Car pan
Sa va
Sa vin
anw ie
Ġmoi car
Ġmoi cie
Ġpiu tie
Ġpiu tanelte
Ġevet tier
Ġantar e
ĠAla pulÃºne
ĠAla palÃºne
Ġfel meli
Ġettele allon
ĠÅŁa hta
ĠÅŁa htaina
ĠSa cc
Ġhildol yallon
Ġtalan te
Ġmeris te
Ġcamnel des
ĠLe met
ĠLis ce
ĠLis ias
Ġhem pelte
Ġongwe o
Ġongwe mo
ĠAinon yan
ĠYondor yasse
ĠomÃ³ tien
ĠomÃ³ lier
Ġherul dar
Ġherul yo
Ġquelex a
Ġquais tali
ĠSamÃ¡r iallo
Ġhroaran tan
Ġambar o
ĠihÃŃ mielte
Ġenvinya tuva
Ġenvinya tÃ¡la
Ġcalmatar ma
Ġcalmatar mar
Ġcalmatar maron
hlai wali
ĠperpÃ©r elte
ĠperpÃ©r elde
ĠCÃ©sare asse
ĠCÃ©sare allo
ap pane
tum nen
tum neltes
Ġnul diesse
Ġtam ma
Ġsun ce
Ġcun do
ĠyÃ¡r ar
ĠyÃ¡r aron
ĠyÃ¡r annar
Ġyali Ã©nen
ĠnÃ¡mon nar
Ġec car
ĠuÅŁ uva
ĠuÅŁ uvalte
Ġren ta
Ġren ne
Ġrer il
ĠasÃ¡vi el
ĠMandos to
ĠMandos tonna
ĠMandos tosse
Ġeld enna
Ġauco in
ĠÃºcarel yar
ĠÃºcarel dassen
Ġcanw arya
Ġlaital Ã©va
Ġlaital elma
Ġlaital yexe
Ġyangw anen
Ġyangw allo
Ġnisque ma
Ġtarwesta ine
Ġhamun er
Ġroita inar
Ġnecel illon
Ġnecel lÃŃva
ĠhyÃ¡m an
ĠhyÃ¡m ane
ĠverulÃ³r ali
ĠverulÃ³r aron
ĠSecar ÃŃo
ĠSÃŃron en
Ġungwal Ã©nen
ĠlalevÃŃ tenna
Her urya
heh tanes
Ã± etie
Ġtamb a
ĠtÃŃr ar
ĠtÃŃr ala
ĠtÃŃr aner
ĠlÃ©r ar
ĠlÃ©r iÃ©va
Ġava htie
nam pe
nam per
nam pes
Ġsava ht
Ġcardan yar
Ġcarnel yanes
Ġmahta s
Ġrass i
ĠÃºsa h
ĠÃºsa htienna
Ġfind i
Ġfind iva
Ġalan arda
ĠÅŁel marya
ĠÅŁel manen
ĠSoro mo
Ġsamien yan
Ġhanquet uvas
Ġrai tandoli
ĠIÅŁ ilo
Ġlang anes
ĠyÃ¡vi on
Ġverur yallo
ĠCan uvas
Ġpeantier yanen
Ġpara htane
ĠLah tien
ĠLah tiÃ©va
ĠLah tiÃ©no
ĠLah tiesse
ĠÃºpuh tale
ĠÃºpuh tiÃ©nen
ĠÃºpuh tiÃ©va
Ġalah asta
ĠÃºfaili Ã©no
Ġistuvalde t
Ġnirm unque
Ġnirm eryanen
Ġulcul i
Ġsanwel yar
Ġrocco sse
Ġots olasse
ĠAndrÃ© o
Hil yuvan
sin wa
sin we
Ġnil die
Ġneh tane
Ġneh tien
Ġneh tari
Ġtiel lon
Ġtimbar eryasse
ĠsÃ³m asse
ĠsÃ³m anna
Ġlit se
Ġlit sesse
Ġquor ir
tanet tes
Ġev Ã©rier
Ġnau te
ĠAm illelya
ĠrÃ©n ar
ĠrÃ©n allo
Ġmaller yar
ĠfÃŃr ime
ĠmÃ¡ma in
Ġostol ta
Ġoloi tier
Ġnattir uva
ĠCen ie
ĠCen cre
ĠCir Ã©n
ĠCir Ã©ne
ĠsÃ¡man yo
Ġvanw iello
Ġlaic elva
Ġvaim arya
Ġling iÃ©nen
Ġahtar uva
ĠemÃ© lien
Ġcomyanelte t
Nat to
Ġainol Ã³re
Ġainol Ã³rie
Ġraucoh aryain
Ġatarildar on
Ġtungwem oron
ĠÂºan g
ĠÂºan yenen
ĠhlÃŃvel lon
ĠCorin tenna
Lehe m
Lehe menna
ĠoÅŁw erya
ĠoÅŁw elya
Am ill
Am Ã¡pi
fÃŃ lo
mÃ© na
mÃ© le
mÃ© nasse
ĠsÃ©r erya
Ġlil ma
Ġlass eryar
Ġpet uva
ĠYa iro
Ġmaque tiello
Ġrand asse
ĠÃºos cirna
Ġmitya ve
Ġortir indo
ĠcenÅŁ er
ĠSar d
ĠSar o
ĠSal Ã³me
ĠhlÃ¡ra ina
ĠhlÃ¡ra ine
Ġramb asse
Ġramb arya
Ġramb elÃŃnen
Ġtano me
ĠTi cico
ĠCar nes
Ġtyarnes et
ĠYeri conna
ĠYeri collo
Ġoronti ssen
Ġtelp enen
Ġtelp enya
Ġmilpi al
ĠAlÃŃ leo
ĠLaorice a
ĠRÃ³m allo
Ġyomencoantur wa
Ġcanaque a
ĠpÃ¡ÅŁ esse
ĠpÃ¡ÅŁ elar
ĠpÃ¡ÅŁe va
Ġhoss eli
ĠtÃ³p anna
Ġohtacar ir
ĠÃºacÃ¡r ien
ĠÃºacÃ¡r ier
ĠVÃ©lsev ul
ĠVÃ©lsev Ãºlo
Ain ol
Ain onya
HÃŃ ni
Mar ÃŃa
Mar ÅŁa
Rimb e
ain or
cun don
roi tar
Ġarin tinwe
Ġarin wat
Ġcoli Ã©nen
Ġcoli tas
Ġcoli tat
ĠpÃ©l tanten
ĠÃºtul ya
Ġfir umne
Ġoromar desse
Ġetsan ter
Ġetsan teset
Ġcenuval des
Ġisin tier
Ġtev uvas
Ġhilyanet tes
Ġtap ta
Ġtap te
Ġloim allo
Ġamm itya
Ġamm Ã¡tala
Ġamm Ã¡tina
ĠamÃ¡ tien
Ġamanw ie
Ġamanw iel
Ġlaul esta
Ġlaul estarya
Ġlaul estalta
ĠLÃº cas
ĠNÃ³ nare
Ġontar u
Ġontar ultan
ĠÃ±ar mo
ĠÃ±Ã© teltan
Ġpeanti elyasse
Ġvettien ya
Ġrui veryallo
Ġlaituva xe
Ġnaiquet ilte
Ġnaicel ion
Ġnaicel ea
ĠMatt ÃŃas
Ġlih to
Ġnestien yan
Ġlind ala
ĠnÃ¡moson da
Ġhendunyat se
ĠYondon en
Ġpalpan er
Ġnass eltanen
Ġcumb alyan
ĠmÃ¡lya to
Ġherur yo
Ġhepien yasse
Ġpilu iva
ĠTehtel essen
ĠTehtel ellon
Ġlaps erya
Ġlaps ion
ĠtercÃ¡nor yanen
ĠSandu cearon
Ġeccoi taner
Ġhwer me
Ġsanwelun g
ĠHanquen tasse
ĠCipru senna
ĠeÃ±Ã© tiel
ĠÃºhande a
Atan in
AcÃ¡r iel
CÃ©n elÃ³rar
In yen
LÃº menya
Sin ge
Yes tanelte
hÃ¡ ta
su e
ĠÄ¦ Ã¡ran
ĠÄ¦ esecia
Ġnwal yaine
Ġsel dor
Ġsel yen
Ġsoi ce
Ġliel i
ĠquÃ³r ina
Ġyu tya
Ġviel Ã³re
Ġpo ta
Ġpo co
Ġanar Ã³re
Ġanar Ã³rello
Ġnatal ÃŃnen
Ġnaxan yar
Ġnaxan yainen
Ġcariel ÃŃnen
ĠrÃ¡m aryat
ĠenutÃº lie
ĠenutÃº liel
Ġfen n
Ġfen da
Ġlep ta
Ġtulun er
Ġtulun elte
Ġorir ya
Ġorir estar
Ġets esse
ĠÅŁor ni
ĠHeroli as
Ġsinge o
Ġhilmor yar
Ġestoli Ã©no
Ġninqu ima
Ġninqu issenen
Ġtallen yes
Ġolo iri
ĠLer venna
ĠÃºcarin de
ĠÃºcarelva iva
Ġhoman can
Ġhoman cien
ĠNÃº menna
ĠNÃº mello
ĠNoa Ä§
Ġlemy uvalve
ĠCes tuvalden
Ġyondol dar
Ġanah tielde
Ġnuquer nes
Ġontale parmar
Ġhroan yanen
Ġatarin yan
ĠnÃºron yar
ĠVala m
ĠnaiquÃ© taina
Ġurd iÃ©nen
ĠAlf aio
Ġlaup erya
Ġvat tuvalte
Ġnessar yar
ĠhrÃ¡ven yanen
Ġlimil ion
ĠmÃ¡lta to
Ġtolo quean
Ġcilm elyanen
Ġantanel yane
ĠahlÃ¡riel mes
ĠÂª an
ĠmÃ©nal tallon
ĠSamÃ¡re ar
ĠSamÃ¡re aiva
ĠapÃ¡niel tes
Ġambos telta
Ġlapsar wa
Ġlapsar we
Ġhendulyat se
ĠcÃŃlin aryar
ĠManw ie
ĠManw iÃ©va
ĠCain an
Ġciryam pa
Ġciryam par
Ġsoval lenen
ĠEfesus ello
Ġtyelpe colca
Ġandamacil den
ĠEras to
ĠAlati a
ĠAlati asse
Ġsaicel Ã©nen
Ġneceltus sa
Ġalasa ilar
ĠÅŀessalonic anna
Ana ien
Etel eh
Im ÃŃca
Le mpe
Ler talme
Tyar a
ĠmÃº co
Ġsor osta
Ġsit unen
ĠlÃŃr inen
Ġvai tane
Ġpoc olle
ĠYos ÃŃa
ĠYos ua
ĠEul en
ĠEli ur
ĠAv riel
Ġohtal li
Ġencaras tuvan
Ġencaras tumne
ĠÃºm elte
ĠÃºm Ã¡re
ĠÃºna in
Ġpai tie
Ġpai tien
Ġfanya ssen
Ġmanc ale
Ġasca tuva
Ġasca tuvas
Ġety Ã¡mes
ĠÅŁin tanÃ©ya
ĠHristor yo
Ġnarcan es
Ġmarilla inen
Ġquetiel lon
ĠSina i
ĠSion de
ĠSos tenes
Ġhlus s
ĠPet er
ĠÃ³r Ã¡vala
Ġrap pal
ĠItali anna
Ġapp ieryan
Ġlannel tar
Ġairil ÃŃr
Ġairit Ã¡ve
ĠairelÃŃr esse
ĠyÃ¡ver yar
ĠyÃ¡ver yanen
ĠTer tullo
ĠTur co
ĠTri fimo
Ġceu tiÃ©va
Ġulum pion
Ġtui ane
Ġtui anelte
ĠÃ±on alme
ĠÃģsi a
Ġnyardan e
Ġlaitan yexe
ĠÅŀia tÃŃra
ĠÅŀia tÃŃrasse
ĠMattat ÃŃas
Ġfairen yo
Ġmoliel tanen
Ġrances es
Ġcaramp ette
Ġhlassel des
Ġness elesse
Ġturcon nar
Ġvarnas s
Ġvarnas senna
Ġsavis te
ĠatÃ¡r ier
Ġvinim or
Ġtolu parma
Ġcilin tilla
Ġtom peltes
ĠÃļcar etyar
Ġehen tie
Ġehen tanie
ĠQuet in
ĠQuet to
ĠFilipp isse
ĠliyÃº meli
ĠVetÃ¡n ia
Ataril mar
Ġtecet tanya
Ġampit yallo
ĠNasaret enna
ĠrelyÃ¡val dallo
Ġsalquec Ã¡p
Ġsalquec Ã¡por
ĠCaraxo men
Ġimbacind i
ĠminaÅŁ Ãºra
Ġhalma hlaiwar
ĠEhen no
Ġolvarya ssen
Ġfindil eryanen
ĠCanÃ¡ anya
Ġementa ye
Ġnampait yuva
Ġnampait yale
ĠNancar iÃ©va
Ġavaler yala
ĠPamfili a
ĠPamfili asse
Ġhelexe va
Es tel
Fa ila
Fah enna
Imne tyandor
MÃ³ ses
Ni corÃ©mus
Pol imme
Tar ner
Yal les
YÃºr as
Ġnun ter
Ġtielta ssen
Ġsimp etar
elyen ya
Ġlum nane
Ġlelye a
Ġcul mÃŃre
Ġhli cilar
Ġquar ca
Ġquestar yasse
Ġacaras tie
Ġveli tas
Ġpimp eltasse
ilda in
Ġeul enyain
ĠuÂº ie
ĠEpafr olÃŃto
Ġopoi tie
Ġyax ir
ĠHyar mello
ĠentÃº lala
ĠÃºf anwie
Ġtulyan dor
mau ya
ĠetutÃº lielde
Ġimna tyandor
Ġalmar e
ĠMÃ¡r ia
ĠÅŁÃ© yar
ĠÃ¡pan tiel
ĠSÃ¡r oc
Ġsing enen
ĠhrÃ³ tanoir
Ġtaramb olÃŃnen
ĠapÃ¡r ien
ĠFÃ¡r o
Ġautul yal
ĠÃĵ ver
Ġnatton yar
ĠLo to
ĠLir da
ĠTo cot
ĠhÃ©pa ine
ĠceÂº e
ĠsÃ¡ne alde
ĠÃ±war ie
ĠtyÃ¡vel asseli
ĠÃģvel o
Ġminques es
ĠYere mÃŃa
ĠYerus alemenna
ĠYerÃºs alÃ©mo
ĠYohÃ¡n ion
Ġhatuvalte t
ĠaÅŁcen i
ĠaÅŁcÃ©n ime
Ġliv yale
ĠRÃº f
ĠOnes ifÃ³r
Ġnastar or
Ġperperil yes
Ġtium ar
ĠatyÃ¡vi er
Ġalamo in
ĠYÃ³ra m
ĠetemÃ©n ier
Ġtoll asse
Ġastarmon ya
Ġhyul maruine
Ġlehtanelte t
Ġhlaiw assen
ĠVarsa ppas
Ãļcar elyar
Ġrunda colindor
Ġmanwan ette
ĠSevul ondo
ĠVetsa iranna
Ġfalas tala
Ġfalma inen
Ġofel menen
ĠÅŁanyengol mo
ĠMilet us
ĠnattÃŃra ine
ĠNicol aiyaron
Ġvehter yanna
ĠTroas enna
ĠCilici asse
ĠMeletyar yo
ĠÅŁÃ¡ny elÃ³r
Ġlihtan ar
ĠocÃ³mi Ã©la
YerÃºsale m
ĠÅŁarnun tar
Ġaccasu cier
Ġpelec co
Aman cien
Epafr as
Hyar meno
HÃ¡n olya
Lin tiÃ©nen
Rus qui
Salta marya
Tel pe
TimoÅŁe onna
YÃ¡co v
nal die
nanw en
rÃ³ menna
sÃŃr esse
ĠÃ¡r asse
anyÃ¡r ien
Ġniel tar
Ġlir ilte
Ġatya s
ĠaÂº ea
temen nelte
ĠvÃ³ rea
Ġporo ce
Ġeter ah
Ġeper pÃ©rier
Ġeces tie
Ġanam o
ĠYess aion
ĠEle Ã¡sar
ĠEtse mane
ĠAha vo
ĠAhlÃ¡r ielde
ĠAhyer o
Ġotar mi
ĠHim enaio
ĠHelma hlaiwa
ĠÃºvel tallo
Ġfili ci
Ġfill anne
Ġtuless eryasse
ĠMau yane
ĠMÃŃca el
ĠMesopo tami
ĠSpan ianna
ĠSavi elya
ĠPera t
ĠPop lio
ĠÃ³com ner
Ġelend ie
Ġeleryan ie
laquet uval
Ġrait oli
ĠapacÃ©n ala
ĠFilar el
Ġaucel ie
Ġlaimar il
Ġcamumne tye
Ġundum ello
ĠonÃ³r ien
ĠmÃ³ron en
Endan ya
ĠtyÃ¡v erya
Ġhroamit talyar
ĠÃģÄ§ as
Ġlaitalme xer
ĠÅŀeo fÃŃlo
Ġtelcor yat
ĠfairelÃŃr ÃŃnen
Ġvorondal yan
Ġaurepait yalen
Ġvattar estarya
Ġsarnel ÃŃnen
Ġhendulma tse
Ġnelcil tar
ĠlamÃ¡re o
Ġalapi hta
ĠalamÃ³ lin
ĠYÃ³hya fat
Ġcardalta inen
Ġohtarho sse
ĠVarÅŁolo mÃ©o
ĠUssi a
ĠRehÃ³vo am
ĠnossetÃºr i
ĠÃºlÃ©vi me
Ġtaluldal to
Ġurustami tta
ĠSacc aio
ĠLemet rio
Ġsavaht Ã¡ni
ĠCencre ai
AmÃ¡pi elte
ĠhrÃ³tanoir isse
ĠOnesifÃ³r o
