{"<s>":0,"<pad>":1,"</s>":2,"<unk>":3,"<mask>":4,"!":5,"\"":6,"#":7,"$":8,"%":9,"&":10,"'":11,"(":12,")":13,"*":14,"+":15,",":16,"-":17,".":18,"/":19,"0":20,"1":21,"2":22,"3":23,"4":24,"5":25,"6":26,"7":27,"8":28,"9":29,":":30,";":31,"<":32,"=":33,">":34,"?":35,"@":36,"A":37,"B":38,"C":39,"D":40,"E":41,"F":42,"G":43,"H":44,"I":45,"J":46,"K":47,"L":48,"M":49,"N":50,"O":51,"P":52,"Q":53,"R":54,"S":55,"T":56,"U":57,"V":58,"W":59,"X":60,"Y":61,"Z":62,"[":63,"\\":64,"]":65,"^":66,"_":67,"`":68,"a":69,"b":70,"c":71,"d":72,"e":73,"f":74,"g":75,"h":76,"i":77,"j":78,"k":79,"l":80,"m":81,"n":82,"o":83,"p":84,"q":85,"r":86,"s":87,"t":88,"u":89,"v":90,"w":91,"x":92,"y":93,"z":94,"{":95,"|":96,"}":97,"~":98,"¡":99,"¢":100,"£":101,"¤":102,"¥":103,"¦":104,"§":105,"¨":106,"©":107,"ª":108,"«":109,"¬":110,"®":111,"¯":112,"°":113,"±":114,"²":115,"³":116,"´":117,"µ":118,"¶":119,"·":120,"¸":121,"¹":122,"º":123,"»":124,"¼":125,"½":126,"¾":127,"¿":128,"À":129,"Á":130,"Â":131,"Ã":132,"Ä":133,"Å":134,"Æ":135,"Ç":136,"È":137,"É":138,"Ê":139,"Ë":140,"Ì":141,"Í":142,"Î":143,"Ï":144,"Ð":145,"Ñ":146,"Ò":147,"Ó":148,"Ô":149,"Õ":150,"Ö":151,"×":152,"Ø":153,"Ù":154,"Ú":155,"Û":156,"Ü":157,"Ý":158,"Þ":159,"ß":160,"à":161,"á":162,"â":163,"ã":164,"ä":165,"å":166,"æ":167,"ç":168,"è":169,"é":170,"ê":171,"ë":172,"ì":173,"í":174,"î":175,"ï":176,"ð":177,"ñ":178,"ò":179,"ó":180,"ô":181,"õ":182,"ö":183,"÷":184,"ø":185,"ù":186,"ú":187,"û":188,"ü":189,"ý":190,"þ":191,"ÿ":192,"Ā":193,"ā":194,"Ă":195,"ă":196,"Ą":197,"ą":198,"Ć":199,"ć":200,"Ĉ":201,"ĉ":202,"Ċ":203,"ċ":204,"Č":205,"č":206,"Ď":207,"ď":208,"Đ":209,"đ":210,"Ē":211,"ē":212,"Ĕ":213,"ĕ":214,"Ė":215,"ė":216,"Ę":217,"ę":218,"Ě":219,"ě":220,"Ĝ":221,"ĝ":222,"Ğ":223,"ğ":224,"Ġ":225,"ġ":226,"Ģ":227,"ģ":228,"Ĥ":229,"ĥ":230,"Ħ":231,"ħ":232,"Ĩ":233,"ĩ":234,"Ī":235,"ī":236,"Ĭ":237,"ĭ":238,"Į":239,"į":240,"İ":241,"ı":242,"Ĳ":243,"ĳ":244,"Ĵ":245,"ĵ":246,"Ķ":247,"ķ":248,"ĸ":249,"Ĺ":250,"ĺ":251,"Ļ":252,"ļ":253,"Ľ":254,"ľ":255,"Ŀ":256,"ŀ":257,"Ł":258,"ł":259,"Ń":260,"ar":261,"an":262,"en":263,"Ġi":264,"Ġn":265,"al":266,"Ã¡":267,"Ġm":268,"čĊ":269,"Ġar":270,"Ġt":271,"Ġs":272,"qu":273,"el":274,"Ã©":275,"in":276,"Ġl":277,"er":278,"ya":279,"Ġc":280,"Ġh":281,"es":282,"Ġqu":283,"ta":284,"Ġa":285,"se":286,"Ãº":287,"âĢ":288,"te":289,"Ġy":290,"na":291,"Ġv":292,"ĠnÃ¡":293,"Ġp":294,"ie":295,"ir":296,"on":297,"il":298,"or":299,"va":300,"ÃŃ":301,"tan":302,"Ġe":303,"Ġu":304,"Ġan":305,"Ġna":306,"de":307,"Ã³":308,"as":309,"me":310,"ĠâĢ":311,"re":312,"enna":313,"ru":314,"ti":315,"ol":316,"ĠY":317,"ne":318,"ye":319,"âĢĿ":320,"ina":321,"ĠE":322,"ĠâĢľ":323,"ra":324,"lo":325,"Ġsa":326,"ala":327,"is":328,"ve":329,"yan":330,"Ġquen":331,"ĠA":332,"Ġcar":333,"Ġo":334,"Ġya":335,"Ġil":336,"ĠEru":337,"esse":338,"uva":339,"et":340,"ul":341,"ĠH":342,"Ã©n":343,"and":344,"Ġma":345,"Ġin":346,"us":347,"Ġr":348,"tar":349,"ine":350,"uv":351,"Ar":352,"Ġmal":353,"im":354,"Ġye":355,"ĠtÃº":356,"Mal":357,"elte":358,"ien":359,"Ġen":360,"ÅŁ":361,"yar":362,"Ġve":363,"sse":364,"ĠÃº":365,"Ã©s":366,"Ã¡n":367,"to":368,"Ġmi":369,"Ġpa":370,"quen":371,"am":372,"asse":373,"Ã©sus":374,"Ã¡r":375,"tal":376,"Ġf":377,"Ġlen":378,"pa":379,"car":380,"wa":381,"ĠnÃ³":382,"Ġle":383,"un":384,"ĠYÃ©sus":385,"Ġtul":386,"ai":387,"ello":388,"Ġpan":389,"ma":390,"ĠnÃ¡ne":391,"Ġman":392,"Ġmen":393,"ĠÃŃ":394,"Ġco":395,"Ġquet":396,"elde":397,"pe":398,".âĢĿ":399,"ur":400,"da":401,"Ġse":402,"tane":403,"tta":404,"ĠÃŃre":405,"An":406,"ĠtÃ©":407,"ca":408,"Ġor":409,"ter":410,"Ġas":411,"sen":412,"Ġua":413,"mb":414,"Ġsenna":415,"ĠlÃ¡":416,"ner":417,"Ġet":418,"ĠtÃºl":419,"tes":420,"alde":421,"li":422,"Ã©r":423,"co":424,"tala":425,"!âĢĿ":426,"Ġmir":427,"ando":428,"men":429,"Ġim":430,"Ġquente":431,"Ġhya":432,"erya":433,"Ġal":434,"anta":435,"ris":436,"ĠM":437,"ĠÅŁ":438,"Ġcen":439,"ĠHris":440,"Ġqui":441,"ce":442,"ci":443,"Ġnan":444,"ire":445,"do":446,"Ġis":447,"tie":448,"Ã¡m":449,"Ġnar":450,"Ġte":451,"Ġmar":452,"ĠÃ¡":453,"au":454,"dor":455,"ĠHristo":456,"Ġnati":457,"ĠHer":458,"nar":459,"Ġque":460,"Ãģ":461,"Ġfa":462,"ĠS":463,"um":464,"ĠlÃº":465,"Ġsin":466,"nes":467,"que":468,"Ġhl":469,"ĠP":470,"qua":471,"ĠÃ³":472,"ana":473,"anen":474,"ĠEruo":475,"Ġsam":476,"Ġsina":477,"ĠâĢĵ":478,"Ãºr":479,"Ġhan":480,"Ġhil":481,"Ġyando":482,"Qu":483,"Ġel":484,"tien":485,"Ġnauva":486,"oi":487,"Etta":488,"TÃ¡":489,"taina":490,"Ġes":491,"vi":492,"Ġhr":493,"Ġer":494,"Ġilye":495,"ali":496,"Ġmici":497,"le":498,"ĠquÃ©":499,"la":500,"Ġsen":501,"Ġta":502,"Ã©nen":503,"Ġra":504,"alte":505,"ĠÅŁan":506,"Ġnin":507,"Ġtar":508,"ĠquÃ©n":509,"ĠmÃ¡":510,"Ġqual":511,"we":512,"Ġoa":513,"ĠnÃ©r":514,"Ġai":515,"uvar":516,"Ġsine":517,"Ġepe":518,"ĠtÃ©na":519,"?âĢĿ":520,"tel":521,"ion":522,"yane":523,"ĠI":524,"Ġmel":525,"nen":526,"Ġapa":527,"allo":528,"Ġtal":529,"Ġlo":530,"Ġap":531,"Ġos":532,"ĠhÃ¡n":533,"enen":534,"Ġpol":535,"Ġyar":536,"Ġol":537,"ĠsÃŃ":538,"os":539,"ĠF":540,"Ġmer":541,"Ġau":542,"imb":543,"Ġex":544,"dar":545,"Ġquentes":546,"mbe":547,"uvan":548,"ĠÃ":549,"iel":550,"Ġsame":551,"anda":552,"ĠlÃ©":553,"Ġtan":554,"Ġter":555,"Ġlan":556,"Ġnat":557,"Ġam":558,"ĠnÃ¡ner":559,"Ġla":560,"Ġair":561,"Ġea":562,"hta":563,"it":564,"Ġrimb":565,"yon":566,"inya":567,"Ġlenna":568,"Ġcam":569,"Ġeng":570,"Ġly":571,"ĠvÃ©":572,"Ġilya":573,"anna":574,"ĠyÃ¡":575,"ĠyÃº":576,"tanes":577,"ĠHeru":578,"Ġilli":579,"Ġquete":580,"ĠsÃ©":581,"vie":582,"Ġsie":583,"Ġmau":584,"ĠL":585,"ila":586,"ilde":587,"Ġalcar":588,"Ġni":589,"isse":590,"Ġcoi":591,"Ġaran":592,"eli":593,"Ġatan":594,"ĠÃºcar":595,"Ġho":596,"ĠAr":597,"Ġaiquen":598,"Ġun":599,"Ġaur":600,"du":601,"arya":602,"Ã©va":603,"ima":604,"ass":605,"ĠN":606,"ĠnÃŃ":607,"Ġinye":608,"Ã¡no":609,"Ġhe":610,"Ġanta":611,"Ġlem":612,"ĠT":613,"ĠAtar":614,"ĠhÃ©":615,"lon":616,"Ġtien":617,"ale":618,"Ġce":619,"yo":620,"Ġver":621,"Ġpe":622,"įre":623,"ĠAn":624,"Ġcare":625,"Ġlend":626,"ĠquÃ©tala":627,"Ġuar":628,"ĠC":629,"Ġul":630,"Ġanes":631,"Ġundu":632,"tuva":633,"Ġnam":634,"mo":635,"Ġyon":636,"tana":637,"Qui":638,"ĠsÃ¡":639,"ĠsÃ¡m":640,"ĠtÃºle":641,"Ġcan":642,"ĠÅŁang":643,"elya":644,"Ġambe":645,"Ġana":646,"Ġimya":647,"Ġnu":648,"Ġqueni":649,"Ãįre":650,"Ġquanda":651,"oli":652,"Ġon":653,"yanen":654,"Ġmanen":655,"elme":656,"Ã©no":657,"ĠmÃ³":658,"esta":659,"Ġear":660,"yana":661,"yala":662,"Ġvan":663,"ĠtÃ¡":664,"taner":665,"ĠhÃŃ":666,"ĠYÃºr":667,"telte":668,"Ġsu":669,"Ġca":670,"Ġnanw":671,"oron":672,"Ġmana":673,"nelte":674,"Ġtu":675,"Ġhildor":676,"Ġner":677,"tanen":678,"Ġuas":679,"En":680,"Ġcas":681,"Ġhar":682,"ĠnÃ³r":683,"Ġtai":684,"Ġyasse":685,"terc":686,"ĠhÃ¡nor":687,"ĠÃ±":688,"tina":689,"Ġ'":690,"ĠmÃŃ":691,"Ġmun":692,"Ġty":693,"Ġpen":694,"Ġrimbe":695,"eh":696,"Ġend":697,"ĠlÃºme":698,"aron":699,"uvalde":700,"ĠtÃºra":701,"Ġualde":702,"Ġista":703,"Ġelde":704,"inen":705,"Ġhro":706,"Ġsavi":707,"uval":708,"ĠyÃ©":709,"ĠnÃ¡v":710,"ĠnÃ¡ve":711,"Ġquenter":712,"Ġre":713,"Ġsinwa":714,"ĠEruterc":715,"tÃº":716,"ĠÃģ":717,"Ġnyar":718,"ĠmÃ¡r":719,"Ġac":720,"Ġenge":721,"end":722,"can":723,"Ġpean":724,"Ġcol":725,"Ġvet":726,"ĠhrÃ¡":727,"Ġcemen":728,"yasse":729,"menna":730,"messe":731,"Ġquetin":732,"ĠmÃ¡ra":733,"tasse":734,"mar":735,"oh":736,"Ġru":737,"Ġmin":738,"Ã©ter":739,"Ġuan":740,"tale":741,"Ġairim":742,"Ġsi":743,"Ġval":744,"Sie":745,"tte":746,"Ġara":747,"Ġlai":748,"Ġatar":749,"Ġyo":750,"sie":751,"ĠMal":752,"Ġtule":753,"Ma":754,"ĠÃ©":755,"ĠnÃºr":756,"Ã©ru":757,"Ġoco":758,"ĠErun":759,"ĠPÃ©ter":760,"vo":761,"Ġmauya":762,"ier":763,"ĠV":764,"Ġsan":765,"Ġhanquen":766,"ea":767,"Ġtenna":768,"Ġquetta":769,"SÃŃ":770,"Ġnos":771,"Ġfail":772,"Ġhlar":773,"Åŀ":774,"Ġtasse":775,"ĠÅŀ":776,"elda":777,"Ġtyar":778,"ĠÃ¡va":779,"ĠcÃ¡r":780,"uvas":781,"ĠHÃ©ru":782,"Ġmunta":783,"vand":784,"ĠYer":785,"Ġilqua":786,"Ġlende":787,"Ġpar":788,"Ġmenel":789,"aulo":790,"sa":791,"Ġoron":792,"Ente":793,"Ġerya":794,"ĠÃ³se":795,"Ġhir":796,"Ġfaire":797,"dan":798,"so":799,"Ġnai":800,"amb":801,"ĠÃ³m":802,"Ġcor":803,"Ġata":804,"sale":805,"Ġualte":806,"ĠMa":807,"mi":808,"per":809,"Ġama":810,"Ġinse":811,"ni":812,"no":813,"Ġnal":814,"yanna":815,"Ġatta":816,"Ġpole":817,"Ġlyen":818,"mal":819,"yal":820,"Ãºsale":821,"ĠvÃ©ra":822,"Ġtel":823,"taine":824,"Ġexe":825,"Ġyan":826,"Ġevand":827,"ĠAtan":828,"ĠYerÃºsale":829,"mon":830,"ssen":831,"Ġmil":832,"ilyon":833,"essen":834,"Ġmai":835,"Ġqualin":836,"Ġauresse":837,"Ġanaie":838,"Ġevandilyon":839,"Apa":840,"cina":841,"man":842,"yat":843,"Ġalasse":844,"Ġhyana":845,"ÃŃr":846,"ĠÃºquen":847,"Ġyondor":848,"Ġminya":849,"Quen":850,"ĠÅŀan":851,"assen":852,"ĠPaulo":853,"Ġestaina":854,"Ġlye":855,"Ġpus":856,"Ġantane":857,"tya":858,"van":859,"Ġten":860,"ÃŃca":861,"Ġanelte":862,"Ġilquen":863,"Ġsesse":864,"Ġual":865,"umne":866,"ton":867,"Ġarwa":868,"ĠYoh":869,"ĠAin":870,"ĠtÃºre":871,"Ġett":872,"NÃ¡":873,"Ġnauvar":874,"tiel":875,"Ġfair":876,"tol":877,"Ġcal":878,"Ġven":879,"tier":880,"don":881,"ĠnÃ¡se":882,"Ġmapa":883,"ĠimÃŃca":884,"Ġno":885,"tanelte":886,"uvalte":887,"talde":888,"Ġimmo":889,"Ġosto":890,"ĠhÃ©re":891,"dasse":892,"Ġmol":893,"Ġha":894,"Ġvoron":895,"ira":896,"Ġequ":897,"Mana":898,"Ġnelde":899,"Ġur":900,"Ġpanya":901,"ĠtÃºler":902,"iÃ©nen":903,"lie":904,"Ġreh":905,"cir":906,"pan":907,"tor":908,"tso":909,"Ġser":910,"Ġcoivie":911,"YÃ©sus":912,"xe":913,"ĠaÅŁ":914,"Ġelye":915,"Ġlendes":916,"Ġhare":917,"ĠmÃ©":918,"Ġcarna":919,"Ġran":920,"ĠnÃŃs":921,"Ġyes":922,"Ġnis":923,"Ġtun":924,"Ġces":925,"Ġyen":926,"ĠutÃº":927,"ĠIs":928,"ĠnÃ©":929,"Ġcir":930,"ĠAl":931,"Ġoi":932,"Ġelmen":933,"Ġaure":934,"ten":935,"aris":936,"Ġli":937,"eru":938,"Ġnancar":939,"mor":940,"Ġtala":941,"Ġlau":942,"Ã³m":943,"ĠYÃ©s":944,"Ġcarne":945,"yÃ¡r":946,"Ġinte":947,"ĠtÃºr":948,"Ġaranie":949,"Ġva":950,"den":951,"Ġmass":952,"Ġper":953,"Ġpoi":954,"yanes":955,"mba":956,"ĠFaris":957,"ĠÃºcare":958,"del":959,"ime":960,"elta":961,"ile":962,"Ġcaram":963,"Ġranta":964,"ĠtÃ©cina":965,"Ġhlass":966,"Ġtarw":967,"ĠLa":968,"ĠmÃ³l":969,"Ġhanquente":970,"vir":971,"xan":972,"ĠcÃ³":973,"ili":974,"ĠYohÃ¡no":975,"Ġnes":976,"Ġsello":977,"ĠErul":978,"ĠSÃŃ":979,"cen":980,"ĠR":981,"Ġhor":982,"ilve":983,"itya":984,"Ġendal":985,"tine":986,"tur":987,"uh":988,"ilte":989,"ĠAire":990,"Ġnanye":991,"Ãģva":992,"Ġninna":993,"Ġlemya":994,"Ġlun":995,"ÃŃnen":996,"Ġsave":997,"ĠHerul":998,"Ġamil":999,"Ġcame":1000,"ĠacÃ¡r":1001,"ĠTÃ¡":1002,"Ġlin":1003,"ĠrÃº":1004,"tas":1005,"tiÃ©nen":1006,"ĠnÃ³me":1007,"Ġtuluva":1008,"var":1009,"Ġtur":1010,"ĠhÃº":1011,"Ġham":1012,"ĠYÃº":1013,"issen":1014,"Ġoan":1015,"Ġestel":1016,"Ġolla":1017,"yallo":1018,"Ġill":1019,"Ġmah":1020,"Ġinde":1021,"Ġneri":1022,"Ġsar":1023,"Ġhen":1024,"ĠErutercÃ¡no":1025,"ĠhrÃ¡ve":1026,"ĠAtanyon":1027,"Ġyondorya":1028,"Il":1029,"iesse":1030,"ler":1031,"Ġesse":1032,"Ġmo":1033,"Ġrau":1034,"Ġraine":1035,"ĠErutercÃ¡n":1036,"Ġ\"":1037,"ĠO":1038,"yaner":1039,"unque":1040,"Ġetel":1041,"Ġmere":1042,"ĠYÃºrar":1043,"cie":1044,"Ġlie":1045,"ĠquÃ¡":1046,"Ġquer":1047,"Ġvala":1048,"ÃŃa":1049,"Ġnanwa":1050,"gw":1051,"inye":1052,"Ġah":1053,"Ġotso":1054,"ĠsÃ¡me":1055,"ĠÅŁanga":1056,"ĠnÃ¡ven":1057,"nel":1058,"Ġtau":1059,"Ġler":1060,"Ġvi":1061,"ĠnÃ¡m":1062,"Ġapos":1063,"Ġcoivi":1064,"si":1065,"Ġnalde":1066,"Ġarcan":1067,"Ġhend":1068,"Ġmenelde":1069,"Ġorta":1070,"ĠMÃ³":1071,"Ġhildoryar":1072,"iÃ©va":1073,"ver":1074,"Ġlas":1075,"Ġhu":1076,"Ġcardar":1077,"ÅŁe":1078,"Ġcendel":1079,"Ġsamir":1080,"Ġhequa":1081,"ĠÃ³mu":1082,"ĠAtanyondo":1083,"ga":1084,"Ġtana":1085,"Ġyanen":1086,"ĠYon":1087,"Ġcarien":1088,"Ġapostel":1089,".'":1090,"vra":1091,"Ġlisse":1092,"âĢľ":1093,"Ġyunque":1094,"Ġvali":1095,"ĠtÃºles":1096,"Ġulco":1097,"ĠhrÃ¡v":1098,"Ġminna":1099,"vrah":1100,"Nai":1101,"ilme":1102,"Ġsavie":1103,"quean":1104,"Ġmelme":1105,"Ġhoa":1106,"ĠnÃºro":1107,"ĠÅŀanye":1108,"ĠIsra":1109,"Heru":1110,"oc":1111,"Ġmor":1112,"ĠYÃ¡":1113,"Ġind":1114,"tali":1115,"ĠvÃ©re":1116,"Ġocomb":1117,"Ġnel":1118,"Ã¡v":1119,"Ġlelya":1120,"Ġvar":1121,"Ġpal":1122,"Ġanai":1123,"Ġananta":1124,"Ġqualme":1125,"ĠyÃ¡ve":1126,"gol":1127,"ume":1128,"yen":1129,"ĠÃ¡n":1130,"ĠnÃº":1131,"Ġqueti":1132,"Ġairimo":1133,"Han":1134,"gwe":1135,"iva":1136,"ĠQui":1137,"Ġvand":1138,"Ġnah":1139,"ĠAvrah":1140,"Ġcos":1141,"ĠMar":1142,"iÃ©no":1143,"nye":1144,"Ġlar":1145,"Ġlim":1146,"Ġaire":1147,"illon":1148,"Ġfaila":1149,"Ġnanwen":1150,"allon":1151,"Ġsana":1152,"inqua":1153,"Ġem":1154,"Ġmenello":1155,"Ġquettar":1156,"YÃ©":1157,"cÃ©n":1158,"Ġmet":1159,"Ġarc":1160,"Ġlam":1161,"Ġeuva":1162,"usse":1163,"Ġlyenna":1164,"ĠvÃ©la":1165,"Ġyondo":1166,"Ġyomen":1167,"ane":1168,"Ã¡ra":1169,"Ġmando":1170,"Ã©li":1171,"Ã¡rala":1172,"Ġcoire":1173,"Ġmaure":1174,"ĠYÃ¡co":1175,"enya":1176,"Ġtya":1177,"Ġtum":1178,"Ġaselte":1179,"ĠHeruo":1180,"ĠNÃ¡":1181,"senna":1182,"Ġlamb":1183,"Ġaqua":1184,"Ġaxan":1185,"Ġquentelte":1186,"Ġcoa":1187,"Ġtyer":1188,"Manen":1189,"ĠnÃ¡la":1190,"Ġnas":1191,"Ã³r":1192,"Ġinw":1193,"Ġyeo":1194,"ĠnÃ³vo":1195,"eryasse":1196,"Ġrimbali":1197,"Ġatani":1198,"ĠutÃºlie":1199,"Ġperper":1200,"Hanquen":1201,"sar":1202,"Ġny":1203,"ĠyÃ¡m":1204,"ette":1205,"umnes":1206,"Ġessen":1207,"Ġcastanen":1208,"NÃ¡sie":1209,"cer":1210,"ies":1211,"tuvan":1212,"ara":1213,"Ġnalte":1214,"Ġti":1215,"Ġcu":1216,"Ġyal":1217,"rea":1218,"Ġmaquen":1219,"ĠrÃ¡":1220,"Ġcenne":1221,"Ġvalda":1222,"Ġeques":1223,"Ġlaume":1224,"Ġmahal":1225,"Ġyomenco":1226,"Ġinwis":1227,"Man":1228,"fa":1229,"mol":1230,"mello":1231,"tuvar":1232,"yes":1233,"quet":1234,"Ã³me":1235,"Ġsav":1236,"ĠnÃ³re":1237,"Ġistal":1238,"Ġelme":1239,"ĠhÃ©ra":1240,"Ġfailie":1241,"Ġtenn":1242,"Ono":1243,"danen":1244,"pes":1245,"yuva":1246,"yale":1247,"Ãī":1248,"Ġnur":1249,"Ġses":1250,"Ġcanta":1251,"Ġantaina":1252,"ĠEtta":1253,"Ġcaras":1254,"Ġoira":1255,"ĠrÃŃ":1256,"ÅŁa":1257,"ĠÃºp":1258,"Ġpait":1259,"Ġmenta":1260,"oio":1261,"ĠmÃ¡l":1262,"Ġenger":1263,"Ġlender":1264,"Ġcemende":1265,"ĠSÃŃmon":1266,"Ġtyas":1267,"Ġtennoio":1268,"!'":1269,"tiÃ©va":1270,"Ġom":1271,"Ġcom":1272,"Ġhyam":1273,"Ġcennes":1274,"Ġsendar":1275,"Ġserce":1276,"htar":1277,"io":1278,"les":1279,"elva":1280,"ĠcÃ©n":1281,"Ġamba":1282,"Ġuo":1283,"ĠEl":1284,"Ġquetir":1285,"Ġaselde":1286,"ĠtÃºla":1287,"Ġcene":1288,"uvalve":1289,"Ye":1290,"masse":1291,"ses":1292,"Ġnen":1293,"Ġhim":1294,"Ġat":1295,"Ġmap":1296,"Ġpanyane":1297,"Ġquetie":1298,"Ġess":1299,"Na":1300,"cor":1301,"Ġala":1302,"Ġnor":1303,"quÃ©":1304,"yaina":1305,"Ġher":1306,"ĠYÃ³":1307,"Ġcarir":1308,"Ġmat":1309,"Ġroi":1310,"ĠÅŁanye":1311,"ĠamyÃ¡r":1312,"ĠmÃ³li":1313,"Ġairimor":1314,"Ġmenelo":1315,"Quentes":1316,"iello":1317,"uo":1318,"war":1319,"anya":1320,"inta":1321,"innar":1322,"Ġloi":1323,"Ġhyane":1324,"ilÃ¡":1325,"menen":1326,"Ġsamin":1327,"ĠFa":1328,"Ġhroa":1329,"Ġnalye":1330,"Ġettenna":1331,"ĠFarisar":1332,"ĠLavir":1333,"Ġtaura":1334,"lÃ¡r":1335,"tul":1336,"wal":1337,"annar":1338,"Ġne":1339,"Ġcala":1340,"Ġeque":1341,"Ġparman":1342,"ĠYÃ©sun":1343,"ĠcÃ³l":1344,"Ġcoirea":1345,"Ġparmangol":1346,"El":1347,"Inye":1348,"cil":1349,"ĠcÃ©":1350,"Ġquel":1351,"tea":1352,"illo":1353,"Ġece":1354,"Ġmate":1355,"Ġmaur":1356,"Ġfor":1357,"ĠSie":1358,"Ġoscir":1359,"Ġvettie":1360,"ĠErutercÃ¡nor":1361,"ĠMÃ³ses":1362,"ro":1363,"Ġain":1364,"Ġais":1365,"Ġvin":1366,"ilie":1367,"Ġete":1368,"Ġasinye":1369,"Ġistalde":1370,"Ġaiqua":1371,"Ġapsen":1372,"Ġpeanta":1373,"ĠYÃºraron":1374,"Ġnanwie":1375,"ĠcÃ¡rine":1376,"ĠAino":1377,"ĠErullo":1378,"ĠYÃ¡cov":1379,"cine":1380,"antar":1381,"ena":1382,"Ġme":1383,"Ġarwe":1384,"Ġcim":1385,"Ġquanta":1386,"ĠÃºfa":1387,"tele":1388,"ĠFe":1389,"Ġairi":1390,"ĠnÃ³ri":1391,"ĠnÃºror":1392,"ĠAlile":1393,"cien":1394,"des":1395,"ely":1396,"Ġcai":1397,"ĠhÃ¡":1398,"tiÃ©no":1399,"Ġyai":1400,"ula":1401,"Ġleng":1402,"Ġsinasse":1403,"ĠÃ³ma":1404,"Ġsamilde":1405,"ĠIl":1406,"ĠhÃ¡non":1407,"Ġexi":1408,"Ġminyave":1409,"Ġquetis":1410,"Hanquentasse":1411,"avi":1412,"nelme":1413,"Ġion":1414,"Ġnisse":1415,"alda":1416,"Ġaryon":1417,"Ã©re":1418,"Ġhra":1419,"ĠvÃ¡":1420,"Ġvinya":1421,"Ġantana":1422,"Ġcarner":1423,"Ġenor":1424,"ĠÃºve":1425,"Ġcennen":1426,"ĠPilÃ¡":1427,"Ġhantale":1428,"Ġnauvas":1429,"Ġlantane":1430,"Ġauri":1431,"Ġheh":1432,"Ġvanwa":1433,"Ġcasta":1434,"Ġocombe":1435,"Ġnoss":1436,"Ġoronte":1437,"Ġtelpe":1438,"ĠaÅŁea":1439,"Ġmassa":1440,"die":1441,"Ġtol":1442,"yanelte":1443,"yannar":1444,"Ġcard":1445,"Ġcarnes":1446,"ĠnÃ³na":1447,"ĠlÃ¡v":1448,"ĠHerol":1449,"Ġmele":1450,"ĠNa":1451,"Ġlempe":1452,"Ġnampe":1453,"Ġsumb":1454,"ambe":1455,"Ġtiu":1456,"Ġompa":1457,"len":1458,"alme":1459,"indor":1460,"eryanen":1461,"Ġcil":1462,"Ġquan":1463,"Ġantan":1464,"ĠnÃ³menna":1465,"Ananta":1466,"ĠlÃºmesse":1467,"Ġsinte":1468,"oica":1469,"Ġapanta":1470,"ĠhÃ¡no":1471,"Ġlava":1472,"ĠhÃŃna":1473,"Ġcole":1474,"Ġcemeno":1475,"ĠHÃ©ruo":1476,"Ġpustien":1477,"ĠahlÃ¡r":1478,"ot":1479,"ĠsÃ³":1480,"elve":1481,"eltes":1482,"ind":1483,"ĠcÃŃ":1484,"tat":1485,"vas":1486,"Ġrie":1487,"Ġmentane":1488,"Ġastar":1489,"ĠYerÃºsalemenna":1490,"ĠequÃ©":1491,"ĠMarÃŃa":1492,"Ġlimpe":1493,"Uan":1494,"Ġsisse":1495,"yain":1496,"onna":1497,"Ġist":1498,"Ġerinqua":1499,"ĠquÃ©tina":1500,"ĠhÃ¡nol":1501,"Ġauta":1502,"Ġauressen":1503,"Ġnuc":1504,"Ġondo":1505,"ĠhÃŃn":1506,"ĠhÃŃni":1507,"ĠacÃ¡m":1508,"ĠYÃ©suo":1509,"Ġcarampe":1510,"Ġillume":1511,"ĠquÃ¡tine":1512,"nelde":1513,"yenen":1514,"Ġto":1515,"eryo":1516,"Ġqua":1517,"Ġatte":1518,"Ġvanda":1519,"Ġenn":1520,"Ġhilyala":1521,"Ġelve":1522,"Ġexeli":1523,"Ġhep":1524,"ĠsaviÃ©nen":1525,"ha":1526,"Ġisse":1527,"elma":1528,"Ġhy":1529,"oni":1530,"Ġantanes":1531,"ĠHriston":1532,"Ġistya":1533,"Ġmard":1534,"Ġsino":1535,"ĠÃ³ne":1536,"Ġtanwa":1537,"Ġcamne":1538,"Ġsuila":1539,"ĠÃģva":1540,"tollo":1541,"Ġamill":1542,"Ġhuru":1543,"ĠYondo":1544,"cÃ¡r":1545,"ielde":1546,"wi":1547,"ĠÂ":1548,"Ġarya":1549,"Ġlanta":1550,"Ġvanta":1551,"Ġqueneli":1552,"Ġmall":1553,"Ġsamis":1554,"Ġhilya":1555,"ĠquÃ©ta":1556,"Ġtare":1557,"Ġloar":1558,"ĠÃļ":1559,"Ġlat":1560,"tuvas":1561,"Ġnostale":1562,"ĠmÃ©ti":1563,"ĠrÃºÅŁ":1564,"ĠAvraham":1565,"Ġhravan":1566,"NÃ©r":1567,"aul":1568,"col":1569,"ge":1570,"tir":1571,"Ġita":1572,"altar":1573,"ĠmÃ©n":1574,"indo":1575,"Ġlu":1576,"Ġhru":1577,"Ãºme":1578,"Ġanelde":1579,"Ġcara":1580,"ienya":1581,"tallo":1582,"Ġmanwa":1583,"ĠtÃºlelte":1584,"ĠmÃ¡re":1585,"Ġapan":1586,"Ġmerne":1587,"Ġtanca":1588,"Ġcanwa":1589,"ĠnÃ¡vel":1590,"Ġhirne":1591,"Ġualme":1592,"ĠAinol":1593,"ilip":1594,"ĠacÃ¡rie":1595,"ĠFaire":1596,"Ġattea":1597,".\"":1598,"Si":1599,"ri":1600,"alta":1601,"Ġmas":1602,"eri":1603,"Ġcime":1604,"ĠecÃ©n":1605,"Ġnahta":1606,"ulma":1607,"Ġinnar":1608,"Ġfe":1609,"ĠnÃ³nar":1610,"Ġtulca":1611,"Ġcoarya":1612,"Ġmardo":1613,"ĠHristosse":1614,"ĠSÃ¡":1615,"ĠyÃ¡l":1616,"Ġcorda":1617,"Ġnoir":1618,"Ġvoronda":1619,"Ġlunte":1620,"Ġrauco":1621,"ĠamyÃ¡rar":1622,"Lau":1623,"Ġcesta":1624,"Ġquil":1625,"Ġpitya":1626,"Ġohtar":1627,"imo":1628,"talve":1629,"Ġleh":1630,"Ġortane":1631,"Ġsamilve":1632,"Ġhanya":1633,"htaine":1634,"ĠErunna":1635,"Ġmilya":1636,"Ġettesse":1637,"Ġvoronw":1638,"Ġneldea":1639,"Ġpoica":1640,"Ġtarwes":1641,"ĠhÃºmi":1642,"ĠnyÃ©re":1643,"Ġennoli":1644,"Yando":1645,"eantar":1646,"alya":1647,"ĠmÃ¡m":1648,"ele":1649,"tave":1650,"Ġeh":1651,"Ġnait":1652,"ĠYe":1653,"ĠEn":1654,"Ġoc":1655,"Ġcennelte":1656,"quete":1657,"Ġlave":1658,"Ġtux":1659,"tonna":1660,"Ġquelli":1661,"Is":1662,"val":1663,"vana":1664,"ennar":1665,"Ġarmar":1666,"Ġsasse":1667,"ques":1668,"sef":1669,"Ġanna":1670,"ĠAra":1671,"Ġilvana":1672,"ule":1673,"ulda":1674,"ĠtÃºna":1675,"ĠnÃ³te":1676,"Ġtulya":1677,"Ġimne":1678,"ĠÅŁinta":1679,"Ġmartane":1680,"ĠHerusse":1681,"ĠSam":1682,"Ġhlai":1683,"ĠapÃ¡n":1684,"Ġexenna":1685,"Ġnatto":1686,"Ġvanima":1687,"Ġhroar":1688,"Ġcordasse":1689,"Ġaposteli":1690,"ĠIsraÃ©":1691,"ĠPilÃ¡to":1692,"Ġhrup":1693,"Hya":1694,"pi":1695,"ende":1696,"Ġname":1697,"tiello":1698,"Ġron":1699,"Ġelden":1700,"Ġtarne":1701,"Ġtalo":1702,"ieldan":1703,"ĠsÃ¡mes":1704,"ĠÅŁangar":1705,"ĠnÃ³rion":1706,"ĠmÃ¡rie":1707,"Ġruce":1708,"ĠVar":1709,"ĠYerÃºsalemesse":1710,"Quentelte":1711,"Ġmandosse":1712,"Ġsendaresse":1713,"ĠYÃ©sunna":1714,"Ġparmangolmor":1715,"Ġapantaina":1716,"La":1717,"nie":1718,"tesse":1719,"ven":1720,"Ãļ":1721,"ĠnÃ©n":1722,"Ġmoli":1723,"elye":1724,"Ġlesse":1725,"ĠlÃ³m":1726,"ĠnÃ¡sie":1727,"Ġpel":1728,"Ġpil":1729,"ĠEruva":1730,"ĠÃºne":1731,"aia":1732,"Ġmene":1733,"mentane":1734,"Ġtea":1735,"dorya":1736,"Ġquetien":1737,"Ġerde":1738,"Ġqualle":1739,"ĠLau":1740,"Ġatanion":1741,"Ġulca":1742,"ĠÃ±wal":1743,"ĠÃ³manen":1744,"Ġnalve":1745,"ĠHerulva":1746,"ĠYÃºre":1747,"ĠSÃ¡tan":1748,"Mi":1749,"MÃŃ":1750,"lien":1751,"pala":1752,"tenna":1753,"ĠU":1754,"Ġnillo":1755,"estar":1756,"nasse":1757,"tanna":1758,"Ġantor":1759,"Ã³ra":1760,"tiesse":1761,"ĠHel":1762,"Ġence":1763,"Ġendar":1764,"Ġtuluvar":1765,"Ã©rala":1766,"ĠMir":1767,"Ġtaras":1768,"ieltan":1769,"Ġnattor":1770,"ĠTeh":1771,"Ġverul":1772,"ĠsÃ¡ver":1773,"ĠsÃ¡mo":1774,"ĠÃ±ot":1775,"Ġataril":1776,"Ġhlasser":1777,"Ġsarno":1778,"Ġlasta":1779,"ĠÃ¡nie":1780,"ĠYÃ³sef":1781,"ĠhÃ¡tina":1782,"Ġnucum":1783,"ĠArau":1784,"Ġhrupuh":1785,"Ve":1786,"po":1787,"ĠQu":1788,"Ġtambe":1789,"qui":1790,"Ġlesta":1791,"Ġcarda":1792,"Ġmacil":1793,"Ġmalle":1794,"ĠtÃºlala":1795,"Ġimle":1796,"Ġqueta":1797,"ĠÃ³ra":1798,"Ġhildo":1799,"ĠFea":1800,"Ġarani":1801,"Ġatanin":1802,"ĠAtarinya":1803,"Ġverir":1804,"Ġcanne":1805,"Ġrun":1806,"Ġnissi":1807,"Ġtungwe":1808,"Ġelmendanen":1809,"ĠHerulvo":1810,"Ġillin":1811,"gar":1812,"htie":1813,"ia":1814,"pen":1815,"wali":1816,"Ġnir":1817,"eltar":1818,"Ġlello":1819,"eryan":1820,"ĠcÃ¡":1821,"Ġcana":1822,"Ġamb":1823,"Ġyanna":1824,"Ġetta":1825,"Ġanda":1826,"ties":1827,"Ġsap":1828,"Ġmatta":1829,"Ã¡rie":1830,"Ġalve":1831,"ĠMana":1832,"Ġistan":1833,"Ã¡mala":1834,"ĠHerun":1835,"umnelte":1836,"Ġhlasse":1837,"Ġsamuva":1838,"Ġmelda":1839,"Ġlantaner":1840,"Ġhlare":1841,"Ġmole":1842,"ĠaÅŁar":1843,"ĠYÃºra":1844,"Ġoante":1845,"ĠIsrael":1846,"ĠFeanen":1847,"ĠIsraÃ©lo":1848,"Neri":1849,"Peantar":1850,"ron":1851,"tumne":1852,"inque":1853,"Ġanen":1854,"Ġnatali":1855,"ollo":1856,"Ġsailie":1857,"Ġcaruvan":1858,"yaron":1859,"Ã¡nor":1860,"talme":1861,"ĠfÃ³":1862,"ĠnÃ³messe":1863,"Ġmanw":1864,"Ġmena":1865,"ĠÃŃr":1866,"Ġortaina":1867,"Ġortana":1868,"lier":1869,"ĠhlÃ¡r":1870,"Ġhlassen":1871,"ĠFilip":1872,"Ġaiquenen":1873,"Ġlendelte":1874,"Ġongw":1875,"uvalme":1876,"Ġocom":1877,"Ġtyare":1878,"Ġqualinallon":1879,"Ġfairenen":1880,"Ġraucor":1881,"ĠnÃºromol":1882,"ĠNÃ¡sie":1883,"Ġessenen":1884,"Ġsestie":1885,"quÃ©tala":1886,"ĠlÃ³misse":1887,"ĠArauco":1888,"LÃ¡":1889,"cel":1890,"pelte":1891,"tun":1892,"yalde":1893,"ĠmÃ¡n":1894,"Ġarca":1895,"Ġsir":1896,"Ġhire":1897,"Ġvalde":1898,"ĠpÃ¡":1899,"andor":1900,"Ġenyal":1901,"Ġveu":1902,"ama":1903,"urya":1904,"Ġora":1905,"Ġcenner":1906,"Ã¡mo":1907,"Ġnation":1908,"ĠSe":1909,"ĠÅŁany":1910,"Ġpolde":1911,"Ġlav":1912,"estasse":1913,"ĠYÃºras":1914,"Ġfaile":1915,"Ġcordon":1916,"Ġranya":1917,"Ġelmendasse":1918,"ĠErulisse":1919,"lelte":1920,"Ġtir":1921,"eldo":1922,"Ġlel":1923,"ĠvÃ©r":1924,"orro":1925,"Ġnauvalde":1926,"Ġinyen":1927,"Ġmalta":1928,"Ġente":1929,"Ġenque":1930,"talte":1931,"Ġcoasse":1932,"Ġettel":1933,"Ġistala":1934,"Ġquean":1935,"Ġlap":1936,"ĠsÃ¡mer":1937,"Ġcannes":1938,"Ġcastal":1939,"Ġtaiti":1940,"Ġparma":1941,"ĠMacer":1942,"ĠYerÃºsalem":1943,"Ġpusta":1944,"Ġpanyaina":1945,"Ġserc":1946,"Ġoantes":1947,"Ġhendul":1948,"Ġyaiw":1949,"ĠÃºvea":1950,"ĠcÃŃl":1951,"Nan":1952,"ces":1953,"marya":1954,"tye":1955,"vel":1956,"xer":1957,"ĠsÃº":1958,"Ġharya":1959,"ĠnÃ¡re":1960,"ÃŃre":1961,"Ġannar":1962,"Ġnauvan":1963,"ĠYÃ©":1964,"Ġcarin":1965,"ĠEruion":1966,"Ġinsen":1967,"ĠrÃ©":1968,"Ġfin":1969,"Ġmentanes":1970,"Ġquettal":1971,"ĠlÃ¡ve":1972,"ĠettÃº":1973,"Ġhyami":1974,"Ġnara":1975,"Ġmare":1976,"ĠmÃ¡le":1977,"ĠIn":1978,"Ġolce":1979,"ĠsÃŃve":1980,"Ġmauyane":1981,"Ġnampes":1982,"ĠhÃ¡norya":1983,"Ġcoll":1984,"Ġlaita":1985,"Ġnalme":1986,"Ġilquenen":1987,"Ġrehtie":1988,"Ġyestane":1989,"ĠhrÃ¡veo":1990,"Al":1991,"Mena":1992,"Pan":1993,"Tula":1994,"cin":1995,"dallo":1996,"lala":1997,"manen":1998,"randor":1999,"tuvalte":2000,"Ġih":2001,"alve":2002,"Ġtie":2003,"inna":2004,"Ġlor":2005,"Ġlien":2006,"ere":2007,"Ġhos":2008,"Ġvis":2009,"ĠnÃ¡r":2010,"onya":2011,"ĠEule":2012,"Ġquenten":2013,"ĠAnar":2014,"Ġcaruva":2015,"Ġmavar":2016,"ienwe":2017,"Ġlehta":2018,"Ġcoar":2019,"Ġquettanen":2020,"Ã©rie":2021,"ĠMan":2022,"Ġistar":2023,"ĠÃįre":2024,"ielme":2025,"Ġamar":2026,"Ġamor":2027,"Ġlah":2028,"ĠlyÃ©":2029,"Ġlyello":2030,"ĠnÃŃr":2031,"Ġhepe":2032,"Ġveri":2033,"ĠCa":2034,"ĠCo":2035,"Ġulce":2036,"Ġcanwar":2037,"ĠhÃŃr":2038,"Ġsuce":2039,"Ġendesse":2040,"Ġimmotun":2041,"Ġuryala":2042,"Ġyestallo":2043,"Ġliy":2044,"Ġhlasselte":2045,"ĠReh":2046,"Ġetelend":2047,"Ġvalime":2048,"Ġmorni":2049,"Ġquante":2050,"Ġmallesse":2051,"ĠVarna":2052,"ĠMirrandor":2053,"Eque":2054,"Horro":2055,"Pa":2056,"celte":2057,"nÃ³":2058,"pie":2059,"pÃ¡n":2060,"tu":2061,"ĠsÃ©nen":2062,"eryar":2063,"Ġhyar":2064,"Ġheru":2065,"Ġui":2066,"Ġantuva":2067,"asar":2068,"Ġcarnelte":2069,"Ġmatien":2070,"imie":2071,"Ġfenna":2072,"ĠnÃ³tina":2073,"Ġtuluvan":2074,"mat":2075,"ĠnÃ¡net":2076,"Ġcenien":2077,"ĠÃ¡sa":2078,"auya":2079,"Ġtalle":2080,"Ġmerilde":2081,"ĠÃī":2082,"ielta":2083,"ĠlÃ©ra":2084,"Ġairin":2085,"Ġcamnes":2086,"ĠÃºcari":2087,"ĠÃºcarindor":2088,"Ġulc":2089,"Ġturu":2090,"Ġrehta":2091,"ĠVet":2092,"ĠcÃ¡rala":2093,"Ġorontes":2094,"Ġfaireo":2095,"ĠÅŀany":2096,"pane":2097,"ĠtÃºrenen":2098,"ĠrÃºÅŁe":2099,"ĠhrÃ¡vesse":2100,"Ġmornie":2101,"Ġanaier":2102,"Elye":2103,"Ġsumbane":2104,"Ġmardesse":2105,"ĠmÃ©tima":2106,"mir":2107,"aryar":2108,"Ġnon":2109,"Ġnet":2110,"ĠtÃ¡r":2111,"eldar":2112,"yaine":2113,"Ġhol":2114,"Ġus":2115,"Ġuru":2116,"Ġsavir":2117,"Ġcarpa":2118,"ĠÅŁinye":2119,"Ġmarir":2120,"aure":2121,"Ġsinan":2122,"Ġhildon":2123,"Ġtarner":2124,"Ġole":2125,"Ġolca":2126,"ĠNai":2127,"Ġtuxan":2128,"ĠyÃ©ta":2129,"Ġsanw":2130,"Ġnosse":2131,"Ġcirya":2132,"Ġlerta":2133,"Ã¡vel":2134,"Ġemma":2135,"Ġmaquente":2136,"ĠÃºpoi":2137,"Ġhimya":2138,"Ġaryoni":2139,"ĠnÃ³nare":2140,"Ġtuxa":2141,"Lava":2142,"ĠMaceroni":2143,"ĠIngar":2144,"ĠVarnavas":2145,"Atar":2146,"cal":2147,"dol":2148,"yuvar":2149,"ĠčĊ":2150,"Ã¡re":2151,"Ġtin":2152,"Ġtello":2153,"Ġtelya":2154,"Ġsal":2155,"ellon":2156,"Ġlis":2157,"Ãºra":2158,"Ġyenna":2159,"Ġyana":2160,"Ġves":2161,"Ġverya":2162,"Ġeuvar":2163,"Ġantien":2164,"olo":2165,"Ġqueno":2166,"Ġquenen":2167,"Ġinsenna":2168,"Ġteh":2169,"ĠlÃºm":2170,"Ġsinwe":2171,"Ġsamuvalde":2172,"Ġtalu":2173,"Ġmerin":2174,"ĠyÃºyo":2175,"Ġalcarinqua":2176,"Ġyondon":2177,"ĠtÃ¡ra":2178,"Ġsuil":2179,"Ġhildoryannar":2180,"Ġtaite":2181,"Ġqualinillon":2182,"Ġostosse":2183,"Ġmolie":2184,"Ġniss":2185,"Ġcarampes":2186,"issenen":2187,"Ġhendu":2188,"Ġhuor":2189,"ĠnÃºtina":2190,"Ġmetta":2191,"ĠsÃ³ma":2192,"ĠÂº":2193,"ĠEnte":2194,"Ġcanaquean":2195,"ĠfÃ³le":2196,"Ġoravie":2197,"Ġtuxantur":2198,"Ai":2199,"Eru":2200,"SÃ©":2201,"sÃ©n":2202,"tyan":2203,"vien":2204,"yuvan":2205,"aner":2206,"Ġlus":2207,"ĠcÃ¡m":2208,"Ġhel":2209,"âĢĵ":2210,"Ġyesse":2211,"Ġantala":2212,"ĠApa":2213,"Ġcarie":2214,"Ġyassen":2215,"ĠErusse":2216,"etta":2217,"etello":2218,"Ġenv":2219,"Ġfas":2220,"Ġcoir":2221,"Ġquetuva":2222,"Ġaselye":2223,"ĠHristova":2224,"umner":2225,"Ġhande":2226,"Ġerinque":2227,"Ġquale":2228,"Ġtalyat":2229,"ĠapsÃ©n":2230,"Ġrimba":2231,"ĠsÃ¡ve":2232,"Ġnyarne":2233,"ĠmÃ¡rien":2234,"Ġpeantar":2235,"Ġhanquentasse":2236,"Ġtyarien":2237,"Ġcalma":2238,"ĠnÃ©ÅŁ":2239,"Ġnancarne":2240,"ĠacÃ¡ries":2241,"ĠquÃ¡tina":2242,"neltes":2243,"Ġtaure":2244,"ĠnÃ³rec":2245,"Ġainoc":2246,"imoÅŁe":2247,"ĠliyÃºme":2248,"Cima":2249,"Epe":2250,"Hl":2251,"Nyar":2252,"cala":2253,"doli":2254,"hl":2255,"han":2256,"ih":2257,"par":2258,"por":2259,"Ã¡rea":2260,"ĠmÃ©rala":2261,"eltasse":2262,"inar":2263,"Ġluh":2264,"Ġcel":2265,"Ġyallo":2266,"Ġnauvalte":2267,"yet":2268,"vet":2269,"Ġquenin":2270,"Ġmatso":2271,"Ġro":2272,"Ġrin":2273,"Ġroh":2274,"Ġroc":2275,"Ġrely":2276,"ienwa":2277,"Ġmit":2278,"Ġlenga":2279,"ĠtÃ©cine":2280,"Ġalda":2281,"ĠManen":2282,"ĠÅŁun":2283,"Ġtec":2284,"Ġsinanna":2285,"ĠhlÃŃ":2286,"Ġsamil":2287,"Ġhilyaner":2288,"Ġerd":2289,"alime":2290,"Ġrain":2291,"Ġninya":2292,"Ġqualina":2293,"Ġepeta":2294,"ĠsÃŃra":2295,"Ġautuva":2296,"Ġlyesse":2297,"Ġillion":2298,"Ġhosse":2299,"ĠAnti":2300,"ĠsÃ¡melte":2301,"ĠÅŁangie":2302,"Ġearesse":2303,"ĠÃ±e":2304,"ĠmÃ¡ryat":2305,"Ġpeantanes":2306,"Ġualve":2307,"NÃ¡se":2308,"Ġmapaina":2309,"Ġyestanes":2310,"Ilye":2311,"ĠindÃ³me":2312,"ĠAvrahÃ¡mo":2313,"Ġlarmar":2314,"Ġsendare":2315,"ĠAlileallo":2316,"ĠhÃ¡nonyar":2317,"ĠlÃ¡vina":2318,"ĠhyÃ³":2319,"Ġamillerya":2320,"ĠTehtele":2321,"Ġcoirie":2322,"Ġrimbave":2323,"Eques":2324,"Paulo":2325,"Yoh":2326,"cim":2327,"fes":2328,"gwa":2329,"htane":2330,"uhta":2331,"yuvas":2332,"įsa":2333,"antur":2334,"ĠnyÃ¡r":2335,"aldar":2336,"ĠtÃ³":2337,"Ġso":2338,"quenna":2339,"elÃ³r":2340,"Ġles":2341,"ess":2342,"Ġyulma":2343,"ĠnÃ¡t":2344,"Ġanelme":2345,"Ġnacan":2346,"yanta":2347,"Ã©nala":2348,"ĠrÃ©r":2349,"Ġpanyan":2350,"Ġmanter":2351,"Ġalassen":2352,"ĠMel":2353,"Ġmartuva":2354,"ĠÃ¡se":2355,"aura":2356,"Ġolya":2357,"ĠolÃ³":2358,"ĠÃįsa":2359,"ielda":2360,"Ġtanne":2361,"Ġlanco":2362,"Ġamp":2363,"ĠyÃ¡ra":2364,"Ġatano":2365,"ĠAran":2366,"ĠNasar":2367,"ĠnÃŃÅŁ":2368,"Ġlemyala":2369,"ĠTimoÅŁe":2370,"Ġcem":2371,"ĠhÃŃnar":2372,"Ġsaviel":2373,"ĠnÃ¡vello":2374,"Ġnyare":2375,"Ġpeantala":2376,"ieryan":2377,"Ġeryave":2378,"Ġqualinar":2379,"Ġhaim":2380,"Ġcestala":2381,"Ġmassar":2382,"Ġperp":2383,"ĠFarisaron":2384,"Ġsarn":2385,"Ilya":2386,"ĠhrÃ¡venen":2387,"ĠÃºpoica":2388,"Ġpaityal":2389,"Ġpaityale":2390,"ĠLaviro":2391,"Ġetequen":2392,"Ġcaita":2393,"ĠcÃ¡ma":2394,"ĠnÃºromolie":2395,"Ġettelea":2396,"YohÃ¡no":2397,"Men":2398,"Mauya":2399,"Sina":2400,"cÃŃ":2401,"cuva":2402,"itas":2403,"las":2404,"mali":2405,"pal":2406,"pien":2407,"tÃŃr":2408,"uru":2409,"vesse":2410,"xeli":2411,"Ġalde":2412,"ĠQuentelte":2413,"Ã¡ve":2414,"Ã¡vi":2415,"quÃ¡":2416,"Ã©v":2417,"ĠlÃ³me":2418,"esto":2419,"Ġail":2420,"Ãºcen":2421,"nas":2422,"Ġvel":2423,"ĠnÃ¡mo":2424,"ilo":2425,"Ġanwa":2426,"Ġantaner":2427,"Ġantanelte":2428,"ĠnapÃ¡n":2429,"tierya":2430,"ĠEfes":2431,"Ġsail":2432,"Ġot":2433,"ĠHe":2434,"Ġfan":2435,"Ġtula":2436,"Ġtulir":2437,"Ġtulce":2438,"Ġmanya":2439,"Ġquettan":2440,"Ġorme":2441,"ĠtÃºlen":2442,"ĠÅŁÃº":2443,"ĠPa":2444,"ĠÃ³ni":2445,"Ġmeril":2446,"Ġexen":2447,"Ġcamuva":2448,"Ġhoe":2449,"Ġcemenna":2450,"Ġmuntan":2451,"ĠtyÃ¡rala":2452,"Ġender":2453,"Ġhroarya":2454,"Ġminye":2455,"Ġvalima":2456,"ĠcÃ³le":2457,"Ġendalda":2458,"ĠlintiÃ©nen":2459,"Ġetelende":2460,"ĠnÃ¡mina":2461,"ĠcoiviÃ©va":2462,"Ġarcane":2463,"ĠindÃ³m":2464,"Ġperpere":2465,"Ġmahalma":2466,"Ġistalme":2467,"Ġistalve":2468,"ĠElÃŃa":2469,"ĠecÃ©nie":2470,"Ġquilda":2471,"ĠmÃ¡mar":2472,"Ġhlaiwa":2473,"ĠHellen":2474,"Ġyaiwenen":2475,"ĠAntioc":2476,"ĠTimoÅŁeo":2477,"Ata":2478,"Sam":2479,"Savi":2480,"TÃº":2481,"Valime":2482,"fir":2483,"go":2484,"ienna":2485,"ierya":2486,"nin":2487,"rÃ©":2488,"Ãĵ":2489,"Ġmeh":2490,"ĠsÃºr":2491,"elyan":2492,"Ã©l":2493,"Ġlely":2494,"Ġhand":2495,"Ġhun":2496,"Ġyuh":2497,"ÃŃva":2498,"ÃŃas":2499,"Ġann":2500,"Ã³re":2501,"time":2502,"ĠYes":2503,"Ġenyale":2504,"ĠÃºl":2505,"Ã¡nie":2506,"Ġpaim":2507,"carne":2508,"Ġpanyana":2509,"Ġquetilde":2510,"mbi":2511,"Ġmartaner":2512,"Ġquetier":2513,"ĠPan":2514,"Ġhilyane":2515,"ĠhrÃºcen":2516,"ĠÅŁanca":2517,"Ġostollo":2518,"Ġmerir":2519,"Ġtance":2520,"inyave":2521,"ĠaraniÃ©no":2522,"Ġhehta":2523,"Ġantauva":2524,"ĠAnanta":2525,"Ġnamper":2526,"ĠÃ±et":2527,"ĠsaviÃ©no":2528,"Ġfaireva":2529,"Ġyanasse":2530,"Ġmillo":2531,"manya":2532,"ĠÅŀanyenen":2533,"Ġpustane":2534,"Ġfairesse":2535,"Ġrantar":2536,"Ġlianta":2537,"Ġnancarna":2538,"Ġnessa":2539,"Ġamiller":2540,"Ġlingw":2541,"Ġeteleh":2542,"Ġnelli":2543,"Ġanaies":2544,"Ġarcand":2545,"ĠyÃ¡mala":2546,"Ġoscirie":2547,"ĠÃºfaila":2548,"Ġyaiwe":2549,"ĠHristonen":2550,"ĠÃļy":2551,"Ġnostaleo":2552,"Ġverirya":2553,"Ġvestale":2554,"Epeta":2555,"ĠnÃŃÅŁima":2556,"Ġailin":2557,"?'":2558,"Ela":2559,"Ta":2560,"htal":2561,"htaina":2562,"ip":2563,"ive":2564,"mas":2565,"moli":2566,"tin":2567,"ĠtÃ¡rala":2568,"Ġsanna":2569,"Ã©ne":2570,"Ã©la":2571,"Ġlal":2572,"Ġpit":2573,"Ġant":2574,"ĠantÃº":2575,"tienna":2576,"ĠYando":2577,"âĢĿ,":2578,"Ġcaril":2579,"Ġcarnen":2580,"Ġcarilde":2581,"Ġint":2582,"Ġenta":2583,"Ġpaitya":2584,"ĠnÃ³m":2585,"Ġleu":2586,"Ġtulis":2587,"Ġpanien":2588,"Ġmancan":2589,"Ġmentan":2590,"Ġaselme":2591,"Ġalass":2592,"ĠPaul":2593,"Ġmelir":2594,"Ġmeleh":2595,"Ġtaller":2596,"Ġpolda":2597,"Ġcamien":2598,"ĠsÃ¡v":2599,"Ġono":2600,"Ġvanwe":2601,"Ġcain":2602,"ĠÃ±uru":2603,"Ġpene":2604,"Ġsaviesse":2605,"ĠsaviÃ©va":2606,"Ġnyarner":2607,"Ġacca":2608,"Ġpeantie":2609,"Ġvetta":2610,"Ġnostar":2611,"Ġnostal":2612,"Ġtyarne":2613,"Ġlendette":2614,"Ġmenelenna":2615,"Ġyanca":2616,"Ġmilye":2617,"Ġceste":2618,"Ġhlasses":2619,"ĠHerullo":2620,"ĠTÃ¡ra":2621,"Ġhamne":2622,"ĠOron":2623,"ĠnÃ¡mie":2624,"Ġcoivienna":2625,"Ġarcanelte":2626,"Ġmeneldea":2627,"Ã¡ven":2628,"Ġqualmeo":2629,"Ġvandar":2630,"Ġlama":2631,"ĠyÃ¡mes":2632,"Ġcuil":2633,"Ġyomencoa":2634,"ĠrÃŃe":2635,"Ġtyastien":2636,"Ġesserya":2637,"Ġetemen":2638,"ĠLaume":2639,"ĠrelyÃ¡v":2640,"LÃºme":2641,"TÃ©":2642,"danna":2643,"min":2644,"ppa":2645,"toli":2646,"ĠQuentes":2647,"Ġimbi":2648,"Ġnesta":2649,"ĠlÃ©nen":2650,"eryanna":2651,"yainen":2652,"ĠcÃ¡n":2653,"Ġcima":2654,"Ġcaure":2655,"Ġhur":2656,"ĠhÃ¡ra":2657,"seo":2658,"naum":2659,"Ġvenna":2660,"iri":2661,"ill":2662,"ÃŃs":2663,"ÃŃve":2664,"Ġum":2665,"Ġando":2666,"Ġanelve":2667,"Ġnaire":2668,"ĠYo":2669,"Ġsama":2670,"Ġmail":2671,"imar":2672,"ĠÃºvie":2673,"amas":2674,"aiva":2675,"Ġpanyaner":2676,"Ġpantave":2677,"Ġmane":2678,"Ġmentaner":2679,"ttat":2680,"ĠSaul":2681,"Ġsamilme":2682,"Ġhantelte":2683,"tienwa":2684,"Ġrax":2685,"Ġrato":2686,"Ġrace":2687,"ĠInye":2688,"Ġmelm":2689,"Ġtalul":2690,"Ġosc":2691,"Ġostonna":2692,"imbar":2693,"Ġlantanes":2694,"Ġairion":2695,"Ġcamner":2696,"Ġenges":2697,"ĠyÃ¡me":2698,"ĠLÃ¡":2699,"Ġcoive":2700,"Ġveryan":2701,"ĠCor":2702,"Ġnamie":2703,"ĠsÃ¡tina":2704,"Ġcaim":2705,"ĠnÃ³renna":2706,"ĠhÃ¡noryar":2707,"Ġtyel":2708,"ĠtyÃ©":2709,"Ġsavielda":2710,"Ġpeantane":2711,"Ġlaitale":2712,"ĠYerÃºsalemello":2713,"vane":2714,"Ġvende":2715,"Ġnissenna":2716,"ĠnÃ©v":2717,"Ġhortan":2718,"Ġhenyat":2719,"ĠErutercÃ¡noron":2720,"Ġcardaryar":2721,"Ġvandarya":2722,"Ġlamma":2723,"quetie":2724,"ĠcÃ©nala":2725,"ĠElÃŃ":2726,"Ġnennen":2727,"Ġmapien":2728,"ĠequÃ©tie":2729,"ĠnÃ¡veldan":2730,"Ġantorya":2731,"Ġandave":2732,"Ġharyaina":2733,"Ġnaraca":2734,"ĠhÃŃrina":2735,"Ġmorniesse":2736,"Ġsalque":2737,"Ġyondonya":2738,"Ġrohta":2739,"Ġhossetur":2740,"SaviÃ©nen":2741,"ĠantÃºra":2742,"\",":2743,"Ya":2744,"cu":2745,"cam":2746,"coron":2747,"fas":2748,"lenya":2749,"mes":2750,"mala":2751,"mma":2752,"tyar":2753,"tuval":2754,"yer":2755,"yali":2756,"Â»":2757,"are":2758,"anye":2759,"Ġnulda":2760,"alyar":2761,"alÃŃnen":2762,"Ġtesse":2763,"elyanen":2764,"inyar":2765,"ĠlÃ³":2766,"ĠhÃ³":2767,"Ġhas":2768,"Ġquilde":2769,"ĠaquÃ¡":2770,"Ãºna":2771,"tette":2772,"Ġpello":2773,"oro":2774,"Ġanto":2775,"Ġnaitya":2776,"ĠYor":2777,"Ġquenion":2778,"ĠAp":2779,"ĠAsi":2780,"Ġohta":2781,"ĠÃºa":2782,"ĠÃºh":2783,"ĠÃºnes":2784,"Ġpaime":2785,"Ġfal":2786,"Ġpanyanes":2787,"ĠtÃ©ra":2788,"Ġoravi":2789,"Ġasto":2790,"ĠtÃºlienwa":2791,"Ġmirwa":2792,"Ġimye":2793,"ĠMen":2794,"Ġcenuva":2795,"ciÃ©nen":2796,"Ġmarta":2797,"Ġmarner":2798,"Ġelven":2799,"Ġqualmenna":2800,"Ġapacen":2801,"Ġtalen":2802,"Ġloa":2803,"Ġpolir":2804,"Ġolle":2805,"Ġmernes":2806,"Ġterc":2807,"Ġamma":2808,"Ġlatya":2809,"yondorya":2810,"Ġcamnelde":2811,"ĠyÃ¡v":2812,"ĠLamas":2813,"Ġhepa":2814,"Ġantauvan":2815,"ĠAtarin":2816,"Ġnero":2817,"Ġneren":2818,"ĠÃ±en":2819,"ĠnÃ¡veryan":2820,"Ġcolla":2821,"SÃŃmon":2822,"ĠcÃ¡rina":2823,"pernaum":2824,"Ġmaita":2825,"tieldan":2826,"Ġfairi":2827,"tieryan":2828,"Ġhaira":2829,"Ġvoronde":2830,"Ġrehtana":2831,"Ġcestaner":2832,"ĠutÃºli":2833,"Ġcirih":2834,"Ġnancarie":2835,"ĠÃºcareo":2836,"Ġcaramper":2837,"Ġendaltasse":2838,"Ġturco":2839,"ĠYÃºrea":2840,"ĠnÃ¡mine":2841,"ĠYondorya":2842,"Ġvarnasse":2843,"Ġnanwenne":2844,"cÃ©nima":2845,"tuvanyes":2846,"Ġnurru":2847,"Ġcomya":2848,"ĠacÃ¡mie":2849,"Ġcanwacim":2850,"ĠyÃ¡line":2851,"Ġohtari":2852,"Ġnaityana":2853,"ĠapÃ¡nie":2854,"Ġcardainen":2855,"ĠÃ³rava":2856,"Ġlelyala":2857,"Ġmaltava":2858,"ĠihÃŃr":2859,"Ġamartie":2860,"ĠCapernaum":2861,"ĠIngaran":2862,"Ġlusta":2863,"ĠnÃ³recÃ¡no":2864,"Ġainocim":2865,"ĠÃįsac":2866,"ĠNasaretello":2867,"ĠÃºlÃ©v":2868,"Au":2869,"He":2870,"Masse":2871,"casse":2872,"dali":2873,"ielte":2874,"lume":2875,"mallo":2876,"manna":2877,"pp":2878,"ss":2879,"san":2880,"tuvalde":2881,"valte":2882,"Âº":2883,"Ġ?":2884,"anes":2885,"alye":2886,"Ġsallo":2887,"quer":2888,"Ã©o":2889,"ĠlÃ©rie":2890,"erin":2891,"ĠhÃ¡mala":2892,"Ġyello":2893,"Ġyuhta":2894,"Ġvend":2895,"Ġpulma":2896,"ilea":2897,"ÃŃto":2898,"tanel":2899,"Ġand":2900,"Ġnauval":2901,"tima":2902,"tielme":2903,"tiÃ©li":2904,"yexe":2905,"Ġsaili":2906,"yando":2907,"Ġof":2908,"Ġyaimie":2909,"Ġilvane":2910,"Ġins":2911,"Ġres":2912,"Ġentul":2913,"ĠÃºner":2914,"quenen":2915,"ĠYÃ©susse":2916,"Ġtulumne":2917,"aio":2918,"Ġpanyanelte":2919,"Ġmenie":2920,"uryat":2921,"ĠlÃ¡rea":2922,"Ġetsenna":2923,"Ġimme":2924,"ĠMi":2925,"Ġissen":2926,"ĠÃ¡ya":2927,"ĠSÃŃr":2928,"ĠhlÃ³":2929,"Quet":2930,"viÃ©va":2931,"Ġrah":2932,"Ġravand":2933,"Ġaiwi":2934,"Ġlomba":2935,"Ġpolis":2936,"Ġpolilde":2937,"Ġtermar":2938,"ĠsÃ©re":2939,"ĠTÃº":2940,"Ġveru":2941,"Ġverurya":2942,"ĠAnd":2943,"ĠCara":2944,"Ġnampelte":2945,"ĠsÃ¡ra":2946,"ĠsÃ¡melde":2947,"elyasse":2948,"Ġhildoron":2949,"Eng":2950,"ĠtyÃ¡r":2951,"Ġremb":2952,"ĠmÃ¡rya":2953,"Ġcemenye":2954,"Ġruhtaine":2955,"Ġairimon":2956,"Ġlaitie":2957,"ĠPÃ©terenna":2958,"Ġquettainen":2959,"Ġhlarie":2960,"Ġyangwa":2961,"Ġqualini":2962,"ĠYohan":2963,"Ġmolir":2964,"Ġurda":2965,"Ġurdie":2966,"ĠmÃ©le":2967,"Ġyente":2968,"ĠAlilea":2969,"ĠhÃºme":2970,"ĠOno":2971,"Ġnanwave":2972,"ĠcoiviÃ©no":2973,"ĠMÃ³seo":2974,"Ġcendele":2975,"ĠÃ¡ni":2976,"Ġvandanen":2977,"ĠYÃ¡covo":2978,"ĠyÃ¡melte":2979,"Ġapsene":2980,"Ġnossello":2981,"Ġnosserya":2982,"cÃ¡rima":2983,"Ġtulcave":2984,"ĠyÃ¡lina":2985,"Ġrongo":2986,"Ġpella":2987,"ĠÃ±ottol":2988,"Ġnucumna":2989,"Ġocomner":2990,"Ġcastalda":2991,"Ġfindel":2992,"ĠettÃºle":2993,"ĠÅŀanyesse":2994,"Ġurus":2995,"ĠÃºpoice":2996,"Ġtehtele":2997,"Ġhuore":2998,"tyandor":2999,"Ġrainesse":3000,"Ġampitya":3001,"Ġraxesse":3002,"ĠLamasc":3003,"Ġravandasse":3004,"Lan":3005,"LÃ©":3006,"Lend":3007,"Uas":3008,"YÃº":3009,"cali":3010,"celi":3011,"ex":3012,"hil":3013,"iu":3014,"iÃ©li":3015,"oa":3016,"telde":3017,"tenen":3018,"tumnes":3019,"vÃ©":3020,"yuvalde":3021,"ĠQuen":3022,"anga":3023,"Ġimba":3024,"ĠicÃŃ":3025,"Ġmul":3026,"Ġtye":3027,"elissen":3028,"Ġhes":3029,"Ġhai":3030,"ĠhÃ©r":3031,"ĠhÃºr":3032,"tean":3033,"Ġyalde":3034,"Ġyelta":3035,"Ġyestasse":3036,"Ġvesse":3037,"ÃŃra":3038,"tando":3039,"Ġef":3040,"Ġecie":3041,"Ġandor":3042,"Ġantol":3043,"Ġanette":3044,"Ġnax":3045,"asta":3046,"ĠâĢĿ":3047,"olya":3048,"ĠEr":3049,"Ġiltan":3050,"essea":3051,"ĠHya":3052,"Ġmainen":3053,"Ġranda":3054,"tarya":3055,"ÅŁar":3056,"ĠÃºÅŁ":3057,"ĠÃºÅŁa":3058,"talta":3059,"tallon":3060,"ĠfÃ¡r":3061,"ĠfÃ¡rea":3062,"ĠlenÃ¡r":3063,"carien":3064,"unen":3065,"Ġtulin":3066,"Ġtulyane":3067,"Ġquetuvan":3068,"ĠortÃŃr":3069,"ĠasÃ¡m":3070,"ĠlÃ¡m":3071,"Ġcena":3072,"cier":3073,"ciesse":3074,"ĠlÃºr":3075,"Ġsinallo":3076,"Ġhanyane":3077,"Ġesta":3078,"Ġeressea":3079,"ĠquÃ©tan":3080,"ĠÅŁanyen":3081,"Ġaiquenna":3082,"teler":3083,"Ġmelmesse":3084,"Ġostor":3085,"Ġpolin":3086,"Ġolvar":3087,"Ġaucir":3088,"Ġalcaro":3089,"Ġcoiti":3090,"Ġatanen":3091,"Ġungw":3092,"ĠCÃ©":3093,"ĠCÃ©s":3094,"Ġnamuva":3095,"Ġontane":3096,"Ġsuc":3097,"Ġsucien":3098,"Ġcaur":3099,"Ġnanwiesse":3100,"Ġture":3101,"Ġnerin":3102,"Ġtyen":3103,"Ġatarya":3104,"ĠVe":3105,"Ġhirnes":3106,"yallon":3107,"Ġalasseo":3108,"tieltan":3109,"Ġnancarien":3110,"ĠFarisa":3111,"ĠcÃ³lo":3112,"ĠSÃŃlas":3113,"ĠacÃ¡rien":3114,"Ilquen":3115,"Ġraineva":3116,"ĠOl":3117,"Ġquera":3118,"ĠÅŀanyeo":3119,"ĠindÃ³":3120,"Ġanaielde":3121,"ĠÃ¡nies":3122,"ĠnÃºra":3123,"Ġlimp":3124,"Ġtumna":3125,"Ġaxani":3126,"ĠnyÃ©r":3127,"Ġessenyanen":3128,"Ġnurtane":3129,"Ġcarasta":3130,"ĠmÃ¡ltat":3131,"Ġnenwa":3132,"Nati":3133,"Ġherurya":3134,"Ġloita":3135,"ĠcÃ©ne":3136,"Ġoscirna":3137,"Ġaistane":3138,"Ġvintane":3139,"ĠÃºfailie":3140,"ĠAlileo":3141,"ĠcÃŃmala":3142,"Ġistyanen":3143,"ĠÂ«":3144,"ĠrÃºÅŁie":3145,"Ġhravano":3146,"ĠHellenya":3147,"Ġendarya":3148,"Ġtarastaina":3149,"Ġenquea":3150,"Ġsercenen":3151,"Ġlorne":3152,"Aiquen":3153,"ĠÅŁundo":3154,"ĠhyÃ³l":3155,"ĠrÃ©rina":3156,"ĠÃļyÃºr":3157,"Cena":3158,"Er":3159,"NÃŃs":3160,"Ualme":3161,"Val":3162,"cas":3163,"cis":3164,"equean":3165,"neli":3166,"pus":3167,"ttar":3168,"tello":3169,"yalte":3170,"anyasse":3171,"alin":3172,"Ġmenna":3173,"Ġmina":3174,"Ġmand":3175,"Ġarpo":3176,"Ġsoica":3177,"quie":3178,"eldasse":3179,"Ġlet":3180,"ĠcÃ¡nor":3181,"Ġhal":3182,"ĠquÃ©r":3183,"Ġase":3184,"Ġyel":3185,"nah":3186,"tanelde":3187,"Ġanel":3188,"Ã³li":3189,"tis":3190,"âĢĿ.":3191,"ĠEh":3192,"ĠEques":3193,"Ġsaila":3194,"Ġqueninnar":3195,"Ġcarp":3196,"Ġcarya":3197,"Ġcaris":3198,"Ġinten":3199,"Ġresta":3200,"Ġrestar":3201,"uvi":3202,"Ġennen":3203,"ĠÃºmir":3204,"ĠnÃ³ne":3205,"unyat":3206,"Ġtulie":3207,"Ġtulyala":3208,"Ġquetilve":3209,"Ġore":3210,"ĠtÃºlette":3211,"cot":3212,"Ġalye":3213,"ciÃ©no":3214,"Ġnanca":3215,"Ġmartuvar":3216,"Ãģse":3217,"ĠSand":3218,"ĠSolo":3219,"ĠlÃºmi":3220,"Ġsamilte":3221,"Ġerum":3222,"ĠquÃ©tine":3223,"Ġtainen":3224,"ĠÅŁanyenen":3225,"Ġtara":3226,"Ġtarir":3227,"Ġtarwa":3228,"telta":3229,"Ġmelmenen":3230,"Ġtall":3231,"Ġtalien":3232,"Ġappa":3233,"Ġpolle":3234,"Ġexin":3235,"ielya":3236,"Ġtane":3237,"Ġtann":3238,"ĠyÃºquean":3239,"Ġalcarerya":3240,"Ġatanillon":3241,"ĠTÃŃr":3242,"ĠTÃŃto":3243,"ĠAtarelda":3244,"ĠAtarelva":3245,"Ġulya":3246,"ĠsÃ¡mal":3247,"Ġanaien":3248,"Ġvantane":3249,"ĠnanwiÃ©no":3250,"Ġnerenna":3251,"Enge":3252,"ĠnÃ³rin":3253,"ehtie":3254,"Ġhroal":3255,"Ġsaviello":3256,"ĠVara":3257,"Ġsanalde":3258,"Ġsanwi":3259,"ĠfailiÃ©va":3260,"Ġmeneldie":3261,"Ġyancar":3262,"ĠAtanion":3263,"Ġevandilyono":3264,"ÃŃrine":3265,"Ġhate":3266,"Ġrehtane":3267,"ĠmÃ©l":3268,"ĠmÃ©na":3269,"Ġyestaner":3270,"Ġnissen":3271,"ĠutÃºlier":3272,"Ġelmenda":3273,"Ġlihta":3274,"Ġtalamenna":3275,"Ġlunga":3276,"Ġhamnes":3277,"Ġquere":3278,"Ġocombi":3279,"Ġocombenna":3280,"Ġnelesta":3281,"Ġvandil":3282,"Ġnahtien":3283,"ĠyÃ¡mer":3284,"Ġyaldes":3285,"Ġmaquenter":3286,"Ġmaquentes":3287,"Ġyomencoassen":3288,"ĠmÃ¡lesse":3289,"!',":3290,"Ġatto":3291,"Ġneceli":3292,"ĠcÃ³line":3293,"Elde":3294,"Ġaistie":3295,"Ġocombeo":3296,"Ġtolpor":3297,"ĠlÃ¡vala":3298,"Ġtiutal":3299,"ĠequÃ©tien":3300,"Ġquap":3301,"Ġlumb":3302,"ĠnÃ¡veltan":3303,"Ġcoaryasse":3304,"Ġnoirinna":3305,"ĠocÃ³m":3306,"uldat":3307,"Ãļquen":3308,"ĠÃ±walm":3309,"ĠYÃºreo":3310,"ĠverulÃ³ra":3311,"ĠIsraelind":3312,"Ġamortie":3313,"ĠCombe":3314,"ĠRehtol":3315,"nÃ³na":3316,"Ġnonwe":3317,"Ġholmo":3318,"Ġhildonnar":3319,"Ġhelmol":3320,"ĠapsÃ©nine":3321,"Ġrohtal":3322,"ĠolÃ³lie":3323,"Ġlancoa":3324,"Menel":3325,"ĠrelyÃ¡valda":3326,"Ġnuldave":3327,"Ġpellope":3328,"ĠYordan":3329,"Ġpulmaxe":3330,"ĠhlÃ³ce":3331,"ĠSolomon":3332,"Car":3333,"Exeli":3334,"Sa":3335,"Sinen":3336,"dassen":3337,"hya":3338,"ice":3339,"lÃ¡":3340,"mit":3341,"pina":3342,"pesse":3343,"son":3344,"vÃŃ":3345,"vanen":3346,"varon":3347,"xo":3348,"yuvalte":3349,"anw":3350,"anÃŃas":3351,"Ġnesse":3352,"Ã¡li":3353,"Ġmasse":3354,"Ġmoi":3355,"Ġmoica":3356,"ela":3357,"eltanen":3358,"elÃŃnen":3359,"elÃ³ra":3360,"Ã©ya":3361,"ĠlÃ¡rie":3362,"Ġlissenen":3363,"era":3364,"ĠcÃ¡ra":3365,"Ġhelda":3366,"Ġhaura":3367,"ĠquÃ¡r":3368,"tassen":3369,"Ġyenen":3370,"Ġpiu":3371,"iltar":3372,"tanten":3373,"Ġevet":3374,"ĠuÅŁe":3375,"Ġantar":3376,"ĠEar":3377,"ĠAc":3378,"ĠAla":3379,"Ġcaryasse":3380,"Ġiny":3381,"Ġenda":3382,"ĠÃºpa":3383,"ĠÃºvesse":3384,"Ã¡nala":3385,"talli":3386,"Ġfel":3387,"Ġfarya":3388,"Ġlepen":3389,"Ġtulien":3390,"Ġtuluvas":3391,"Ġpantane":3392,"Ġmanwe":3393,"Ġmentanelte":3394,"Ġcoal":3395,"Ġcoallo":3396,"Ġcoanna":3397,"Ġortanes":3398,"ĠlÃ¡ra":3399,"ĠetÃ©":3400,"Ġettele":3401,"ĠtÃºlelme":3402,"!âĢĿ,":3403,"Ġimma":3404,"ĠMil":3405,"ĠÅŁa":3406,"Ġcenilde":3407,"cia":3408,"ciello":3409,"ĠÃ¡men":3410,"ĠquetiÃ©nen":3411,"ĠSa":3412,"Ġhlas":3413,"Ġhildol":3414,"Ġelyen":3415,"Ġracir":3416,"Ġninque":3417,"Ġtarmen":3418,"ĠmÃ¡t":3419,"Ġaica":3420,"Ġmeldo":3421,"Ġmeldor":3422,"Ġtalan":3423,"Ġtalles":3424,"Ġolv":3425,"Ġmeris":3426,"Ġmerner":3427,"Ġmernelte":3428,"ielvan":3429,"Ġtannes":3430,"Ġtanwali":3431,"Ġnatt":3432,"Ġcamnel":3433,"ĠyÃ¡vie":3434,"ĠLe":3435,"ĠLis":3436,"Ġcoivien":3437,"Ġaraniesse":3438,"ĠÃºcariva":3439,"aryasse":3440,"Ġhem":3441,"ĠTa":3442,"ĠTÃ©":3443,"ĠAtarello":3444,"Ġveryane":3445,"Ġnamien":3446,"ĠsÃ¡malta":3447,"ĠÅŁangallo":3448,"Ġongwe":3449,"Ġearo":3450,"Ġvantala":3451,"Ġcaine":3452,"ĠnanwiÃ©va":3453,"Ġpente":3454,"Ġpenyain":3455,"Ġrehtaine":3456,"Ġnyara":3457,"Ġnyarin":3458,"Ġnyarnes":3459,"ĠmÃ¡ryanen":3460,"ĠmÃ¡rieldan":3461,"Ġminde":3462,"Ġhlaru":3463,"Ġhlarien":3464,"Ġpare":3465,"Ġhirnelte":3466,"ĠMahtal":3467,"Ġamaqua":3468,"Ġnalda":3469,"malya":3470,"Ġtelwa":3471,"Ġexeo":3472,"ĠAinon":3473,"Ġvene":3474,"donna":3475,"Ġnote":3476,"Ġnoire":3477,"Ġrehtaina":3478,"ĠutÃºlien":3479,"Ġaureo":3480,"Ġlienna":3481,"Ġnancare":3482,"Ġtalaina":3483,"Ġmassaron":3484,"Ġpoice":3485,"ĠLahtie":3486,"Ġnestaina":3487,"Ġnestanes":3488,"cenÃŃ":3489,"ĠRÃ³me":3490,"Ġlieo":3491,"Ġquerner":3492,"Ġhildoryaron":3493,"ĠYondor":3494,"ĠvÃ©reo":3495,"ĠMarÅŁa":3496,"Ġnanwenner":3497,"Ġlamyane":3498,"Ġmaquentelte":3499,"Ġmahalmasse":3500,"Ġtyasta":3501,"ĠomÃ³":3502,"iot":3503,"Ġmapana":3504,"Ġherul":3505,"Ġquelex":3506,"Ġapsenie":3507,"ĠFeo":3508,"Ġcaitala":3509,"ĠhÃ¡nonya":3510,"Ġcardaltar":3511,"Ġondosse":3512,"Ġquais":3513,"ĠmÃ©time":3514,"ĠmÃ©nar":3515,"ĠAinolva":3516,"rippa":3517,"Ġmasto":3518,"Laume":3519,"Istan":3520,"ĠSamÃ¡r":3521,"Ġhroaran":3522,"ĠYÃºreasse":3523,"Ġruncelte":3524,"Ġambar":3525,"Ġsapsar":3526,"ĠSever":3527,"Ġlavuva":3528,"Ġcastalya":3529,"Ġhendultat":3530,"Nanye":3531,"ĠsÃºre":3532,"ĠihÃŃ":3533,"Ġcoaryanna":3534,"Ġnosseo":3535,"Ġliss":3536,"Ġenvin":3537,"Ġenvinya":3538,"Ġcalmatar":3539,"hlai":3540,"ĠÃ±etien":3541,"Ġlarmaryar":3542,"ĠnyÃ¡rina":3543,"Ġalassenen":3544,"ĠperpÃ©r":3545,"ĠHev":3546,"Ġhund":3547,"Ġpaimesta":3548,"Ġcuilerya":3549,"ssion":3550,"Ġofelme":3551,"Enger":3552,"ĠtyÃ¡rine":3553,"ĠhÃºrala":3554,"Ġeffir":3555,"ĠCÃ©sare":3556,"ĠMahtalÃ©ne":3557,"',":3558,".Â»":3559,"Filip":3560,"Leh":3561,"Sama":3562,"ap":3563,"der":3564,"dur":3565,"ianna":3566,"mu":3567,"omas":3568,"tÃ¡":3569,"tum":3570,"tÃºr":3571,"une":3572,"anelte":3573,"Ġnul":3574,"Ã¡p":3575,"Ã¡men":3576,"Ġmelde":3577,"Ġtam":3578,"Ġsun":3579,"Ġsilo":3580,"Ġlerya":3581,"Ġlale":3582,"Ġcun":3583,"Ãºne":3584,"tef":3585,"Ġyul":3586,"ĠyÃ¡r":3587,"Ġyali":3588,"Ġvando":3589,"ĠnÃ¡s":3590,"ĠnÃ¡mon":3591,"irenen":3592,"Ġec":3593,"ĠuÅŁ":3594,"Ġanton":3595,"Ġsai":3596,"yanet":3597,"yaneltes":3598,"ĠAnes":3599,"Ġcaruvar":3600,"Ġcaruvas":3601,"Ġcarilte":3602,"Ġyat":3603,"Ġren":3604,"Ġrer":3605,"Ġrestasse":3606,"Ġrere":3607,"imp":3608,"impa":3609,"yaryasse":3610,"ĠÃºme":3611,"quentes":3612,"Ġlent":3613,"Ġtulyar":3614,"Ġtultane":3615,"aica":3616,"Ġpano":3617,"Ġmancal":3618,"Ġmentaina":3619,"Ġmentaine":3620,"Ġquetuvalde":3621,"Ġquetilte":3622,"ĠtÃ©re":3623,"ĠtÃ©can":3624,"terya":3625,"Ġaselve":3626,"ĠasÃ¡vi":3627,"Ġuat":3628,"Ġetsa":3629,"andos":3630,"Ġimmon":3631,"Ġhyama":3632,"Ġale":3633,"ĠMÃŃ":3634,"ĠMena":3635,"ĠMandos":3636,"Ġnanwe":3637,"Ãģnin":3638,"ĠSÃ©":3639,"ĠStef":3640,"umo":3641,"ĠPar":3642,"Ġeld":3643,"Ġelen":3644,"oiviÃ©va":3645,"leo":3646,"Ġrahta":3647,"Ġninqui":3648,"Ġqualmen":3649,"weo":3650,"teltes":3651,"Ġmeldar":3652,"Ġtalta":3653,"Ġtalma":3654,"ĠFesto":3655,"Ġauco":3656,"Ġtanien":3657,"Ġnatin":3658,"Ġnattol":3659,"Ġamy":3660,"ĠlacenÃŃ":3661,"ĠLÃ©":3662,"Ġalcaryaina":3663,"ĠÃºcarel":3664,"Ġantas":3665,"ĠTasse":3666,"ĠTula":3667,"ĠAtaro":3668,"Ġlendelme":3669,"ĠCoiviÃ©va":3670,"Ġcanw":3671,"Ġonna":3672,"Ġhildoryain":3673,"Ġnertea":3674,"Ġpenir":3675,"Ġpenyar":3676,"ĠÃģse":3677,"ĠÃģrippa":3678,"Ġruine":3679,"Ġlaital":3680,"ĠVÃ¡vel":3681,"Ġsanwe":3682,"Ġhanquenter":3683,"Ġhlarir":3684,"Ġhlaruva":3685,"eldave":3686,"Ġoronter":3687,"ĠÃ³marya":3688,"mio":3689,"maltar":3690,"Ġtelyane":3691,"Ġyangw":3692,"ssenen":3693,"Ġualye":3694,"ĠAinonya":3695,"Ġrance":3696,"Ġnisque":3697,"ĠtÃºrerya":3698,"Ġvaina":3699,"Ġpoita":3700,"Ġtarwesta":3701,"ĠLava":3702,"Ġhormenen":3703,"Ġhorro":3704,"Ġendaldasse":3705,"Ġlintave":3706,"Ġhamme":3707,"Ġhamun":3708,"Ġoanter":3709,"Ġoantelte":3710,"Illi":3711,"Illume":3712,"Ġarcanes":3713,"Ġarcande":3714,"Ġcendelerya":3715,"Ġocombesse":3716,"Ġocombennar":3717,"Ġnelequean":3718,"ĠyÃ¡veo":3719,"golmor":3720,"Ġnahtane":3721,"Ġnanwennes":3722,"ĠNÃ¡sar":3723,"Ġtyere":3724,"Ġtyerner":3725,"Ġhyamne":3726,"Ġhyamien":3727,"ĠElye":3728,"ĠalavÃ©":3729,"Ġnorne":3730,"Ġroita":3731,"Ġnecel":3732,"Ġforma":3733,"ĠAlileasse":3734,"ĠhÃ¡tine":3735,"ĠahlÃ¡rie":3736,"ĠahlÃ¡rielde":3737,"ĠhÃ¡nolya":3738,"Ġtocot":3739,"ĠhyÃ¡m":3740,"Ġhuruterc":3741,"Ġlatyane":3742,"Ġlatyanes":3743,"colcar":3744,"Ġtancave":3745,"Ġtulcaina":3746,"Ġtarwestana":3747,"valye":3748,"Ġtulyaine":3749,"Ġimnetyandor":3750,"Ġhroarantar":3751,"Ãļsie":3752,"ĠverulÃ³r":3753,"ĠSecar":3754,"Ġcordoni":3755,"ĠquettalÃŃnen":3756,"Ġlorna":3757,"ĠnÃ¡renen":3758,"ĠÅŁinyemat":3759,"Ġnisseli":3760,"ĠcÃ¡mina":3761,"HlÃ¡rala":3762,"Ġlestanen":3763,"Ġnacanter":3764,"ĠnapÃ¡nine":3765,"Ãĵmu":3766,"ĠYesaia":3767,"Ġleuca":3768,"ĠPaulonna":3769,"ĠLÃ¡sar":3770,"Ġhosseturco":3771,"ĠlÃ³mio":3772,"Ġcanwacimye":3773,"ĠSÃŃron":3774,"ĠlÃ¡mÃ¡re":3775,"Ġungwal":3776,"Ġasette":3777,"Ġtannali":3778,"ĠVaravas":3779,"ĠlalevÃŃ":3780,"ĠalavÃ©le":3781,"!\"":3782,",âĢĿ":3783,"Cen":3784,"CÃ©nala":3785,"Her":3786,"HÃ¡nor":3787,"Meldar":3788,"Merin":3789,"Ravi":3790,"Tasse":3791,"Ua":3792,"aine":3793,"con":3794,"cÃ¡rala":3795,"hÃŃ":3796,"htana":3797,"heh":3798,"massen":3799,"ure":3800,"umb":3801,"xand":3802,"Ã±":3803,"ĠUan":3804,"antane":3805,"Ġire":3806,"aloni":3807,"Ã¡tala":3808,"Ġmis":3809,"Ġtamb":3810,"ĠtÃŃr":3811,"Ġseldo":3812,"quin":3813,"eldan":3814,"ĠlÃ©r":3815,"eryallo":3816,"yassen":3817,"Ġcilme":3818,"Ġhw":3819,"Ġav":3820,"Ġax":3821,"Ġava":3822,"sea":3823,"teva":3824,"Ġyet":3825,"Ġyesta":3826,"nam":3827,"Ġvir":3828,"Ġvil":3829,"ĠpÃ©":3830,"irallo":3831,"tanelme":3832,"tanette":3833,"Ġean":3834,"Ġecuva":3835,"Ġepesse":3836,"Ġantanen":3837,"ĠanyÃ¡r":3838,"Ġanga":3839,"Ġantollo":3840,"Ġnasse":3841,"Ġnauvalve":3842,"deva":3843,"aste":3844,"reo":3845,"tielda":3846,"tiessen":3847,"ollon":3848,"Ġsava":3849,"Ġsaile":3850,"istana":3851,"Ġcardan":3852,"Ġcarnel":3853,"Ġoh":3854,"Ġyaime":3855,"etye":3856,"ĠHo":3857,"andar":3858,"andur":3859,"Ġmahta":3860,"Ġinwe":3861,"usenna":3862,"Ġrass":3863,"ĠrÃ©li":3864,"taro":3865,"ĠÃºsa":3866,"Ã¡nen":3867,"quente":3868,"talesse":3869,"Ġfind":3870,"Ġtulc":3871,"Ġtulilde":3872,"Ġmance":3873,"Ġcotya":3874,"Ġcoantur":3875,"Ġquetil":3876,"Ġquetuvas":3877,"Ġquetilme":3878,"Ġquettali":3879,"cave":3880,"Ġortaine":3881,"Ġortuvar":3882,"ĠasÃ¡":3883,"ĠlÃ¡re":3884,"Ġetul":3885,"menya":3886,"Ġhyame":3887,"Ġhyapa":3888,"Ġalan":3889,"Ġalas":3890,"ĠÅŁel":3891,"Ġcennelme":3892,"Ġnarca":3893,"Ġtece":3894,"Ġmarne":3895,"Ġmartar":3896,"Ġmarden":3897,"ĠÃ¡sen":3898,"ĠÃ¡valte":3899,"Ġnatissen":3900,"naron":3901,"ĠSin":3902,"ĠSoro":3903,"umna":3904,"Ġsintes":3905,"Ġsintelte":3906,"Ġsamien":3907,"Ġhantes":3908,"Ġhanquet":3909,"lexand":3910,"Ġrai":3911,"Ġninye":3912,"ĠmÃ¡pala":3913,"ĠIÅŁ":3914,"Ġmeldan":3915,"Ġtallelte":3916,"Ġappane":3917,"Ġpolil":3918,"Ġpoldor":3919,"Ġoluva":3920,"ĠFeli":3921,"Ġmerend":3922,"Ġautala":3923,"ielyan":3924,"Ġtanuva":3925,"Ġtanwar":3926,"Ġlang":3927,"Ġammin":3928,"Ġcamir":3929,"Ġcamnen":3930,"Ġengen":3931,"ĠyÃ¡vi":3932,"ĠyÃ¡cine":3933,"ĠÃºcarindo":3934,"Ġaiqueno":3935,"Ġaureli":3936,"ĠNÃ©r":3937,"Ġcemello":3938,"Ġverur":3939,"ĠveriÃ©nen":3940,"ĠAnanÃŃas":3941,"Ġlenden":3942,"ĠCan":3943,"Ġulyane":3944,"Ġnamp":3945,"ĠsÃ¡ma":3946,"ĠÅŁangannar":3947,"ĠmÃ³n":3948,"Ġvantar":3949,"Ġvancer":3950,"ĠYÃºrallon":3951,"Ġcap":3952,"ĠnanwiÃ©nen":3953,"oronda":3954,"Ġnerello":3955,"Ġharive":3956,"ĠhÃ¡noryan":3957,"Ġhroasse":3958,"Ġsavielya":3959,"Ġpeantier":3960,"Ġvettane":3961,"Ġvalanna":3962,"Ġatari":3963,"Ġsanne":3964,"Ġhanquentes":3965,"ĠÅŀess":3966,"Ġtyaris":3967,"ĠcÃ¡rima":3968,"Ġpara":3969,"savet":3970,"Ġhiruva":3971,"Ġnaice":3972,"Ġcordo":3973,"yalve":3974,"Ġyane":3975,"ĠAtani":3976,"Ġevandilyonen":3977,"tielyan":3978,"Ġurtaine":3979,"Ġrehtien":3980,"xeo":3981,"ĠaÅŁcÃ©nima":3982,"Ġnisso":3983,"Ġtunta":3984,"ĠtÃºrie":3985,"Ġhlasselde":3986,"Ġtarwerya":3987,"ĠLah":3988,"ĠErulissenen":3989,"Ġhorta":3990,"Ġendalta":3991,"Ġquerne":3992,"Ġquernes":3993,"Ġlastar":3994,"Ġlastane":3995,"Ġtanaina":3996,"Ġmelmeo":3997,"gweo":3998,"Ġmettasse":3999,"Ġarcala":4000,"Ġtumyaine":4001,"Ġlambesse":4002,"Ġlambessen":4003,"Ġperperir":4004,"Ġcucu":4005,"Ġyomencoasse":4006,"quetin":4007,"ĠÃºpuh":4008,"Ġcomyane":4009,"Ġneno":4010,"Ġalah":4011,"Ġnore":4012,"ĠÅŁanyeo":4013,"ĠYÃ©sunen":4014,"ĠcÃ³lala":4015,"Ġaistana":4016,"ĠÃºfaili":4017,"Ġlengie":4018,"Ġtelpemit":4019,"Ġsumbana":4020,"Ġtiutale":4021,"Ġastarmor":4022,"Ġistuvalde":4023,"ĠacÃ¡mier":4024,"Ġhepir":4025,"Ġlatyana":4026,"ĠrÃºÅŁea":4027,"Ġlui":4028,"ĠAinolya":4029,"Ġfeal":4030,"Ġtarwestaina":4031,"ĠehÃ©":4032,"Ġtuxar":4033,"valve":4034,"Ġarmaror":4035,"Ġarmarolya":4036,"Ġmolierya":4037,"aiafas":4038,"ĠYÃºreallo":4039,"Ġendaryasse":4040,"ĠÃ±otto":4041,"Ġatarilvar":4042,"Ġhrupuhtie":4043,"Ġnirm":4044,"ĠÅŁanyelÃ³r":4045,"ĠcÃŃlina":4046,"Nanwa":4047,"Ġnarace":4048,"Alve":4049,"Ġimmotuntiel":4050,"Ġetelendes":4051,"Ġulcul":4052,"Ġusque":4053,"Ġsanwel":4054,"Ġsuilar":4055,"ĠapsÃ©nina":4056,"Ġrinc":4057,"Ġrocco":4058,"Ġetequenta":4059,"Ġots":4060,"Ġotsea":4061,"ĠindÃ³merya":4062,"ĠAntiocenna":4063,"Ġmehten":4064,"Ġliantasse":4065,"Ġliantassion":4066,"Ġpityar":4067,"Ġmelehte":4068,"ĠYopp":4069,"Ġveryangweo":4070,"ĠElÃŃsavet":4071,"ĠoraviÃ©va":4072,"Ġtalenti":4073,"Hepa":4074,"Quetin":4075,"ĠAndrÃ©":4076,"Ġimbacin":4077,"Ġhaime":4078,"ĠindÃ³menen":4079,"Valima":4080,"pustien":4081,"ĠÃºmirwe":4082,"Ġamaquatien":4083,"Ġimmonen":4084,"ĠamyÃ¡ra":4085,"ĠFelix":4086,"ĠÅŀessaloni":4087,",'":4088,"Ea":4089,"Et":4090,"Hil":4091,"NÃ³":4092,"Te":4093,"Tal":4094,"Yen":4095,"coli":4096,"conna":4097,"desse":4098,"delte":4099,"ias":4100,"ihta":4101,"mme":4102,"mne":4103,"nion":4104,"renen":4105,"sin":4106,"ttan":4107,"tus":4108,"utÃº":4109,"vin":4110,"vine":4111,"vello":4112,"wen":4113,"enyasse":4114,"Ġimbe":4115,"Ġnil":4116,"Ġneh":4117,"ĠarÃ¡":4118,"Ġarinyave":4119,"Ġtiel":4120,"Ġtiesse":4121,"Ġtimbar":4122,"ĠsÃ³m":4123,"elvo":4124,"Ġlit":4125,"Ġlier":4126,"Ġhau":4127,"Ġhelma":4128,"Ġquor":4129,"tainen":4130,"iron":4131,"iryar":4132,"ondo":4133,"ilar":4134,"illa":4135,"ildar":4136,"tanet":4137,"Ġev":4138,"Ġemen":4139,"Ġnau":4140,"tielde":4141,"tiÃ©la":4142,"vea":4143,"yant":4144,"ĠAi":4145,"ĠAm":4146,"ĠAlexand":4147,"Ġcarnelde":4148,"ĠoÅŁ":4149,"Ġyacien":4150,"Ġillon":4151,"ĠHan":4152,"Ġmatie":4153,"Ġinden":4154,"ĠrÃ©n":4155,"Ġrende":4156,"Ġrip":4157,"Ġmallo":4158,"Ġmaller":4159,"Ġenwa":4160,"Ġendo":4161,"Ã¡non":4162,"Ã¡noli":4163,"Ġfea":4164,"ĠfÃŃr":4165,"caras":4166,"ĠnÃ³mi":4167,"ĠnÃ³tine":4168,"Ġleve":4169,"unte":4170,"Ġtulesse":4171,"Ġtulco":4172,"Ġpanoli":4173,"Ġpanyuva":4174,"Ġmante":4175,"Ġmannar":4176,"Ġmenien":4177,"Ġquetuvar":4178,"Anelte":4179,"Ġortuva":4180,"Ġortanelte":4181,"mbar":4182,"ĠtÃºlienwe":4183,"lion":4184,"Ã©rier":4185,"ĠÅŁanda":4186,"Ġcennel":4187,"ĠHristollo":4188,"irea":4189,"Ġistuva":4190,"Ġistieldan":4191,"Ã¡mes":4192,"Ġteca":4193,"Ġtehta":4194,"Ġtecie":4195,"Ġmarnes":4196,"Ãģni":4197,"ĠSumb":4198,"umnel":4199,"umyando":4200,"Ġsinyar":4201,"Ġsamieldan":4202,"Ġhantal":4203,"Ġhanquete":4204,"Que":4205,"Ġestaine":4206,"Ġhranga":4207,"ĠquÃ©tal":4208,"ĠmÃ¡ma":4209,"Ġqualler":4210,"Ġqualles":4211,"Ġapaire":4212,"Ġappan":4213,"Ġostol":4214,"Ġpoluva":4215,"Ġoloi":4216,"ĠsÃŃs":4217,"ĠsÃŃre":4218,"Ġautean":4219,"ielve":4220,"Ġtercen":4221,"Ġlanne":4222,"Ġnatinnar":4223,"Ġnattir":4224,"Ġlahta":4225,"Ġcamie":4226,"Ġcamuvar":4227,"Ġcamuvalde":4228,"Ġcamuvas":4229,"ĠyÃ¡re":4230,"Ġalcaren":4231,"Ġalcaresse":4232,"Ġcoita":4233,"Ġaurello":4234,"ĠNi":4235,"Ġantaven":4236,"Ġlemne":4237,"Ġlemyanes":4238,"Ġlemyuva":4239,"ĠTar":4240,"ĠTumyando":4241,"ĠAtarenna":4242,"ĠceÅŁ":4243,"ĠCen":4244,"ĠCir":4245,"ĠCaiafas":4246,"Ġundume":4247,"ĠsÃ¡man":4248,"Ġcantea":4249,"ĠÅŁango":4250,"ĠonÃ³":4251,"Ġontaina":4252,"Ġvanw":4253,"ĠtÃ¡lala":4254,"Ġharmar":4255,"Ġpenie":4256,"Ġhroalya":4257,"ĠyÃ©tala":4258,"ĠnÃ¡venen":4259,"Ġnyard":4260,"Ġnyarnen":4261,"ĠmÃ¡ryasse":4262,"cane":4263,"Ġcolien":4264,"Ġrucie":4265,"Ġvalo":4266,"Ġvalaryar":4267,"Ġlaic":4268,"Ġsannelte":4269,"Ġnossen":4270,"ĠcÃ¡ralde":4271,"Ġlendet":4272,"Ġnaique":4273,"Ġnaiquetie":4274,"Ġmaite":4275,"Ġevandilyonnen":4276,"Queni":4277,"ĠtÃºreo":4278,"Ġettul":4279,"Ġcalasse":4280,"Ġcalima":4281,"Ġmapaine":4282,"Ġpanyaine":4283,"ĠrehtiÃ©va":4284,"Ġyentes":4285,"ĠIsaia":4286,"Ġcirner":4287,"Ġcirnelme":4288,"Ġoiale":4289,"ĠtÃºri":4290,"Ġvaim":4291,"Ġvahta":4292,"Ġvaxeo":4293,"Ġperta":4294,"Ġnestane":4295,"ĠRÃ³":4296,"Ġendalva":4297,"Ġlunge":4298,"Ġluntesse":4299,"Ġling":4300,"Ġturqu":4301,"Ġahtar":4302,"Ġcoivierya":4303,"Ġarcaner":4304,"Ġcendelello":4305,"Ġmorna":4306,"Ġocomben":4307,"Ġnelci":4308,"Ġpalpa":4309,"ĠquetiÃ©va":4310,"ĠAvrahÃ¡men":4311,"ĠMarco":4312,"ĠemÃ©":4313,"Ġempan":4314,"Ġarcalde":4315,"Ġtyerir":4316,"Ã³rie":4317,"Ġessenya":4318,"Ġsavil":4319,"Ġsavuvalde":4320,"Ġnurtaina":4321,"Ġcarastane":4322,"Ġcomyanelte":4323,"Nat":4324,"Ġalamor":4325,"Ġroitie":4326,"tulyane":4327,"Ġaino":4328,"Ġainol":4329,"ĠnÃºroryar":4330,"ĠIlye":4331,"ĠIlquen":4332,"aldain":4333,"Ġenortave":4334,"Ġcardali":4335,"ĠlÃ¡ves":4336,"ĠHerolo":4337,"ĠhÃ¡noin":4338,"indoli":4339,"Ġlimpeo":4340,"ĠhÃŃnali":4341,"hate":4342,"Ġapantane":4343,"Ġnoirillo":4344,"Ġraucoh":4345,"Ġarmaryar":4346,"Ġantoryallo":4347,"Ġatarildar":4348,"ĠÃ¡nietye":4349,"ĠQuÃ©n":4350,"Ġtungwem":4351,"ĠHerunna":4352,"ĠaÅŁarenna":4353,"Ġmanwien":4354,"ĠhlÃ¡rina":4355,"Ġettelie":4356,"Ġlapse":4357,"ĠcÃŃline":4358,"Ġhosta":4359,"ĠEuleo":4360,"Ġmavari":4361,"ĠhÃŃrine":4362,"Ġairinte":4363,"Ġturue":4364,"Ġussar":4365,"Ġtelyaina":4366,"Ġtelyaine":4367,"ĠÂºan":4368,"Nyarin":4369,"Ġringa":4370,"Ġmityasse":4371,"ĠhlÃŃvel":4372,"elÃ³rar":4373,"Ġcempal":4374,"ĠÅŁÃºl":4375,"ĠHellenyar":4376,"Ġcainer":4377,"Ġcaines":4378,"Ġcestealde":4379,"Ġlamate":4380,"Ġnestaine":4381,"Ġhurindo":4382,"ĠoscÃŃrine":4383,"ĠCorin":4384,"ĠAsiasse":4385,"ĠAtarinyo":4386,"ĠÃºlÃ©vima":4387,"ĠYohannes":4388,"Ġiltanca":4389,"Ġaucirne":4390,"Ġlimpenen":4391,"ĠhyÃ³larya":4392,"ĠÃļyÃºrar":4393,"nelio":4394,"ĠEhenna":4395,"Ġlumbo":4396,"ĠocÃ³mienwe":4397,"Ġnattire":4398,"ĠYondoryo":4399,"Ġquelexima":4400,"Ġenvinyanta":4401,"Lehe":4402,"Ġvircolcar":4403,"Ġimbacinde":4404,"ĠoÅŁw":4405,"ĠSumbando":4406,"Ġcempalie":4407,"Am":4408,"Cara":4409,"Hinyar":4410,"Os":4411,"PÃ©ter":4412,"Sine":4413,"Saul":4414,"Tan":4415,"Tira":4416,"Teldave":4417,"Ualte":4418,"ah":4419,"cima":4420,"coni":4421,"dal":4422,"fÃŃ":4423,"hen":4424,"hlÃ¡r":4425,"ite":4426,"lan":4427,"lal":4428,"lina":4429,"lelde":4430,"mÃ©":4431,"mis":4432,"maron":4433,"puva":4434,"uor":4435,"ves":4436,"vala":4437,"vanda":4438,"wion":4439,"yÃ¡":4440,"yumnes":4441,"Ġ?âĢĿ":4442,"ante":4443,"anyar":4444,"antie":4445,"antanes":4446,"Ġnollo":4447,"all":4448,"alissen":4449,"Ġmello":4450,"Ġarandur":4451,"Ġtier":4452,"Ġtira":4453,"ĠtÃ¡nala":4454,"ĠsÃ©r":4455,"Ġselye":4456,"ĠsÃ¡nen":4457,"elion":4458,"elmo":4459,"elÃŃr":4460,"elyallo":4461,"eldanen":4462,"Ġlil":4463,"Ġlass":4464,"yave":4465,"ĠhÃ¡m":4466,"estanna":4467,"sev":4468,"teal":4469,"Ġyale":4470,"Ġvarya":4471,"ĠnÃ¡mi":4472,"Ġpon":4473,"Ġpet":4474,"Ġpile":4475,"iresse":4476,"orice":4477,"tanya":4478,"taneltes":4479,"Ġantalde":4480,"Ġantuvas":4481,"Ġnassenen":4482,"tielte":4483,"ĠYa":4484,"yea":4485,"istie":4486,"Ġquenenna":4487,"Ġquenello":4488,"Ġcarila":4489,"Ġcarmar":4490,"Ġopo":4491,"Ġyainen":4492,"Ġmaus":4493,"Ġmaque":4494,"Ġmatuva":4495,"Ġmaile":4496,"Ġmaquete":4497,"Ġinyenen":4498,"Ġintesse":4499,"Ġrand":4500,"Ġrando":4501,"uvala":4502,"Ġmaltanen":4503,"ĠtÃºn":4504,"ĠtÃºnes":4505,"Ġena":4506,"Ġende":4507,"Ġenyala":4508,"Ġveh":4509,"Ġveassen":4510,"ĠÃºre":4511,"ĠÃºos":4512,"Ġmitya":4513,"quenter":4514,"Ã¡ran":4515,"caryanta":4516,"cariot":4517,"Ġleper":4518,"Ġtulciello":4519,"Ġpanyuvar":4520,"Ġmantelte":4521,"Ġmende":4522,"ĠÃŃri":4523,"Ġcoit":4524,"Ġquetumne":4525,"Ġortala":4526,"Ġortir":4527,"Ġuatte":4528,"ĠtÃºlet":4529,"lio":4530,"Ġmirwe":4531,"mentanes":4532,"Ġimmol":4533,"Ġquentet":4534,"Ġquentette":4535,"eryassen":4536,"ĠMinyave":4537,"Ġcenin":4538,"ĠcenÅŁ":4539,"Ġcenuvalde":4540,"Ġcenuvalte":4541,"Ġquiquie":4542,"cearon":4543,"Ġnancam":4544,"Ġmartya":4545,"Ġmartienwa":4546,"Ġmartanel":4547,"Ġmardeva":4548,"ĠÃ¡te":4549,"doryar":4550,"Ġnativa":4551,"Ãģmen":4552,"ĠSar":4553,"ĠSal":4554,"umnen":4555,"ĠlÃºmen":4556,"Ġsinter":4557,"ĠhlÃ¡ra":4558,"ĠhlÃ¡rala":4559,"ĠPeantar":4560,"QuÃ©n":4561,"tienwe":4562,"oiva":4563,"viÃ©no":4564,"ĠernÃ³na":4565,"Ġramb":4566,"Ġraxe":4567,"Ġraumo":4568,"Ġravanda":4569,"Ġtarilde":4570,"Ġepemma":4571,"Ġmela":4572,"Ġtaluva":4573,"Ġtalana":4574,"ĠtaltiÃ©va":4575,"Ġapir":4576,"Ġpoldes":4577,"Ġoller":4578,"Ġmernen":4579,"Ġmerilte":4580,"ĠlÃ©re":4581,"Ġtano":4582,"Ġtanna":4583,"Ġtannar":4584,"Ġtanuvan":4585,"Ġlanner":4586,"Ġlantuva":4587,"Ġlanni":4588,"Ġnatinen":4589,"Ġnatillon":4590,"Ġairinta":4591,"itye":4592,"Ġrimbalin":4593,"Ġmauyuva":4594,"Ġhopie":4595,"Ġauren":4596,"Ġaurion":4597,"aryain":4598,"ĠNam":4599,"Ġlemyar":4600,"Ġlemnes":4601,"ĠTi":4602,"ĠTro":4603,"ĠTambe":4604,"ĠTÃºra":4605,"ĠTomas":4606,"ĠhÃ©pina":4607,"lonen":4608,"ĠAntaro":4609,"ĠCar":4610,"ĠCili":4611,"ĠCip":4612,"Ġnampa":4613,"ĠnamiÃ©va":4614,"ĠnamÃ¡rie":4615,"ĠsÃ¡manen":4616,"Ġondor":4617,"ĠYÃºrannar":4618,"Ġnanwere":4619,"Ġharma":4620,"ĠnÃ³ren":4621,"ĠnÃ³rennar":4622,"ĠnÃ³rellon":4623,"ĠÃ±Ãº":4624,"Ġmundor":4625,"ĠtyÃ¡ra":4626,"ĠpeniÃ©nen":4627,"Ġendallo":4628,"ĠyÃ©talde":4629,"ĠnÃ¡veo":4630,"ĠmÃ¡riesse":4631,"Ġvettar":4632,"maryanna":4633,"Ġminque":4634,"Ġvaldie":4635,"ĠVer":4636,"ĠVÃ©l":4637,"Ġsanner":4638,"SÃŃra":4639,"Ġfailar":4640,"Ġhlarul":4641,"Ġtyarir":4642,"Ġtyaruva":4643,"Ġtyarnes":4644,"ĠYeri":4645,"Ġparmasse":4646,"Ġoronti":4647,"Ġcordallo":4648,"Ġtelp":4649,"Ġmilpi":4650,"Ġmillonen":4651,"Ġtence":4652,"Ġtencen":4653,"tonya":4654,"tonnar":4655,"Ġcalo":4656,"Ġcestanelte":4657,"Ġcestea":4658,"ĠIscariot":4659,"ĠAlÃŃ":4660,"Ġlierya":4661,"Ġlihtar":4662,"Ġtalamesse":4663,"Ġlauca":4664,"Ã³mu":4665,"ĠtÃºrion":4666,"ĠvaÅŁar":4667,"Ġpoitaine":4668,"Ġcarampelte":4669,"Ġtarwesse":4670,"ĠLaorice":4671,"Ġnestana":4672,"ĠRÃ³m":4673,"Ġlingwe":4674,"ĠrÃºcima":4675,"ĠhrÃ¡veva":4676,"Ġraucoron":4677,"Ġahtu":4678,"Ġhendelya":4679,"Ġhendusse":4680,"Ġlastaner":4681,"Ġcardaron":4682,"Ġcendeler":4683,"Ġcendelenna":4684,"Ġyunqueo":4685,"Ġvalion":4686,"Ġvare":4687,"Ġpalla":4688,"Ġqualmeva":4689,"ĠnÃºre":4690,"ĠnÃºtine":4691,"Ġairimoin":4692,"Ġnahtie":4693,"Ġcosti":4694,"Ġnanwene":4695,"Ġtumyal":4696,"ĠNÃ¡se":4697,"Ġlamba":4698,"Ġaxanyar":4699,"Ġtyerien":4700,"Hanquentes":4701,"ĠnyÃ©n":4702,"Ġcuru":4703,"Ġcuile":4704,"Ġyalle":4705,"Ġyomencoantur":4706,"Ġistalte":4707,"Ġnurr":4708,"Ġsestiel":4709,"Ġsestiessen":4710,"Ġcarastien":4711,"Ġcarastaina":4712,"Ġtyastaina":4713,"Ġserceva":4714,"ĠcÃ©nelÃ³ra":4715,"ĠatyÃ¡r":4716,"Ġesselya":4717,"Ġherun":4718,"Ġmatir":4719,"ĠamyÃ¡raron":4720,"ĠFairenen":4721,"ĠLavirion":4722,"Ġparmangolmo":4723,"Ġmaurenen":4724,"Ġforyasse":4725,"Ġformanya":4726,"Ġapsenien":4727,"Ġcimne":4728,"Ġcimila":4729,"Ġairita":4730,"ĠIlya":4731,"ĠIluvala":4732,"Ġenortie":4733,"ĠPilÃ¡tonna":4734,"Ġhehtane":4735,"Ġhehtana":4736,"Ġcardalyar":4737,"ĠNati":4738,"Ġantanelde":4739,"Ġapantaine":4740,"Ġastarmoli":4741,"ĠequÃ©ties":4742,"ĠhÃ¡nolyar":4743,"Ġquate":4744,"ĠhyÃ¡mala":4745,"colca":4746,"Ġapantie":4747,"ĠnÃ¡velvan":4748,"ĠAinolvo":4749,"Ġmastonna":4750,"ĠecÃ©niel":4751,"Ġvoronwie":4752,"ĠmÃ¡maron":4753,"Ġeheh":4754,"Ġoccaryanta":4755,"Istalve":4756,"ĠmoliÃ©nen":4757,"Ġpilur":4758,"ĠUas":4759,"Ġtarasta":4760,"Ġtarastaine":4761,"ĠQuetta":4762,"Ġmacilden":4763,"ĠÃ³ravie":4764,"Ġhildoin":4765,"Ġveriryallo":4766,"Ġtungwemo":4767,"Ġtungwemor":4768,"Ġnirme":4769,"Ġcanaque":4770,"Ġambela":4771,"Ġsaps":4772,"ĠYÃºrain":4773,"Ġongwi":4774,"Ġocomne":4775,"ĠmÃ¡nen":4776,"ĠpÃ¡ÅŁ":4777,"ĠpÃ¡ÅŁe":4778,"Ġenyalien":4779,"Ġcordonin":4780,"ĠErulisseo":4781,"maryasse":4782,"Ġhyamiesse":4783,"Ġlaitaxe":4784,"Alde":4785,"Ġhoss":4786,"Ġamarimbar":4787,"ĠComb":4788,"Ġcanwaryar":4789,"Ġetelender":4790,"ĠMaceroniallo":4791,"Ġtinwe":4792,"Ġtinwi":4793,"Ġluste":4794,"Ġfasta":4795,"Ġainocimie":4796,"Nyara":4797,"Ġtecetta":4798,"ĠtÃ³p":4799,"ĠMelet":4800,"ĠMelcis":4801,"Ġtannexe":4802,"ĠperpÃ©re":4803,"ĠnapÃ¡nina":4804,"Ġquettanya":4805,"Samin":4806,"TÃºle":4807,"ĠsÃºri":4808,"Ġannali":4809,"Ġamilleryanna":4810,"Ġmancane":4811,"Ġmelmelda":4812,"Ġtalulyat":4813,"Ġcaimasse":4814,"ĠApollo":4815,"Ġohtacar":4816,"ĠÃºacÃ¡r":4817,"ĠÃºhanda":4818,"Ġnurrula":4819,"ĠsailiÃ©va":4820,"Ġissenen":4821,"Ġairimonnar":4822,"ĠLamascusse":4823,"Lendes":4824,"ĠVetan":4825,"Ġtolporya":4826,"Menelo":4827,"ĠquÃ¡rele":4828,"Ġinyesse":4829,"Ġlepenquean":4830,"Ġolvali":4831,"Ġhroarantal":4832,"Ġsapsaryanna":4833,"ĠCÃ©sareanna":4834,"ĠNÃ¡saretello":4835,"ĠSecarÃŃa":4836,"Ġungwaler":4837,"Ġhyapat":4838,"ĠIÅŁil":4839,"Ġcaptaine":4840,"Ġtelpemittar":4841,"Ġluicarne":4842,"Ġnelciva":4843,"Ġveassenen":4844,"ĠVÃ©lsev":4845,"Ġahtumat":4846,"As":4847,"Ain":4848,"CÃ©":4849,"Ear":4850,"Ho":4851,"HÃŃ":4852,"Huor":4853,"Mar":4854,"Or":4855,"PilÃ¡":4856,"Rimb":4857,"Sisse":4858,"Tul":4859,"Ualde":4860,"ain":4861,"ata":4862,"cun":4863,"cire":4864,"cÃ©no":4865,"cele":4866,"dallon":4867,"exe":4868,"ho":4869,"har":4870,"hÃº":4871,"hir":4872,"htala":4873,"iessen":4874,"line":4875,"lai":4876,"merya":4877,"meli":4878,"omar":4879,"pas":4880,"pier":4881,"pessen":4882,"pio":4883,"roi":4884,"tt":4885,"tumnelte":4886,"tumner":4887,"tÃ¡ve":4888,"tyer":4889,"utÃºr":4890,"vor":4891,"yÃ©":4892,"Â·":4893,"Ġ&":4894,"aryo":4895,"antala":4896,"ananta":4897,"anwe":4898,"enquean":4899,"Ġmala":4900,"Ġarin":4901,"Ġarye":4902,"Ġtor":4903,"ĠtÃŃra":4904,"Ġson":4905,"Ġsanen":4906,"quila":4907,"elin":4908,"eldallo":4909,"elÃ³re":4910,"Ã©m":4911,"Ã©ra":4912,"Ġlienya":4913,"ĠlÃŃre":4914,"Ġcau":4915,"Ġcoli":4916,"ĠcÃŃr":4917,"ĠcÃ¡mala":4918,"Ġhelde":4919,"Ġquai":4920,"Ġatal":4921,"tear":4922,"Ġyulda":4923,"Ġvelde":4924,"Ġvele":4925,"ĠnÃ¡ma":4926,"ĠnÃ¡mor":4927,"ĠnÃ¡ha":4928,"ĠpÃ©l":4929,"ilv":4930,"vain":4931,"tannar":4932,"Ġeas":4933,"ĠeÃ±":4934,"Ġulo":4935,"Ġantie":4936,"Ġnapane":4937,"meon":4938,"tio":4939,"olle":4940,"ĠYeh":4941,"ĠYÃ©ru":4942,"ĠExeli":4943,"yanelde":4944,"yanette":4945,"Ġquenillon":4946,"ĠAÅŁ":4947,"ĠAure":4948,"ĠAquila":4949,"Ġcaruvalde":4950,"ĠcariÃ©nen":4951,"Ġcaruvalve":4952,"Ġcaruvalme":4953,"Ġoto":4954,"ĠEruhÃŃ":4955,"ĠHara":4956,"Ġmata":4957,"Ġmacar":4958,"ĠtÃºcina":4959,"Ġenw":4960,"Ġenelmo":4961,"Ġenenquean":4962,"ĠÃºv":4963,"ĠÃºvan":4964,"ĠÃºÅŁe":4965,"ĠÃºtul":4966,"ĠÃºhan":4967,"ĠÃºrenen":4968,"Ã¡nonna":4969,"Ġmitta":4970,"Ġmiquenen":4971,"Ġfir":4972,"Ġfennar":4973,"Ġlenca":4974,"carpie":4975,"ĠnÃ³time":4976,"unna":4977,"Ġtulil":4978,"Ġtullo":4979,"Ġtultanes":4980,"Ġtuliello":4981,"Ġtulyaneltes":4982,"aion":4983,"Ġpanyala":4984,"Ġmani":4985,"Ġcoassen":4986,"Ġquetto":4987,"uri":4988,"urar":4989,"Ġorya":4990,"Ġortuvas":4991,"Ġoromar":4992,"ĠorutÃºr":4993,"Ġassa":4994,"ĠlÃ¡ver":4995,"Ġette":4996,"Ġetsan":4997,"ĠtÃºlula":4998,"lies":4999,"coi":5000,"Ġalle":5001,"risto":5002,"ĠMasse":5003,"ĠMauya":5004,"ĠÅŁÃ¡n":5005,"ĠÅŁamb":5006,"ĠÅŁaura":5007,"Ġcenie":5008,"Ġcenuvar":5009,"Ġcenuval":5010,"Ġisin":5011,"Ġistien":5012,"Ã¡mie":5013,"Ġtev":5014,"Ġtear":5015,"Ġmartas":5016,"ĠÃ¡ten":5017,"ĠÃ¡valve":5018,"ĠSi":5019,"umnelme":5020,"umneltes":5021,"ĠlÃºmello":5022,"ĠPon":5023,"ĠPris":5024,"Ġsamuvar":5025,"Ġsamuval":5026,"Ãºro":5027,"Ġhanteltes":5028,"Ġhilyanet":5029,"Ġessi":5030,"ĠhrÃŃve":5031,"Ġhrestanna":5032,"ĠquÃ©tar":5033,"Ġtap":5034,"Ġrac":5035,"ĠÅŁande":5036,"ĠÅŁanwali":5037,"ĠmÃ¡tala":5038,"Ġqualuva":5039,"teli":5040,"ĠIconi":5041,"Ġmeluva":5042,"ĠapacÃ©no":5043,"Ġtalunyat":5044,"Ġloim":5045,"Ġpolcar":5046,"oson":5047,"Ġmeren":5048,"Ġexion":5049,"Ġtanana":5050,"Ġtanwal":5051,"Ġlantar":5052,"Ġlantala":5053,"Ġlantanelte":5054,"Ġlantuvar":5055,"Ġamm":5056,"ĠamÃ¡":5057,"Ġamanw":5058,"Ġlaul":5059,"Ġcama":5060,"Ġcamis":5061,"Ġcamilde":5062,"ĠyÃ¡na":5063,"ĠyÃ¡cina":5064,"ĠLan":5065,"ĠLÃº":5066,"Ġalcarnen":5067,"Ġalcarinque":5068,"ĠÃºcarner":5069,"ĠArte":5070,"aryaina":5071,"ĠNan":5072,"ĠNÃ³":5073,"ĠNanye":5074,"Ġlemner":5075,"Ġlemyane":5076,"tanael":5077,"ĠsÃ¡marya":5078,"Ġcane":5079,"Ġcanin":5080,"Ġcanwali":5081,"Ġcanasta":5082,"ĠÅŁangali":5083,"ĠÅŁanganna":5084,"Ġontar":5085,"ĠmÃ³lo":5086,"Ġearenna":5087,"ĠhÃŃno":5088,"ĠYÃºrali":5089,"Ġcaima":5090,"Ġtuce":5091,"tanenye":5092,"Ġhari":5093,"ĠnÃ³rello":5094,"ĠÃ±ar":5095,"ĠÃ±Ã©":5096,"Ġtyes":5097,"Ġpenye":5098,"Ġhroanya":5099,"Ġsavierya":5100,"uvaltes":5101,"ĠyÃ©tar":5102,"Ġrembe":5103,"ĠÃģnin":5104,"Ġnyarnelte":5105,"Ġpeanti":5106,"Ġpeantana":5107,"Ġcolle":5108,"Ġvettan":5109,"Ġvettien":5110,"Ġrui":5111,"Ġruhtaina":5112,"Ġmindo":5113,"Ġlaitala":5114,"Ġlaituva":5115,"Ġlaituvan":5116,"Ġataryanna":5117,"Ġatarelyan":5118,"ĠnÃºrol":5119,"ieryanen":5120,"Ġhanquenta":5121,"Ġnossi":5122,"Ġhlarilde":5123,"Ġtyarila":5124,"Ġhira":5125,"Ġhirner":5126,"Ġnaiquet":5127,"Ġnaicel":5128,"Ġataque":5129,"ĠMatt":5130,"yalto":5131,"Ġtelpen":5132,"Ġmilca":5133,"ĠÃºquenen":5134,"Quentette":5135,"Ġfairenya":5136,"Ġcaltane":5137,"Ġimmotur":5138,"Ġhaire":5139,"Ġhairallo":5140,"Ġvoronwe":5141,"Ġurya":5142,"cirie":5143,"panya":5144,"panyane":5145,"Ġsercen":5146,"Ġsercer":5147,"ĠmÃ©les":5148,"Ġyestanelte":5149,"Ġtuntala":5150,"Ġcestien":5151,"ĠnÃ©ÅŁa":5152,"Ġlih":5153,"Ġlaupe":5154,"ĠtÃºresse":5155,"Ġvahtana":5156,"eltassen":5157,"ĠcÃ³la":5158,"Ġnestien":5159,"Ġhorme":5160,"Ġhortala":5161,"ĠacÃ¡rier":5162,"Ġlind":5163,"Ġlinta":5164,"Ġturir":5165,"ĠhÃºna":5166,"Ġestelo":5167,"Ġillinnar":5168,"Ġraucoli":5169,"ĠErutercÃ¡noli":5170,"Ġleryane":5171,"Ġleryana":5172,"ĠnÃ¡mien":5173,"ĠnÃ¡moson":5174,"Ġhendunyat":5175,"Ġhenduldat":5176,"ĠYondon":5177,"ĠIsraelde":5178,"Ġmordo":5179,"Ġindesse":5180,"Ġvarna":5181,"Ġpalpan":5182,"Ġanaielme":5183,"Ġnahtar":5184,"Ġnahtana":5185,"Ġlarma":5186,"Ġnanwennelte":5187,"Ġemmarya":5188,"Ġquettarya":5189,"Ġarcas":5190,"Ġlamya":5191,"Ġcoirear":5192,"Ġtumyane":5193,"Ġtumyale":5194,"Ġtumyaina":5195,"Ġnass":5196,"Ġcumb":5197,"Ġyalme":5198,"ĠrÃ¡cine":5199,"Ġyomencoallo":5200,"Ġyomencoalta":5201,"quetuva":5202,"Ġsavilve":5203,"ĠnÃ³retur":5204,"ĠmÃ¡lya":5205,"Ġhyamier":5206,"Ġhimyar":5207,"Ġmapie":5208,"Ġesseryanen":5209,"Ġnorenna":5210,"quÃ©tal":5211,"Ġheren":5212,"Ġherur":5213,"Ġheruvi":5214,"ĠYÃ³na":5215,"Ġloico":5216,"ĠcÃ©na":5217,"Ġvinco":5218,"Ġvintaine":5219,"ĠAlileanna":5220,"Ġlenganer":5221,"ĠhÃ¡nonnar":5222,"ĠvÃ¡ne":5223,"ĠvÃ¡quete":5224,"ĠvÃ¡vea":5225,"Ġenortiesse":5226,"Ġtolto":5227,"Ġtoltea":5228,"Ġtiuta":5229,"ĠahlÃ¡rielme":5230,"Ġlimpevor":5231,"Ġistyo":5232,"ĠhÃŃnaldain":5233,"Ġhepien":5234,"Ġmardil":5235,"Ġmardello":5236,"Ġamillinya":5237,"Ġamillelyan":5238,"ĠÃļquen":5239,"ĠrÃºÅŁello":5240,"ĠmÃ©nannar":5241,"Ġmanwaina":5242,"ĠnÃ³nari":5243,"Ġquilta":5244,"Ġlehtien":5245,"ĠvoronwiÃ©nen":5246,"Ġnaityane":5247,"ĠocÃ³":5248,"Istala":5249,"Istalde":5250,"Ġhlaiwe":5251,"Hyama":5252,"Ġpelila":5253,"Ġpilu":5254,"ĠÃ±walyaina":5255,"estarya":5256,"ĠTehtel":5257,"ĠTehteler":5258,"ĠÃ±ottor":5259,"Ġmacillion":5260,"Ġnirmenen":5261,"ĠaÅŁaresse":5262,"Ġmanwane":5263,"Ġongweli":5264,"ĠmÃ¡nyat":5265,"Ġveuya":5266,"Ġveuyaner":5267,"ĠvÃ©raryar":5268,"Ġlaps":5269,"ĠnÃ¡reva":5270,"ĠhyamiÃ©va":5271,"Alye":5272,"erec":5273,"Ġlahtala":5274,"ĠMirrandoresse":5275,"ĠMirrandorello":5276,"ĠtÃ¡rar":5277,"Ġuruite":5278,"Ġhildonyar":5279,"ĠMaceronia":5280,"ĠMaceronianna":5281,"ĠIngaranen":5282,"Ġlisce":5283,"Ġnissin":5284,"ĠcÃ¡mine":5285,"Ġcelvar":5286,"Ġautuvat":5287,"ĠhÃŃnaryar":5288,"Ġhaimi":5289,"ĠEfesusse":5290,"ĠsailiÃ©nen":5291,"Ġfanwa":5292,"Ġfanyasse":5293,"Ġendero":5294,"firin":5295,"ĠÃ±etie":5296,"Ġamilleryo":5297,"Ġlingwili":5298,"ĠPaulon":5299,"Ġcaimalya":5300,"ĠaquÃ¡lie":5301,"ĠÃºhand":5302,"ĠtÃ©rave":5303,"ĠtercÃ¡nor":5304,"Ġlatyaina":5305,"ĠÃ±ente":5306,"Ġainocimya":5307,"Ġvendi":5308,"Ġinsanna":5309,"ĠMici":5310,"Ġtermare":5311,"ĠÃ±ottolyar":5312,"Ġfindelerya":5313,"ĠhÃ©ri":5314,"ĠfÃ¡ranna":5315,"ĠCÃ©fas":5316,"ĠquÃ©rine":5317,"ĠSandu":5318,"ĠSandÃº":5319,"ĠRehtolva":5320,"Ġhelmolpi":5321,"Ġhelmolpessen":5322,"Ġettelear":5323,"Ġhildolyar":5324,"ĠList":5325,"Ġhempe":5326,"Ġquaista":5327,"Ġlisseryo":5328,"ĠHeveryasse":5329,"Ġeffirne":5330,"Ġcundor":5331,"Ġeccoi":5332,"ĠStefÃ¡no":5333,"ĠlacenÃŃte":5334,"Ġhamunes":5335,"ĠLÃ¡sarus":5336,"Ġtambala":5337,"Ġhwer":5338,"Ġtulcana":5339,"Ġetulyaina":5340,"Ġmerendenna":5341,"ĠÅŁanyelÃ³rie":5342,"Nanwave":5343,"Ġsanwelun":5344,"Ġrincanen":5345,"Ġotsolo":5346,"ĠAndrÃ©as":5347,"ĠevÃ©rie":5348,"Ġnauta":5349,"ĠAiquen":5350,"ĠHanquen":5351,"ĠfÃŃrima":5352,"Queta":5353,"ĠonÃ³tie":5354,"Ġempanne":5355,"ĠtungwemÃ³li":5356,"Ġmaustanen":5357,"Ġmartanelyane":5358,"ĠCipru":5359,"Huore":5360,"PilÃ¡to":5361,"ĠquaihÃº":5362,"ĠeÃ±Ã©":5363,"ĠYÃ©rusale":5364,"ĠAÅŁen":5365,"Ġotoquean":5366,"ĠÃºhande":5367,"ĠIconium":5368,"!,":5369,"Atan":5370,"Avrah":5371,"AcÃ¡r":5372,"AhlÃ¡r":5373,"Can":5374,"Cor":5375,"Col":5376,"CÃ©n":5377,"Hama":5378,"In":5379,"LÃº":5380,"Melme":5381,"Nas":5382,"Nalye":5383,"Raine":5384,"Sin":5385,"Ter":5386,"Yes":5387,"Yana":5388,"Yane":5389,"cassen":5390,"denna":5391,"fr":5392,"hÃ¡":5393,"htienna":5394,"ica":5395,"itat":5396,"lin":5397,"llo":5398,"lissen":5399,"mie":5400,"mÃŃ":5401,"nan":5402,"nÃ¡":5403,"nor":5404,"nÃ¡vel":5405,"pul":5406,"pali":5407,"su":5408,"tinya":5409,"tyal":5410,"uel":5411,"vuva":5412,"vÃ©nen":5413,"vienya":5414,"yumne":5415,"Ä¦":5416,"Ä§":5417,"ĠÄ¦":5418,"anyanna":5419,"enyar":5420,"Ġnelya":5421,"Ġnwal":5422,"Ã¡lie":5423,"Ġtusse":5424,"Ġsel":5425,"Ġsoi":5426,"quasse":5427,"elto":5428,"elyo":5429,"elyala":5430,"elvan":5431,"eltanna":5432,"Ã©tan":5433,"ĠlÃŃ":5434,"Ġliel":5435,"Ġlestar":5436,"Ġcire":5437,"Ġcilde":5438,"Ġcumna":5439,"Ġhlo":5440,"ĠhÃ©n":5441,"Ġhesto":5442,"Ġques":5443,"Ġquesta":5444,"ĠquÃ³r":5445,"tauvan":5446,"Ġaval":5447,"Ãºs":5448,"Ãºva":5449,"âĢĻ":5450,"teo":5451,"Ġyu":5452,"ĠvÃ¡n":5453,"Ġviel":5454,"Ġpo":5455,"ĠpÃ©nala":5456,"iria":5457,"ilya":5458,"ilyar":5459,"oresse":5460,"ÃŃo":5461,"Ġeule":5462,"ĠuÅŁa":5463,"Ġanar":5464,"Ġantal":5465,"Ġandan":5466,"Ġantuvar":5467,"Ġantalme":5468,"Ġantalte":5469,"Ġnap":5470,"Ġnain":5471,"Ġnatal":5472,"Ġnaxan":5473,"Ġnauvalme":5474,"ĠâĢĻ":5475,"rula":5476,"titas":5477,"oll":5478,"nette":5479,"ĠEa":5480,"ĠEque":5481,"ĠEla":5482,"Ġsate":5483,"Ġquentel":5484,"ĠAnah":5485,"ĠAistana":5486,"Ġcariel":5487,"Ġcarilme":5488,"Ġcarumnes":5489,"Ġcardanen":5490,"Ġilce":5491,"Ġilyannar":5492,"Ġilfirin":5493,"ĠErunen":5494,"ettar":5495,"ĠHye":5496,"Ġintu":5497,"ĠrÃ¡m":5498,"Ġrot":5499,"tarco":5500,"imme":5501,"impe":5502,"ĠtÃºne":5503,"Mallo":5504,"Ġentasse":5505,"ĠenutÃº":5506,"Ġvevien":5507,"ĠÃºtan":5508,"ĠÃºcÃ¡rima":5509,"Ã¡nier":5510,"tosse":5511,"Ġpaca":5512,"queni":5513,"amf":5514,"Ã¡rar":5515,"talto":5516,"Ġfi":5517,"Ġfen":5518,"Ġfaica":5519,"Ġlenya":5520,"Ġlenta":5521,"pafr":5522,"ĠnÃ³telta":5523,"Ġleo":5524,"Ġlep":5525,"unya":5526,"unqua":5527,"Ġtulun":5528,"Ġtulyana":5529,"Ġtultaine":5530,"Ġtulune":5531,"Ġtulcane":5532,"aitala":5533,"aitie":5534,"Ġpanie":5535,"Ġpantie":5536,"Ġpantanes":5537,"Ġpantana":5538,"ĠpaniÃ©nen":5539,"Ġmantes":5540,"Ġment":5541,"Ġmenuvalme":5542,"Ġcotye":5543,"Ġquetila":5544,"Ġquetuvalve":5545,"Anes":5546,"Ġorir":5547,"Ġoriva":5548,"Ġets":5549,"ĠtÃºlar":5550,"lielde":5551,"Ã©ron":5552,"mende":5553,"eryava":5554,"Ġaldar":5555,"ĠMass":5556,"ĠÅŁor":5557,"ĠÅŁaure":5558,"Ġcenneltes":5559,"Ġtecin":5560,"Ġmaruva":5561,"Ġmarill":5562,"ĠÃ¡me":5563,"ĠHeroli":5564,"ĠSer":5565,"ĠSisse":5566,"ĠlÃºli":5567,"Ġsinge":5568,"Ġhlarya":5569,"ĠPamf":5570,"Ġsamie":5571,"Ġsamuvalte":5572,"Ġsamuvalve":5573,"Ġhante":5574,"Ġhanter":5575,"Ġhanyanelte":5576,"Ġhanyuvalde":5577,"Ġhilyar":5578,"Ġhilmor":5579,"Ġestanes":5580,"Ġestoli":5581,"via":5582,"Ġhran":5583,"Ġerehtie":5584,"ĠquÃ©tane":5585,"ĠquÃ©tas":5586,"Ġtain":5587,"Ġrahtane":5588,"ĠÅŁance":5589,"ĠÅŁancier":5590,"Ġninqu":5591,"Ġtarnes":5592,"ĠmÃ¡na":5593,"telya":5594,"telÃŃnen":5595,"Ġmelie":5596,"Ġmelil":5597,"Ġtallen":5598,"Ġtaluldat":5599,"Ġloali":5600,"ĠhÃ¡noron":5601,"Ġolo":5602,"Ġolva":5603,"Ġollen":5604,"ĠsÃŃte":5605,"osanna":5606,"Ġmerilme":5607,"Ġautan":5608,"Ġautie":5609,"Ġautas":5610,"Ġaucire":5611,"Ġexennar":5612,"daryasse":5613,"ielma":5614,"Ġtanasse":5615,"itte":5616,"Ġrimbar":5617,"Ġcamitas":5618,"Ġenget":5619,"Ġengelte":5620,"ĠLer":5621,"Ġcoivienya":5622,"Ġaranien":5623,"ĠÃºcarin":5624,"ĠÃºcarello":5625,"ĠÃºcarelva":5626,"ĠÃºcareltar":5627,"ĠÃºcarindoli":5628,"Ġhoman":5629,"assi":5630,"ĠNÃº":5631,"ĠNoa":5632,"Ġlemy":5633,"ĠAtaren":5634,"Ġtienyasse":5635,"Ġverio":5636,"ĠAnelte":5637,"ĠCes":5638,"Ġulcar":5639,"Ġulquete":5640,"Ġyondol":5641,"ĠsÃ¡masse":5642,"ĠsÃ¡melme":5643,"ĠsÃ¡malda":5644,"ĠÅŁangier":5645,"Ġanah":5646,"Ġnuquer":5647,"Ġqueniva":5648,"Ġontale":5649,"ĠontiÃ©no":5650,"Ġondonna":5651,"ĠmÃ³tar":5652,"ĠmÃ³la":5653,"ĠtÃ¡l":5654,"ĠYÃºran":5655,"Ġsucie":5656,"Ġsucuva":5657,"Ġnanwer":5658,"Ġnanwiello":5659,"Ġnerte":5660,"Ġnerwa":5661,"Ġnerion":5662,"ĠnÃ³rie":5663,"ĠnÃ³resse":5664,"ĠÃ±Ã³":5665,"Ġtyenna":5666,"Ġpenin":5667,"Ġendanen":5668,"Ġendanya":5669,"Ġendeltasse":5670,"Ġhroan":5671,"Ġsavielta":5672,"Ġsavieldo":5673,"ĠyÃ©tien":5674,"ĠyÃ©talve":5675,"ĠnÃ¡venna":5676,"tÃºlien":5677,"Ġnyarna":5678,"Ġnyarien":5679,"endes":5680,"Ġpeantien":5681,"Ġcolir":5682,"Ġcoluva":5683,"Ġvettala":5684,"Ġvettierya":5685,"Ġruca":5686,"Ġminar":5687,"Ġminda":5688,"Ġairimonna":5689,"Ġvalar":5690,"Ġvalali":5691,"Ġlaitien":5692,"Ġatarin":5693,"Ġataryo":5694,"ĠnÃºron":5695,"ĠnÃºroli":5696,"ĠPÃ©tero":5697,"ĠVala":5698,"Ġfailiesse":5699,"Ġhlarin":5700,"Ġhlaris":5701,"ĠcÃ¡ran":5702,"ĠcÃ¡ral":5703,"ĠcÃ¡rime":5704,"uvaste":5705,"ĠHÃ©russe":5706,"Ġorontelte":5707,"Ġorontesse":5708,"Ġorontenna":5709,"Ġorontello":5710,"Ġhiris":5711,"ĠnaiquÃ©":5712,"ĠÃ³malta":5713,"Ġlyenya":5714,"yalle":5715,"Ġexeva":5716,"Ġqualinaron":5717,"Ġyondoron":5718,"Ġyondoryar":5719,"vani":5720,"Ġtenge":5721,"tielma":5722,"Ġfairelda":5723,"Ġcalpa":5724,"Ġcaltala":5725,"tieryo":5726,"Ġnoa":5727,"Ġhata":5728,"Ġhame":5729,"Ġurd":5730,"Ġurtana":5731,"Ġrehtuva":5732,"ĠaÅŁie":5733,"ĠmÃ©nas":5734,"Ġranc":5735,"Ġrantal":5736,"Ġtunce":5737,"Ġcestar":5738,"ĠAlf":5739,"Ġtalaine":5740,"Ġlaup":5741,"ĠtÃºreryanen":5742,"Ġvat":5743,"Ġvaine":5744,"Ġvace":5745,"Ġvahtar":5746,"Ġpoitaina":5747,"Ġhlasselme":5748,"Ġtarwasse":5749,"Ġtarwallo":5750,"Ġnessar":5751,"ĠnestiÃ©va":5752,"ĠRÃ¡":5753,"Ġhortane":5754,"Ġhortale":5755,"Ġlemyas":5756,"Ġlinga":5757,"Ġturne":5758,"Ġhampa":5759,"Ġhamner":5760,"Ġhamune":5761,"Ġmahtala":5762,"Ġmahtie":5763,"Ġhenta":5764,"Ġhentaina":5765,"ĠAtanyondon":5766,"ĠOn":5767,"ĠOs":5768,"Ġetele":5769,"Ġvalaina":5770,"gwi":5771,"Ġlertal":5772,"Ġcoiviesse":5773,"ĠMÃ³senna":5774,"veryallo":5775,"Ġcendeleryanna":5776,"Ġapostelin":5777,".'âĢĿ":5778,"ĠhrÃ¡ven":5779,"ĠhrÃ¡verya":5780,"Ġmelmeva":5781,"ĠYÃ¡son":5782,"Ġindis":5783,"Ġocombin":5784,"Ġvaryala":5785,"Ġpalp":5786,"Ġpalas":5787,"Ġquetiello":5788,"Ġcosto":5789,"Ġcostie":5790,"Ġcostier":5791,"Ġlimil":5792,"Ġnanwenuva":5793,"Ġmettanna":5794,"Ġarcien":5795,"Ã©lion":5796,"Ġtumya":5797,"Ġlambi":5798,"Ġcuiva":5799,"Ġyalir":5800,"ĠrÃ¡cina":5801,"Ġmahalmallo":5802,"quetila":5803,"Ġsavien":5804,"Ġsavilde":5805,"Ġnurtaine":5806,"Ġmentauvas":5807,"ĠmÃ¡lta":5808,"ĠmÃ¡lyanen":5809,"Ġtyastaine":5810,"Ġhyamnes":5811,"ĠcÃ©nal":5812,"ĠcÃ©nina":5813,"ĠcÃ©nine":5814,"Ġnenion":5815,"Ġatwa":5816,"Ġesselyanen":5817,"corÃ©m":5818,"tulyanes":5819,"Ġneme":5820,"ĠcÃ³lina":5821,"ĠcÃ³lima":5822,"Ġparmangolmoli":5823,"Ġmauri":5824,"Ġforya":5825,"Ġforyaryasse":5826,"ĠosciriÃ©va":5827,"Ġaista":5828,"Ġpeantaina":5829,"Ġcimir":5830,"ĠvÃ¡vie":5831,"Ġhehtaina":5832,"Ġhehtuva":5833,"Ġtolo":5834,"Ġtollo":5835,"ĠNatanael":5836,"Ġsumbie":5837,"Ġcilm":5838,"Ġcille":5839,"Ġquantie":5840,"Ġantanel":5841,"ĠahlÃ¡rien":5842,"ĠahlÃ¡riel":5843,"ĠahlÃ¡rier":5844,"ĠsÃ³ve":5845,"Ġastarmo":5846,"ĠequÃ©tier":5847,"Ġistyanna":5848,"ĠhÃ¡nolma":5849,"ĠhÃŃnion":5850,"ĠÂª":5851,"Ġlantas":5852,"ĠÃļsie":5853,"Ġhravani":5854,"ĠmÃ©nal":5855,"Ġlumbe":5856,"Ġluxo":5857,"Ġapantien":5858,"ĠapantiÃ©nen":5859,"Ġmastonnar":5860,"ĠecÃ©nies":5861,"Ġnoiri":5862,"Ġlehtie":5863,"Ġocca":5864,"ĠSamÃ¡re":5865,"ĠSamÃ¡rea":5866,"Ġhlaiwar":5867,"ĠapÃ¡nien":5868,"ĠapÃ¡niel":5869,"Ġhroaryo":5870,"ĠIsraÃ©len":5871,"Lavir":5872,"Ġquetienyar":5873,"ĠSÃ¡tano":5874,"lienwa":5875,"Ġverultar":5876,"ĠYÃ³sefo":5877,"Ġhrupuhtaner":5878,"Ġaranierya":5879,"Ġruncer":5880,"Ġrundali":5881,"Ġambos":5882,"ĠaÅŁaro":5883,"ĠÃŃrenen":5884,"Ġocomnelte":5885,"ĠmÃ¡nyanen":5886,"amacil":5887,"ĠÅŁanyello":5888,"Ġlapsar":5889,"Ġhendulyat":5890,"ĠcÃŃlin":5891,"ĠcÃŃlinar":5892,"ĠettÃºler":5893,"ĠhyamiÃ©nen":5894,"Ġnampeses":5895,"Ġcollasse":5896,"Ġcollarya":5897,"Ġcollaltar":5898,"Ġvista":5899,"ĠManw":5900,"Ġlahtanes":5901,"ĠCain":5902,"Ġimmotuntie":5903,"ĠRehto":5904,"Ġhyaryaryasse":5905,"asarus":5906,"ĠlÃ©rave":5907,"ĠÅŀanyello":5908,"Ġnetyana":5909,"Ġciryam":5910,"ĠÃºpoicie":5911,"ĠMaceroniasse":5912,"Atarinya":5913,"Ãºrain":5914,"ĠlÃºmerya":5915,"Ġhenduttat":5916,"ĠÂºanye":5917,"Eruo":5918,"ĠmÃ¡rienyan":5919,"Ġpeantari":5920,"hante":5921,"hantes":5922,"Ġluhtya":5923,"Ġcelume":5924,"Ġrohtarya":5925,"Ġroccoron":5926,"Ġerdeli":5927,"Ġqualinaiva":5928,"Ġsendareo":5929,"aldaron":5930,"Ġsoval":5931,"Ġnacantelte":5932,"Ġalassenya":5933,"ĠÃįsaco":5934,"ĠhÃŃnarya":5935,"Ġpaityalerya":5936,"Ġpaityalelda":5937,"Ġetteleain":5938,"Ġvelien":5939,"Ġvelle":5940,"ĠEfesus":5941,"Ġsailar":5942,"Ġormeva":5943,"ĠÅŁÃºle":5944,"ĠindÃ³melya":5945,"ĠsÃºrinen":5946,"ĠYesus":5947,"ĠPanyuvan":5948,"Ġpitye":5949,"ĠantÃ¡ven":5950,"Ġalasselda":5951,"ĠsÃ¡vala":5952,"ĠsÃ¡velde":5953,"Ġnostaru":5954,"Ġnostaryat":5955,"Ġnostaler":5956,"ĠOrontenna":5957,"Ġlamati":5958,"ĠcÃ¡nina":5959,"Ġumne":5960,"Ġoscaitala":5961,"ĠCornelio":5962,"Ġtyelpe":5963,"ĠnÃ©ves":5964,"ĠnÃ©velte":5965,"Ġhastaine":5966,"ĠaquÃ¡lier":5967,"Ġtalent":5968,"Ġammate":5969,"Ġammatir":5970,"Ġcollattar":5971,"Ġhairave":5972,"Ġnurruner":5973,"ĠCapernaumenna":5974,"ĠIngarano":5975,"Ġandamacil":5976,"Ġinsasse":5977,"Ġrestan":5978,"Ġentulesse":5979,"Ġurdave":5980,"Ġfindele":5981,"Ġurusteva":5982,"Lendelte":5983,"hilyane":5984,"ĠicÃŃlie":5985,"Ġhessa":5986,"ĠEras":5987,"ĠÃºÅŁer":5988,"ĠÃºÅŁahtie":5989,"ĠfÃ¡rasse":5990,"ĠÅŁanyengolmor":5991,"Ġcoition":5992,"Ġsucuvan":5993,"ĠnyÃ©resse":5994,"Ġerumasse":5995,"Ġtalleltes":5996,"ĠtiutalÃ©nen":5997,"ĠIsraelindi":5998,"ĠSolomondo":5999,"ĠAcai":6000,"ĠAlati":6001,"Ġcoalyanna":6002,"Ġtarmenello":6003,"Ġtarmenissen":6004,"ĠRÃ³mea":6005,"ĠRÃ³mear":6006,"ĠSamÃ¡rio":6007,"ĠSeveraio":6008,"hlaiwa":6009,"ĠÃ±etienyan":6010,"ĠHeverya":6011,"Ġhundier":6012,"Ġeffirnes":6013,"Ġantonen":6014,"Ġsaicel":6015,"Ġsaicele":6016,"Ġrerindo":6017,"ĠasÃ¡vier":6018,"ĠParmasse":6019,"Ġeldenen":6020,"Ġneceltus":6021,"ĠhurutercÃ¡noli":6022,"ĠverulÃ³rar":6023,"ĠlalevÃŃte":6024,"Ġmiste":6025,"Ġrassion":6026,"Ġalasa":6027,"Ġmeldanya":6028,"Ġamminde":6029,"Ġnampeltes":6030,"ĠmÃ³nallo":6031,"Ġcucuar":6032,"Ġulcullo":6033,"Ġliantasseo":6034,"ĠYoppanna":6035,"ĠÅŀessalonic":6036,"Hildoryar":6037,"Ġnilda":6038,"ĠarÃ¡cie":6039,"Ġtimbareltasse":6040,"Ġappanes":6041,"ĠTars":6042,"Ġvanwiesse":6043,"ĠemÃ©lie":6044,"Ġraucoharyaina":6045,"ĠÃ±Ãºle":6046,"Ġmundoron":6047,"ĠAlÃŃle":6048,"ĠnyÃ©niron":6049,"ĠatyÃ¡rie":6050,"Ġherunyanna":6051,"ĠMelciserec":6052,"Ġhroarantaldar":6053,"ĠEruhÃŃni":6054,"ĠÃºvanima":6055,"ĠtanwalÃŃnen":6056,"ĠArtemis":6057,"Ġlaituvanyexe":6058,"Ġserceryanen":6059,"Ġyomencoaltassen":6060,"ĠcÃ©naina":6061,"pulÃºne":6062,"ĠandanÃ©ya":6063,"corÃ©mus":6064,"Ġrundalion":6065,"'?":6066,"Ana":6067,"Aistana":6068,"Cama":6069,"Etel":6070,"EcÃ©n":6071,"HÃ©":6072,"Hara":6073,"HÃ¡non":6074,"Im":6075,"Isse":6076,"Le":6077,"Ler":6078,"MÃ¡":6079,"Mer":6080,"Mai":6081,"Minya":6082,"Nu":6083,"Nalde":6084,"Nalme":6085,"Ol":6086,"Pen":6087,"Ru":6088,"SÃ¡mes":6089,"Tyar":6090,"Tai":6091,"Tana":6092,"TÃºra":6093,"Ui":6094,"Ual":6095,"Ualye":6096,"VÃ¡":6097,"Yar":6098,"Yer":6099,"aca":6100,"cesse":6101,"cerya":6102,"cind":6103,"dul":6104,"denen":6105,"deli":6106,"daiva":6107,"ean":6108,"fan":6109,"he":6110,"hor":6111,"iasse":6112,"iallo":6113,"ieryasse":6114,"mer":6115,"mÃ³":6116,"mÃ©n":6117,"moron":6118,"mÃ©o":6119,"nun":6120,"noli":6121,"osse":6122,"pine":6123,"poi":6124,"ranga":6125,"sol":6126,"sam":6127,"sello":6128,"tse":6129,"tto":6130,"ttes":6131,"toron":6132,"tilte":6133,"tuvalve":6134,"tinnar":6135,"ua":6136,"vina":6137,"vis":6138,"vallo":6139,"wes":6140,"yenna":6141,"yÃ¡vi":6142,"yÃ¡ven":6143,"arwe":6144,"anne":6145,"antien":6146,"antuva":6147,"anelme":6148,"Ġiqu":6149,"Ġnimpa":6150,"alÃ©":6151,"alie":6152,"alcar":6153,"alma":6154,"alli":6155,"altasse":6156,"Ã¡ne":6157,"ĠmÃº":6158,"Ġmesse":6159,"Ġmus":6160,"Ġmine":6161,"Ġarcar":6162,"Ġarinya":6163,"Ġarmal":6164,"Ġarpor":6165,"Ġarmaron":6166,"Ġtumne":6167,"Ġsor":6168,"Ġsis":6169,"Ġsit":6170,"Ġsarya":6171,"Ġsely":6172,"elÃº":6173,"elyar":6174,"elyanna":6175,"elvar":6176,"ĠlÃŃr":6177,"ĠlÃŃve":6178,"erquean":6179,"ĠcÃ¡no":6180,"Ġcumne":6181,"Ġhala":6182,"Ġhanda":6183,"Ġhyal":6184,"Ġhele":6185,"tami":6186,"Ġatalli":6187,"ĠyÃ³":6188,"Ġyala":6189,"ĠyÃ¡n":6190,"Ġyelde":6191,"nai":6192,"nahtar":6193,"Ġvai":6194,"Ġvello":6195,"ĠvÃ¡ra":6196,"Ġpale":6197,"Ġpoc":6198,"iro":6199,"onen":6200,"onnar":6201,"onio":6202,"vai":6203,"tanie":6204,"tandor":6205,"tandoli":6206,"Ġecien":6207,"Ġanh":6208,"Ġnamb":6209,"Ġnairesse":6210,"Ã³va":6211,"astar":6212,"met":6213,"ruva":6214,"tiu":6215,"tielya":6216,"olis":6217,"ĠYen":6218,"ĠYesse":6219,"ĠYos":6220,"ĠYanna":6221,"ĠEul":6222,"ĠEli":6223,"yanten":6224,"ĠAv":6225,"ĠAta":6226,"ĠAna":6227,"ĠAir":6228,"ĠAris":6229,"ĠAio":6230,"ĠAÅŁar":6231,"Ġcari":6232,"Ġcarion":6233,"Ġcaruval":6234,"Ġcarumne":6235,"Ġcarnelme":6236,"Ġcarpala":6237,"Ġcarieltan":6238,"Ġcarpie":6239,"Ġotor":6240,"Ġohtal":6241,"Ġyace":6242,"Ġilau":6243,"Ġilquasse":6244,"Ġmaxe":6245,"Ġmaquetin":6246,"Ġinya":6247,"Ġinsa":6248,"Ġintya":6249,"Ġintenna":6250,"usto":6251,"Ġrind":6252,"Ġrimpa":6253,"Ġrihta":6254,"Aran":6255,"Arcan":6256,"Ġyeva":6257,"Ġenne":6258,"Ġencaras":6259,"ÅŁina":6260,"ĠÃºm":6261,"ĠÃºna":6262,"ĠÃºpe":6263,"ĠÃºnen":6264,"ĠÃºanwe":6265,"Ġmitye":6266,"Ġpai":6267,"amme":6268,"amnor":6269,"talyar":6270,"talle":6271,"Ġfanya":6272,"Ġfele":6273,"ĠfÃ¡rie":6274,"Ġlenda":6275,"care":6276,"Ġtultaina":6277,"ĠtuliÃ©nen":6278,"Ġtulyanes":6279,"Ġtulyaner":6280,"Ġtulumnes":6281,"Ġtulyaina":6282,"Ġtulcala":6283,"ĠtulÃºna":6284,"Ġpanta":6285,"Ġpantaner":6286,"Ġpanyalde":6287,"Ġpanyuvan":6288,"mapien":6289,"Ġmanc":6290,"Ġmenne":6291,"Ġmenuva":6292,"Ġmentana":6293,"Ġmentanen":6294,"Ġmenieltan":6295,"ĠÃŃta":6296,"Ġcotum":6297,"Antan":6298,"cavo":6299,"Ġortu":6300,"Ġasca":6301,"Ġastassen":6302,"Ġety":6303,"ĠtÃºlan":6304,"ĠtÃºlel":6305,"liel":6306,"com":6307,"Ġmiru":6308,"Ġimmen":6309,"ĠMillo":6310,"ĠMerin":6311,"ĠÅŁar":6312,"ĠÅŁin":6313,"ĠceniÃ©nen":6314,"Ġcennelde":6315,"ĠHristor":6316,"cear":6317,"cio":6318,"ciÃ©va":6319,"citas":6320,"Ġnance":6321,"ĠnancÃ¡r":6322,"Ġisistie":6323,"Ã¡melte":6324,"Ġnarta":6325,"Ġnarcan":6326,"Ġtecien":6327,"Ġmarcir":6328,"Ġmartuvas":6329,"Ġmarilla":6330,"Ġquetiel":6331,"Ãģte":6332,"Ãģvalye":6333,"ĠSina":6334,"ĠSion":6335,"ĠSos":6336,"ĠSinen":6337,"ĠSiri":6338,"ĠSilv":6339,"ĠlÃºsse":6340,"Ġsintel":6341,"Ġsintelde":6342,"Ġhlus":6343,"ĠPer":6344,"ĠPet":6345,"ĠÃ³r":6346,"Ġsampe":6347,"Ġsamieltan":6348,"Ġsamielvan":6349,"Ġsinapio":6350,"ĠhanquÃ©tal":6351,"Ġhildoli":6352,"Ġela":6353,"Ġnauvat":6354,"Ġestol":6355,"Ġerta":6356,"Ġerume":6357,"ĠquÃ©talte":6358,"laur":6359,"Ġsende":6360,"Ġsenwa":6361,"Ġtais":6362,"Ġrap":6363,"Ġramba":6364,"ĠÅŁanya":6365,"Ġtaruva":6366,"ĠmÃ¡o":6367,"Ġqualine":6368,"Ġqualuvalde":6369,"Ġquallelte":6370,"Ġepem":6371,"ĠItali":6372,"ĠIquin":6373,"Ġmelin":6374,"Ġmelilde":6375,"Ġmelilve":6376,"Ġtalar":6377,"Ġtaluryat":6378,"Ġlombe":6379,"Ġloima":6380,"Ġapp":6381,"ĠapÃ¡rie":6382,"Ġosti":6383,"Ġpoluvalde":6384,"Ġyaron":6385,"Ġoloresse":6386,"ĠsÃŃti":6387,"osta":6388,"ĠFor":6389,"Ġmerila":6390,"Ġaup":6391,"Ġautalde":6392,"uvanes":6393,"uvanyet":6394,"ieltasse":6395,"ielman":6396,"Ġtananna":6397,"Ġlane":6398,"Ġlantie":6399,"Ġlantanen":6400,"Ġlannel":6401,"Ġlantiello":6402,"Ġlannion":6403,"Ġlantelya":6404,"ĠamÃ¡p":6405,"Ġlahtie":6406,"Ġairil":6407,"Ġairit":6408,"ĠairelÃŃr":6409,"yondo":6410,"Ġcamnelte":6411,"Ġcamilve":6412,"Ġcamielvan":6413,"Ġengwe":6414,"ĠyÃ¡ma":6415,"ĠyÃ¡ver":6416,"ĠyÃ¡vel":6417,"ĠLisse":6418,"Ġalcarelta":6419,"Ġalcareryasse":6420,"Ġcoite":6421,"Ġcoiva":6422,"Ġcoitas":6423,"Ġaranier":6424,"Ġatannar":6425,"Ġatannahtar":6426,"Ġatanyondo":6427,"ĠÃºcaril":6428,"ĠÃºcareldar":6429,"Ġhocir":6430,"ĠArima":6431,"Ġununte":6432,"Ġaurenna":6433,"Ġantave":6434,"Ġantaine":6435,"Ġantauvar":6436,"Ġlemie":6437,"Ġlemnelme":6438,"Ġlemyuvan":6439,"ĠTer":6440,"ĠTie":6441,"ĠTul":6442,"ĠTur":6443,"ĠTri":6444,"ĠAtarelya":6445,"Ġceu":6446,"Ġverie":6447,"Ġverca":6448,"Ġverce":6449,"Ġvertaine":6450,"Ġveruvi":6451,"Ġpete":6452,"ĠAnnas":6453,"Ġlendan":6454,"ĠCe":6455,"ĠCrÃ©":6456,"Ġulum":6457,"Ġulyaina":6458,"Ġulqui":6459,"Ġulquetie":6460,"Ġnamiesse":6461,"Ġnampen":6462,"Ġyondoli":6463,"ĠsÃ¡men":6464,"ĠsÃ¡tine":6465,"ĠsÃ¡melve":6466,"ĠsÃ¡malya":6467,"ĠÅŁangan":6468,"ĠÅŁangasse":6469,"Ġnute":6470,"Ġvantea":6471,"Ġsucir":6472,"Ġtuc":6473,"Ġtui":6474,"Enyala":6475,"Ennoli":6476,"Ġcastas":6477,"Ġharyuvar":6478,"ĠnÃ³ressen":6479,"ĠhÃ¡noryo":6480,"ĠÃ±on":6481,"Ġmundo":6482,"ĠtyÃ¡ve":6483,"Ġpenya":6484,"Ġpenter":6485,"Ġpennelte":6486,"Ġpenielta":6487,"Ġendan":6488,"Ġendanyasse":6489,"Ġhroalda":6490,"Ġhroaldar":6491,"ĠyÃ©tie":6492,"Ġremma":6493,"ĠÃģtar":6494,"ĠÃģsa":6495,"ĠÃģsi":6496,"ĠÃģron":6497,"ĠÃģvalye":6498,"Ġnyarie":6499,"Ġnyardan":6500,"Ġaccas":6501,"Ġpeantal":6502,"ĠpeantiÃ©nen":6503,"Ġpeantalli":6504,"Ġcolis":6505,"Ġvettanes":6506,"Ġrus":6507,"Ġrucir":6508,"Ġruive":6509,"ĠruciÃ©nen":6510,"Ġruciesse":6511,"ĠruciÃ©no":6512,"Ġminyar":6513,"ĠminnÃ³na":6514,"ĠairimÃ³va":6515,"Ġsito":6516,"Ġlaitan":6517,"Ġlaitar":6518,"ĠlaitiÃ©no":6519,"Ġatarelva":6520,"ĠVo":6521,"ĠVenya":6522,"Ġsane":6523,"Ġsanan":6524,"Ġsanal":6525,"Ġsannes":6526,"SÃŃs":6527,"ĠfailiÃ©nen":6528,"ĠfailiÃ©no":6529,"Ġfailierya":6530,"Ġhlara":6531,"Ġhlaruvar":6532,"ĠÅŀia":6533,"Ġtyarin":6534,"Ġtyarie":6535,"ĠcÃ¡ras":6536,"ĠHÃ©run":6537,"Ġorontinnar":6538,"Ġhirie":6539,"Ġhirien":6540,"Ġhiruvalde":6541,"Ġnaiquete":6542,"ĠÃ³mali":6543,"Ġcordanna":6544,"Ġataqui":6545,"ĠMattat":6546,"mielte":6547,"ĠvÃ©rave":6548,"Ġyance":6549,"Ġyanallo":6550,"Ġyancali":6551,"Ġmilcie":6552,"Ġqualinion":6553,"Ġpustala":6554,"Ġpustanes":6555,"Ġteng":6556,"Ġtengw":6557,"ĠtÃºrea":6558,"Ġettule":6559,"NÃ¡ne":6560,"tielta":6561,"tieltasse":6562,"tielvan":6563,"Ġfairen":6564,"Ġfairenna":6565,"Ġfairerya":6566,"Ġfaireryanen":6567,"Ġcalta":6568,"Ġcalca":6569,"Ġcalmaltar":6570,"Ġvenesse":6571,"donyar":6572,"Ġnota":6573,"Ġnotin":6574,"Ġimmosse":6575,"Ġmola":6576,"Ġmolien":6577,"Ġmoliel":6578,"Ġmolila":6579,"Ġhaur":6580,"Ġhatien":6581,"ĠhatiÃ©nen":6582,"Ġvoronwa":6583,"Ġvorondar":6584,"Ġurde":6585,"Ġrehtiel":6586,"ĠrehtiÃ©no":6587,"panyanes":6588,"Ġranto":6589,"Ġrantali":6590,"Ġrances":6591,"Ġcestanes":6592,"Ġyenter":6593,"ĠnÃ©ve":6594,"Ġcirie":6595,"Ġcirihta":6596,"ĠAlve":6597,"Ġelmendar":6598,"Ġelmendali":6599,"Ġliello":6600,"Ġnancaruva":6601,"Ġlautala":6602,"Ã³messen":6603,"ĠtÃºrar":6604,"Ġvahtaina":6605,"Ġvaimar":6606,"ĠFarisali":6607,"ĠÃºcareva":6608,"eltainen":6609,"Ġcaramp":6610,"Ġhlassel":6611,"Ġtarwello":6612,"Ġtarwantur":6613,"Ġness":6614,"Ġnestala":6615,"ĠSÃŃmeon":6616,"Ġhortie":6617,"Ġhortalme":6618,"Ġendalyanen":6619,"Ġendaltanen":6620,"Ġluntenna":6621,"Ġluntenen":6622,"Ġluntello":6623,"ĠrÃºcala":6624,"Ġturcor":6625,"ĠturÃºna":6626,"Ġturcon":6627,"ĠhÃºra":6628,"Ġoantie":6629,"Ġestelelva":6630,"Ġsarte":6631,"Ġhentane":6632,"ĠErutercÃ¡noin":6633,"Ilqua":6634,"Ġesseo":6635,"ĠOnÃ³":6636,"Ġeteles":6637,"Ġetelelya":6638,"Ġquerie":6639,"Ġquerir":6640,"Ġlertan":6641,"Ġlertane":6642,"Ġlertalde":6643,"Ġhendelyasse":6644,"Ġortauva":6645,"Ġlastalde":6646,"ÅŁeallo":6647,"Ġapostelion":6648,"Ġapostelinnar":6649,"Ġlisseo":6650,"ĠhrÃ¡venna":6651,"ĠhrÃ¡venya":6652,"ĠnÃºromoli":6653,"Ġindenna":6654,"Ġocombessen":6655,"Ã¡vala":6656,"Ã¡vien":6657,"Ġlelyas":6658,"Ġvartane":6659,"Ġvarnas":6660,"Ġpalan":6661,"Ġpalie":6662,"Ġpalle":6663,"Ġanaielte":6664,"ĠÃ¡nin":6665,"Ġairimosse":6666,"Ġlarmanen":6667,"Ġnanwenuvan":6668,"Ġquettaron":6669,"Ġmetse":6670,"Ġarcuva":6671,"Ġarcalve":6672,"Ġlamyuva":6673,"Ġyondotya":6674,"Ġlambe":6675,"Ġaxannen":6676,"Ġtyerne":6677,"Hanquentelte":6678,"Ġyalie":6679,"Ġyalien":6680,"Ġyaldelte":6681,"Ġmahalmo":6682,"Ġsavin":6683,"Ġsavis":6684,"Ġnurtana":6685,"Ġsestier":6686,"Ġpaityuva":6687,"Ġcomyala":6688,"Ġcomyaner":6689,"Ġhyamilde":6690,"Ġserceo":6691,"ĠcÃ©nelÃ³rar":6692,"Ġneni":6693,"Ġhimyane":6694,"Ġhimyalde":6695,"Ġhimyuvas":6696,"Ġattan":6697,"ĠatÃ¡r":6698,"Ġmapuvan":6699,"Ġesseryasse":6700,"Ġnoresse":6701,"Ġmatuvalde":6702,"Ġmattalta":6703,"Ġmatson":6704,"Ġroitane":6705,"Ġroitien":6706,"ĠamyÃ¡rannar":6707,"Ġloitaner":6708,"Ġneve":6709,"Ġnemne":6710,"Ġcalava":6711,"ĠcÃ³lar":6712,"ĠcÃ³lenen":6713,"Ġparmangolmoron":6714,"Ġmaureryar":6715,"Ġformalya":6716,"Ġoscirne":6717,"Ġainor":6718,"Ġainoli":6719,"Ġvinim":6720,"Ġvinimo":6721,"Ġetementane":6722,"Ġpeantaine":6723,"Ġcimie":6724,"Ġcimner":6725,"Ġcimilde":6726,"ĠÃºfail":6727,"ĠÃºfaile":6728,"ĠnÃºroryannar":6729,"Ġcaitumnelte":6730,"ĠIllume":6731,"Ġhravo":6732,"Ġenortale":6733,"Ġenortuvanyes":6734,"ĠenortÃ¡ve":6735,"Ġhehtanes":6736,"Ġhehtaner":6737,"Ġhehtanette":6738,"Ġtelpeo":6739,"Ġtelpeva":6740,"Ġtolu":6741,"Ġcardassen":6742,"ĠNat":6743,"Ġlempea":6744,"Ġtiutaine":6745,"Ġcilin":6746,"Ġantanetye":6747,"Ġastari":6748,"Ġnucumne":6749,"Ġnucume":6750,"ĠhÃŃnanya":6751,"ĠacÃ¡mien":6752,"ĠacÃ¡miel":6753,"ĠacÃ¡mielde":6754,"Ġtom":6755,"Ġtope":6756,"hatin":6757,"hatis":6758,"ĠHristonna":6759,"Ġistyava":6760,"ĠÃļcar":6761,"ĠmÃ©timar":6762,"colcasse":6763,"Ġapantana":6764,"ĠFaireo":6765,"Ġmastar":6766,"Ġmastollo":6767,"Ġfeu":6768,"Ġfear":6769,"Ġfeanya":6770,"Ġtulcaine":6771,"ĠyÃ¡linar":6772,"Ġnoirisse":6773,"Ġquildesse":6774,"Ġpityave":6775,"Ġlehtane":6776,"Ġehen":6777,"Ġehtel":6778,"Ġehehtie":6779,"ĠEnge":6780,"Ġimnet":6781,"ĠSama":6782,"ĠlÃ³missen":6783,"Ġerdeo":6784,"ĠÃ±walyaine":6785,"lienwe":6786,"ĠUalde":6787,"estara":6788,"Ġatariltar":6789,"Ġnucumie":6790,"Ġnucumnie":6791,"Ġhrupuhtal":6792,"ĠQuet":6793,"Ġaranienna":6794,"Ġveriryo":6795,"Ġhlasset":6796,"Ġoantette":6797,"ĠfÃ³li":6798,"Ġmanwana":6799,"ĠÃŃrime":6800,"ĠhlÃ¡ralde":6801,"ĠFilipp":6802,"ĠFilipenna":6803,"ĠnÃºromolienya":6804,"Ġvaldea":6805,"ĠpÃ¡lala":6806,"ĠpÃ¡line":6807,"Ġenyalin":6808,"Ġveuyane":6809,"Ġtirne":6810,"Ġtirner":6811,"Ġlelyan":6812,"Ġsercesse":6813,"Ġsercello":6814,"Ġhendultanten":6815,"ĠsÃºcala":6816,"ĠEruiono":6817,"Ġinsenen":6818,"Ġvistane":6819,"Ġvistaina":6820,"ĠnÃ¡rwa":6821,"ĠnÃ¡rnen":6822,"ĠEuleva":6823,"ĠAnaro":6824,"Ġcoaryo":6825,"Ġcoaryallo":6826,"Ġamartier":6827,"Ġlahtaner":6828,"ĠnÃŃrelissen":6829,"ĠliyÃº":6830,"Ġetelendelte":6831,"Ġetelendelde":6832,"ĠmorniÃ©no":6833,"ĠMirrandoro":6834,"ĠMirrandorenna":6835,"nÃ³time":6836,"ĠÃºcarindoron":6837,"Ġulcuva":6838,"Ġulcun":6839,"Ġulcunen":6840,"ĠVetÃ¡n":6841,"ĠrÃºÅŁeo":6842,"ĠrÃºÅŁeva":6843,"Ġnetya":6844,"Ġneterquean":6845,"ĠtÃ¡ri":6846,"ĠtÃ¡rane":6847,"Ġsanweltar":6848,"Ataril":6849,"Ġtinwion":6850,"Ġtehteler":6851,"ĠlÃºmeli":6852,"Ġnission":6853,"Aiqua":6854,"Ġfastane":6855,"Ġfastala":6856,"Ġhandeo":6857,"Ġtalyatse":6858,"ĠnÃ©ÅŁar":6859,"Hlara":6860,"parma":6861,"Ġluhtanes":6862,"ĠrelyÃ¡vi":6863,"Ġtecet":6864,"ĠhlÃŃv":6865,"ĠhlÃŃve":6866,"Ġerderya":6867,"ĠÃ±ete":6868,"ĠhyÃ³la":6869,"ĠtÃ³pina":6870,"Ġsova":6871,"Ġsove":6872,"ĠrÃ©ryar":6873,"Ġpanyanette":6874,"ĠolÃ³lier":6875,"Ġlancoar":6876,"Ġampit":6877,"ĠNasaret":6878,"Ġcempali":6879,"Ġsavieldanen":6880,"Ġsarnollo":6881,"Ġpaityalelta":6882,"Ġanwave":6883,"ĠHepa":6884,"Ġquettanyar":6885,"Ãĵma":6886,"Ġlelyuvan":6887,"Ġamilleryan":6888,"ĠÃļyÃºrain":6889,"Ġlalane":6890,"Ġintyala":6891,"Ġintyalde":6892,"Ġmelehtenen":6893,"ĠnostalÃ©lion":6894,"Ġetemenne":6895,"Ġetemennes":6896,"ĠrelyÃ¡val":6897,"ĠcÃ¡nala":6898,"ĠElÃŃan":6899,"Ġantoryame":6900,"Ġsalquec":6901,"Ġhosseturconna":6902,"tyarnes":6903,"tuvalden":6904,"ĠAsiallo":6905,"ĠÃºairi":6906,"Ġfalasse":6907,"Ġastova":6908,"ĠMentan":6909,"ĠtercÃ¡n":6910,"ĠyÃ¡verya":6911,"ĠutÃºliel":6912,"ĠutÃºlielde":6913,"Ġnanwennette":6914,"ĠihÃŃrie":6915,"ĠihÃŃrien":6916,"ĠCapernaumesse":6917,"ĠÃºlÃ©vim":6918,"Ġvenden":6919,"ĠsailiÃ©no":6920,"Ġrahtala":6921,"ĠCaraxo":6922,"Ġrembettar":6923,"ĠÃ±ottolya":6924,"ĠLamascus":6925,"Ġimbacind":6926,"Ġhaiya":6927,"Ġiltance":6928,"ĠasÃ¡mie":6929,"ĠasÃ¡mielde":6930,"Ġcaurie":6931,"ĠOlca":6932,"ĠOlco":6933,"ĠnyÃ©renen":6934,"ĠminaÅŁ":6935,"Ġhalma":6936,"ĠquÃ©rina":6937,"ĠEhen":6938,"Ġcarpalte":6939,"ĠmÃ©nassen":6940,"Ġnissenen":6941,"Ġquaptalesse":6942,"ĠRehtolvo":6943,"ĠquÃ¡rel":6944,"Ġevettie":6945,"ĠAcaia":6946,"Ġlepenque":6947,"ĠetÃ©cie":6948,"ĠetÃ©cien":6949,"ĠMilpi":6950,"ĠMilpier":6951,"Ġolvarya":6952,"Ġtannesexe":6953,"Ġherultar":6954,"ĠSamÃ¡ria":6955,"ĠihÃŃlier":6956,"Ġcalmatarmasse":6957,"appi":6958,"tÃ¡la":6959,"Ġnuldasse":6960,"Ġsuncelte":6961,"ĠnÃ¡mondur":6962,"Ġeleng":6963,"Ġelentir":6964,"Ġnattoldar":6965,"ĠlacenÃŃti":6966,"ĠLÃ©vi":6967,"ĠÃºcarelvar":6968,"Ġcanwara":6969,"ĠVÃ¡velenna":6970,"Ġyangwasse":6971,"Ġnisqueo":6972,"ĠhurutercÃ¡no":6973,"ĠLÃ¡saro":6974,"Cennen":6975,"Herunya":6976,"ĠavÃ¡nie":6977,"Ġvilya":6978,"ĠanyÃ¡rie":6979,"ĠanyÃ¡rien":6980,"Ġangaina":6981,"Ġcarnelyane":6982,"Ġfindil":6983,"ĠasÃ¡vie":6984,"ĠasÃ¡ties":6985,"ĠSorom":6986,"Ġmeldanyar":6987,"Ġpoldore":6988,"Ġamminda":6989,"ĠCanÃ¡":6990,"Ġquernexe":6991,"Ġcucua":6992,"Ġalahas":6993,"ĠehÃ©pien":6994,"Ġimmotuntielta":6995,"ĠYoppasse":6996,"ĠamyÃ¡rain":6997,"ĠÅŀessalonicasse":6998,"Teca":6999,"Ġquorner":7000,"Ġementa":7001,"ĠAlexander":7002,"ĠAlexandri":7003,"ĠhantalÃ©nen":7004,"Ġoloitie":7005,"Ġlanneo":7006,"Ġundumeo":7007,"Ġharmaryallo":7008,"Ġnyardala":7009,"Ġlaicelda":7010,"Ġoialea":7011,"ĠRÃ³messe":7012,"Ġturquime":7013,"Ġpalpaina":7014,"ĠÅŁÃºlenen":7015,"ĠCorintesse":7016,"fÃŃrula":7017,"allelÃº":7018,"Ġtieryar":7019,"Ġliltane":7020,"Ġmaquetier":7021,"Ġcoituvalve":7022,"Ġmartyaina":7023,"ĠSalmon":7024,"Ġlanneryar":7025,"ĠNamiÃ©va":7026,"Ġnampait":7027,"ĠLaoriceasse":7028,"ĠtumyalÃ©nen":7029,"Ġcurunen":7030,"Ġnurreli":7031,"ĠsestielÃŃnen":7032,"HÃŃna":7033,"Rimbali":7034,"cundo":7035,"Ġtorye":7036,"Ġcauma":7037,"ĠnÃ¡maina":7038,"Ġfirne":7039,"ĠNancar":7040,"Ġcanastatur":7041,"Ġtyestaina":7042,"ĠMattÃ©o":7043,"Ġimmoturie":7044,"Ġsercenya":7045,"Ġlimpevorma":7046,"ĠÃºhandie":7047,"ĠSandÃºcearon":7048,"ĠListra":7049,"ĠYÃ©rusalemenna":7050,"Avraham":7051,"mÃŃno":7052,"Ġhloirea":7053,"Ġavaler":7054,"ĠvÃ¡ner":7055,"Ġnapsa":7056,"ĠAnahristo":7057,"Ġrotto":7058,"ĠMassaron":7059,"ĠPamfili":7060,"Ġnanwerenen":7061,"Ġrancuryat":7062,"ĠOntie":7063,"Ġetelehta":7064,"ĠAcaiasse":7065,"ĠTarsus":7066,"ĠAlÃŃlea":7067,"HÃ¡nonyar":7068,"Ġiquindo":7069,"alÃ©mo":7070,"Ġmussi":7071,"Ġhelexe":7072,"ĠnambÃŃre":7073,"ĠAristarco":7074,"Ġilaurea":7075,"Ġrindesse":7076,"ĠMilloaldaron":7077,"ĠnancÃ¡rine":7078,"Ġmarcirya":7079,"ĠSilvÃ¡no":7080,"Ġestolie":7081,"ĠArimaÅŁeallo":7082,"Ġcastasta":7083,"ĠVenyamÃŃno":7084,"ĠMilpieron":7085,"allelÃºya":7086,"!âĢĻ":7087,"),":7088,",\"":7089,"..":7090,"ApÃ¡n":7091,"Appa":7092,"Auri":7093,"Ce":7094,"Ces":7095,"Cana":7096,"Es":7097,"EquÃ©":7098,"Fa":7099,"Fe":7100,"Fah":7101,"Hir":7102,"Hyane":7103,"Hyana":7104,"HÃ©ru":7105,"Hira":7106,"Hosanna":7107,"HallelÃºya":7108,"Imne":7109,"Len":7110,"Lai":7111,"Lelyala":7112,"MÃ³":7113,"Melda":7114,"MÃ¡ra":7115,"Minyave":7116,"Ni":7117,"Otso":7118,"Pol":7119,"Tar":7120,"Tenna":7121,"Ul":7122,"Vet":7123,"Yal":7124,"YÃºr":7125,"ava":7126,"apa":7127,"cuvar":7128,"cÃ³m":7129,"cÃ¡ra":7130,"di":7131,"dier":7132,"dalta":7133,"eo":7134,"ftali":7135,"fimo":7136,"ht":7137,"her":7138,"hte":7139,"hus":7140,"htien":7141,"hÃŃr":7142,"hia":7143,"ivi":7144,"lenen":7145,"lelme":7146,"lalme":7147,"lelve":7148,"laner":7149,"mum":7150,"mion":7151,"melda":7152,"mmanen":7153,"nane":7154,"oin":7155,"pilde":7156,"rio":7157,"sor":7158,"sau":7159,"tÃ©":7160,"til":7161,"tyane":7162,"tyanes":7163,"tilla":7164,"tsol":7165,"uine":7166,"uca":7167,"uyaron":7168,"vul":7169,"vuvar":7170,"wenna":7171,"xon":7172,"yello":7173,"ĠĠ":7174,"aret":7175,"area":7176,"ande":7177,"antes":7178,"ente":7179,"enyan":7180,"Ġnun":7181,"aldo":7182,"alima":7183,"alyo":7184,"altiel":7185,"alÃ³re":7186,"Ã¡va":7187,"Ã¡co":7188,"Ã¡tie":7189,"Ã¡tina":7190,"Ã¡nas":7191,"Ġarna":7192,"Ġartar":7193,"Ġarmaltar":7194,"Ġtire":7195,"Ġtanen":7196,"Ġtielta":7197,"Ġtyet":7198,"Ġteldave":7199,"Ġsimp":7200,"quar":7201,"quil":7202,"quÃ©rala":7203,"quante":7204,"elli":7205,"eleh":7206,"elyen":7207,"eldanna":7208,"Ã©a":7209,"Ã©tima":7210,"inesse":7211,"inco":7212,"Ġlala":7213,"ĠlÃ©n":7214,"Ġland":7215,"ĠlÃ¡r":7216,"Ġlur":7217,"Ġlum":7218,"Ġlumne":7219,"Ġlelye":7220,"Ġlandar":7221,"yacim":7222,"ĠcÃº":7223,"Ġcul":7224,"Ġcile":7225,"Ġcelva":7226,"ĠcÃºna":7227,"Ġhin":7228,"Ġhli":7229,"Ġhesta":7230,"Ġhinna":7231,"estonna":7232,"esron":7233,"estalta":7234,"Ġquar":7235,"Ġquam":7236,"Ġquali":7237,"Ġquestar":7238,"ĠquÃ©rala":7239,"tam":7240,"tain":7241,"Ġape":7242,"Ġavan":7243,"Ġacaras":7244,"Ġacarpie":7245,"Ãºen":7246,"Ãºlo":7247,"Ġyer":7248,"Ġyanta":7249,"ĠvÃŃ":7250,"Ġveli":7251,"Ġvesta":7252,"Ġvinye":7253,"Ġvinta":7254,"Ġvestara":7255,"Ġpele":7256,"Ġpimp":7257,"ondor":7258,"ilye":7259,"ilda":7260,"ildes":7261,"ilÃŃva":7262,"ortanes":7263,"vaina":7264,"vassen":7265,"ÃŃvesse":7266,"tanien":7267,"tanÃ©ya":7268,"Ġeul":7269,"ĠuÂº":7270,"Ġuamme":7271,"Ġanan":7272,"Ġaner":7273,"Ġande":7274,"ĠanÃ¡m":7275,"Ġantuvanyes":7276,"ĠancÃ¡rima":7277,"Ġandonna":7278,"Ã³na":7279,"Ã³ni":7280,"reas":7281,"rehta":7282,"tissen":7283,"olta":7284,"olÃŃnen":7285,"olissen":7286,"ĠYusto":7287,"nea":7288,"neo":7289,"ĠEpe":7290,"ĠEpafr":7291,"loire":7292,"istala":7293,"yante":7294,"yanyasse":7295,"Ġquenissen":7296,"ĠAreo":7297,"Ġcaruvalte":7298,"Ġcariello":7299,"Ġcarindo":7300,"Ġcaritas":7301,"Ġcarpien":7302,"Ġcarumnel":7303,"Ġoire":7304,"Ġopoi":7305,"Ġyam":7306,"Ġyax":7307,"Ġyame":7308,"Ġyaim":7309,"Ġyacie":7310,"ĠyaciÃ©nen":7311,"Ġilquenna":7312,"Ġilcerya":7313,"uvat":7314,"etya":7315,"eteleh":7316,"uli":7317,"ultan":7318,"ĠHyar":7319,"ĠHorro":7320,"ĠHrÃ©":7321,"ĠHÃ©ra":7322,"ĠHesron":7323,"Ã©ner":7324,"Ġmaira":7325,"Ġmaval":7326,"Ġmaquetie":7327,"Ġmatis":7328,"Ġmaquetuva":7329,"tari":7330,"uvÃ¡vel":7331,"Ġmalo":7332,"ĠtÃºner":7333,"ĠtÃºcine":7334,"ienyan":7335,"ĠentÃº":7336,"Ġencen":7337,"Ġenyalde":7338,"ÅŁie":7339,"ÅŁea":7340,"ÅŁamb":7341,"ÅŁambe":7342,"ĠÃºf":7343,"ĠÃºnelte":7344,"ĠÃºsie":7345,"ĠÃºman":7346,"ĠÃºcÃ©n":7347,"ĠÃºnÃ³time":7348,"Ã¡nien":7349,"Ã¡nielde":7350,"Ġpacasse":7351,"talya":7352,"talÃŃnen":7353,"tallaner":7354,"Ġfar":7355,"Ġfindor":7356,"Ġlence":7357,"pahus":7358,"cara":7359,"carya":7360,"caruva":7361,"caruvas":7362,"carpala":7363,"ĠnÃ³tala":7364,"ĠnÃ³mello":7365,"unyant":7366,"Ġtulta":7367,"Ġtulyan":7368,"Ġtulcar":7369,"Ġtulila":7370,"Ġtuluvalde":7371,"Ġtulyanelte":7372,"Ġtulyalte":7373,"Ġtulcarpie":7374,"Ġpanor":7375,"Ġpanyar":7376,"Ġpantaine":7377,"ĠpantiÃ©no":7378,"Ġpanyalve":7379,"mau":7380,"mava":7381,"mapuva":7382,"Ġmananen":7383,"Ġmannen":7384,"Ġmancali":7385,"Ġmenis":7386,"Ġmentie":7387,"Ġmennes":7388,"Ġmentuva":7389,"ĠÃŃtali":7390,"Ġcombe":7391,"Ġcoanya":7392,"peo":7393,"peantala":7394,"daina":7395,"Ġseva":7396,"ĠtÃ©vine":7397,"Ġorie":7398,"Ġortaner":7399,"Ġormenen":7400,"ĠorÃ¡ve":7401,"Ġetya":7402,"Ġettan":7403,"Ġetyali":7404,"ĠetutÃº":7405,"ĠetyÃ¡":7406,"lielve":7407,"meno":7408,"Ġimna":7409,"Ġimmesse":7410,"eryainen":7411,"ĠalÃ¡":7412,"Ġalie":7413,"Ġalmar":7414,"Ġaldasse":7415,"Ġalumo":7416,"ristoli":7417,"ĠMer":7418,"ĠMÃ¡r":7419,"ĠMess":7420,"ĠMÃ©tima":7421,"ĠÅŁÃ©":7422,"ĠÅŁambe":7423,"ĠÅŁÃ¡mo":7424,"ĠÅŁÃ©ya":7425,"ĠÅŁamnor":7426,"ĠÅŁÃ©ner":7427,"Ġcend":7428,"Ġcenil":7429,"Ġcenis":7430,"cime":7431,"cienna":7432,"cieldan":7433,"Ġnanquer":7434,"ĠnancÃ¡rima":7435,"ĠnancÃ¡rala":7436,"Ġistie":7437,"Ġistuvan":7438,"Ã¡malte":7439,"Ġnartaina":7440,"Ġtevir":7441,"Ġmara":7442,"Ġmarien":7443,"Ġmarda":7444,"Ġmartanes":7445,"Ġmartumne":7446,"ĠmartiÃ©la":7447,"Ġmartumner":7448,"ĠÃ¡pan":7449,"nare":7450,"naro":7451,"Ãģsa":7452,"ĠSÃ¡r":7453,"ĠSara":7454,"ĠSilo":7455,"umnelde":7456,"ĠlÃºlissen":7457,"Ġsing":7458,"Ġsinen":7459,"Ġsingwa":7460,"nesaret":7461,"ĠhlÃ¡p":7462,"ĠÃ³nen":7463,"ĠÃ³maryanna":7464,"Ġsamuvas":7465,"Ãºror":7466,"Ġhanu":7467,"Ġhanyaner":7468,"Ġhanyuvar":7469,"QuÃ©tan":7470,"oitalde":7471,"Ġestelde":7472,"vion":7473,"ĠhrÃ³":7474,"ĠhrÃŃvesse":7475,"Ġereh":7476,"ĠquÃ©taina":7477,"ĠquÃ©tanes":7478,"laina":7479,"Ġtaur":7480,"Ġtaurar":7481,"Ġtatallaner":7482,"Ġracine":7483,"Ġtaris":7484,"Ġtarwe":7485,"Ġtaruvar":7486,"Ġtarnen":7487,"Ġtaramb":7488,"Ġtarweo":7489,"ĠmÃ¡ta":7490,"Ġqualilve":7491,"Ġqualmello":7492,"Ġqualmenen":7493,"Ġqualmerya":7494,"?âĢĿ,":7495,"telma":7496,"telessen":7497,"ĠIm":7498,"Ġmelis":7499,"Ġmeluvar":7500,"Ġmelila":7501,"Ġmelmello":7502,"Ġmeldonyar":7503,"Ġapair":7504,"Ġtalelya":7505,"Ġtaluvas":7506,"Ġtalane":7507,"Ġtalmasse":7508,"Ġtalunyant":7509,"Ġloasse":7510,"Ġlomb":7511,"Ġloallo":7512,"Ġloanna":7513,"Ġloassen":7514,"ĠapÃ¡r":7515,"ĠhÃ¡noli":7516,"Ġpolilve":7517,"Ġpollelte":7518,"Ġpolieryan":7519,"Ġollo":7520,"oss":7521,"osenna":7522,"ossen":7523,"ĠFÃ¡r":7524,"ĠFri":7525,"ĠFestonna":7526,"Ġmerende":7527,"Ġaumen":7528,"Ġautuvan":7529,"Ġautul":7530,"Ġautumnes":7531,"Ġauteal":7532,"imbe":7533,"Ġexello":7534,"Ġexelin":7535,"ĠÃĳ":7536,"ĠÃĵ":7537,"ielyar":7538,"ieldo":7539,"ielyo":7540,"ielmo":7541,"ieldasse":7542,"Ġtanw":7543,"Ġtanar":7544,"Ġtanan":7545,"Ġtanas":7546,"ĠtaniÃ©va":7547,"Ġtanumnes":7548,"ĠtanÃ¡ven":7549,"Ġlante":7550,"Ġlanca":7551,"Ġlango":7552,"Ġlantienwa":7553,"Ġlantuvalde":7554,"Ġnatwa":7555,"Ġnatton":7556,"Ġammir":7557,"Ġlaire":7558,"Ġlavi":7559,"Ġlaquentes":7560,"Ġairiva":7561,"Ġairinnar":7562,"Ġcampe":7563,"Ġcamuval":7564,"Ġcampes":7565,"Ġcamnelme":7566,"Ġcamieltan":7567,"ĠyÃ¡nasse":7568,"ĠsÃ©va":7569,"Ġmauyanelte":7570,"ĠLo":7571,"ĠLir":7572,"ĠLasarus":7573,"Ġalcarya":7574,"Ġalcaryuva":7575,"Ġcoitalve":7576,"Ġaranwa":7577,"Ġaranion":7578,"ĠÃºcaren":7579,"ĠÃºcarunqua":7580,"Ġunun":7581,"Ġunque":7582,"asso":7583,"asselde":7584,"ĠNas":7585,"ĠNyar":7586,"ĠNalte":7587,"Ġhehtaine":7588,"Ġantauvas":7589,"Ġlemyalde":7590,"Ġlemyuvas":7591,"ĠTo":7592,"ĠTal":7593,"ĠTÃ¡rar":7594,"ĠTinco":7595,"ĠAtaresse":7596,"ĠAtaryo":7597,"ĠAtareldo":7598,"ĠhÃ©pa":7599,"ĠhÃ©pine":7600,"ĠceÂº":7601,"Ġverin":7602,"Ġveruo":7603,"Ġverildar":7604,"Ġverilya":7605,"ĠCÃ¡n":7606,"ĠCÃ©nala":7607,"ĠCÃ¡malte":7608,"Ġulle":7609,"Ġnamin":7610,"Ġnamil":7611,"Ġnamne":7612,"ĠsÃ¡ne":7613,"ĠsÃ¡mar":7614,"ĠsÃ¡mel":7615,"ĠsÃ¡mala":7616,"Ġcanya":7617,"Ġcanis":7618,"Ġcannen":7619,"Ġcanwal":7620,"ĠÅŁangiesse":7621,"Ġnuta":7622,"Ġnuhtane":7623,"Ġontana":7624,"Ġontaine":7625,"Ġondon":7626,"Ġonnaron":7627,"ĠmÃ³tie":7628,"Ġvance":7629,"Ġvanime":7630,"Ġvantalve":7631,"Ġvantalme":7632,"Ġnanwienna":7633,"oronte":7634,"Ġtucuva":7635,"Ġnernen":7636,"Ġcastan":7637,"Ġcasto":7638,"Ġharna":7639,"ĠnÃ³rala":7640,"ĠnÃ³relva":7641,"ĠÃ±and":7642,"ĠÃ±au":7643,"ĠÃ±war":7644,"ĠmÃŃr":7645,"Ġmuntasse":7646,"ĠtyÃ¡vel":7647,"Ġpenilde":7648,"Ġendasse":7649,"Ġendeldasse":7650,"ĠlÃºmeo":7651,"Ġeldeva":7652,"Ġhroallo":7653,"Ġhroaron":7654,"Ġhroanyasse":7655,"uvalden":7656,"uvalyes":7657,"ĠnÃ¡velta":7658,"ĠÃģvel":7659,"Ġnyaris":7660,"Ġnyaruva":7661,"Ġnyarier":7662,"ĠmÃ¡ral":7663,"ĠmÃ¡rala":7664,"ĠmÃ¡riÃ©va":7665,"ĠmÃ¡riÃ©no":7666,"ĠacÃ¡nie":7667,"endel":7668,"enduri":7669,"Ġpeantiesse":7670,"Ġpeantierya":7671,"Ġcolde":7672,"Ġcolca":7673,"Ġcolilde":7674,"Ġcoller":7675,"Ġcolles":7676,"Ġvettaner":7677,"ĠvettiÃ©va":7678,"Ġvettoli":7679,"Ġruhtane":7680,"Ġminques":7681,"ĠminnÃ³":7682,"Ġairimollon":7683,"Ġvalarya":7684,"Ġvaltaner":7685,"Ġvalannar":7686,"Ġvalaryain":7687,"Ġlaica":7688,"Ġlaituvar":7689,"Ġlaituvas":7690,"Ġataro":7691,"Ġataryan":7692,"Ġatarinya":7693,"Ġatarelda":7694,"Ġataryallo":7695,"Ġatareldo":7696,"Ġataretta":7697,"Maquetin":7698,"ĠnÃºronya":7699,"ĠPÃ©teren":7700,"ieryar":7701,"ĠVa":7702,"ĠValime":7703,"ĠValima":7704,"Ġsanar":7705,"Ġsanas":7706,"Ġsannelme":7707,"Ġsanalve":7708,"Ġhanquentar":7709,"Ġquettatya":7710,"Ġfailaron":7711,"Ġtyara":7712,"Ġtyarner":7713,"Ġtyaruvalte":7714,"Ġtyarilte":7715,"Ġtyariello":7716,"Ġtyaruvanyet":7717,"ĠÃ¡vas":7718,"ĠÃ¡vatte":7719,"ĠÃ¡vasa":7720,"ĠcÃ¡rar":7721,"Ġmuntava":7722,"ĠYere":7723,"ĠYerus":7724,"ĠYerÃºs":7725,"Ġmenelden":7726,"Ġhirna":7727,"Ġhirnen":7728,"Ġhirnelme":7729,"Ġhiruvaste":7730,"dannar":7731,"Ġnaiquente":7732,"ĠÃ³manyanna":7733,"nice":7734,"noc":7735,"Ġnaldie":7736,"Ġattasse":7737,"malda":7738,"mallon":7739,"yaldes":7740,"Ġtelien":7741,"Ġtelyala":7742,"Ġtelmello":7743,"Ġyannar":7744,"ĠAtanillon":7745,"monnar":7746,"Ġmilyar":7747,"Ġmilce":7748,"Ġmilyala":7749,"Ġmilyalde":7750,"Ġmaitar":7751,"Ġmaitana":7752,"mante":7753,"mannar":7754,"manten":7755,"Ġyondoryan":7756,"ĠÅŀanyen":7757,"Ġpustaner":7758,"Ġantanexe":7759,"vannar":7760,"Ġtences":7761,"Ġilqueno":7762,"ĠYohÃ¡n":7763,"ĠYohÃ¡non":7764,"ĠtÃºreva":7765,"Ġettira":7766,"Ġettula":7767,"NÃ¡la":7768,"tielve":7769,"Ġfairello":7770,"Ġfaireli":7771,"Ġfairellon":7772,"tolion":7773,"Ġcalanna":7774,"Ġcalyaina":7775,"Ġveneli":7776,"ĠhÃ©reo":7777,"Ġmolindor":7778,"Ġmolielda":7779,"Ġhat":7780,"Ġhatie":7781,"Ġhatuva":7782,"Ġhatumne":7783,"Ġhatuvalte":7784,"Ġurna":7785,"Ġurtane":7786,"cirna":7787,"paner":7788,"Ġserien":7789,"ĠaÅŁcen":7790,"ĠaÅŁcÃ©n":7791,"Ġrantanna":7792,"Ġyestala":7793,"Ġtuntan":7794,"Ġtuncer":7795,"Ġcestane":7796,"Ġyentelte":7797,"ĠIstan":7798,"ĠIscÃ¡r":7799,"ĠIstalve":7800,"Ġcirne":7801,"Ġcirca":7802,"Ġciryo":7803,"Ġcirnelte":7804,"Ġciryasse":7805,"ĠAlde":7806,"ĠAlye":7807,"ĠAllio":7808,"Ġoialie":7809,"Ġliv":7810,"morra":7811,"Ġcarnet":7812,"Ġcarnette":7813,"ĠtÃºrelta":7814,"Ġvahtaine":7815,"Ġpoitie":7816,"Ġpoitien":7817,"Ġpoitana":7818,"ĠFarisannar":7819,"Ġtarwenen":7820,"Ġtarwaryasse":7821,"ĠmÃ³ler":7822,"ĠErulis":7823,"cennen":7824,"ĠRe":7825,"ĠRÃº":7826,"ĠRam":7827,"ĠRaine":7828,"Ġhortal":7829,"Ġendalyasse":7830,"uhtie":7831,"ĠrÃºcina":7832,"Ġturi":7833,"Ġturie":7834,"Ġturien":7835,"ĠhÃºta":7836,"ĠhÃºtie":7837,"Ġhammar":7838,"Ġhammer":7839,"Ġestelinya":7840,"Ġestelden":7841,"Ġestelelta":7842,"Ġestelelma":7843,"Ġmahtaner":7844,"Ġsarni":7845,"Ġhendo":7846,"Ġhentea":7847,"Ġrainecar":7848,"ĠOnes":7849,"ĠOtso":7850,"ĠOtsol":7851,"ĠOmorra":7852,"Ġetelely":7853,"ĠquÃ¡taina":7854,"Ġvalate":7855,"Ġahanen":7856,"ĠahÃ¡mie":7857,"ĠÅŁangain":7858,"ĠnÃ¡venyan":7859,"Ġlertas":7860,"Ġlertalve":7861,"Ġlertalme":7862,"ĠnÃ¡mienya":7863,"Ġapostolion":7864,"Ġcoivielda":7865,"Ġhendion":7866,"Ġhenduryat":7867,"ĠMÃ³sen":7868,"ĠMÃ³sello":7869,"verias":7870,"Ġlastala":7871,"Ġlastien":7872,"Ġlastanelte":7873,"Ġhure":7874,"Ġhuine":7875,"Ġcendelesse":7876,"Ġcendelelya":7877,"Ġcendelelta":7878,"ĠhrÃ¡venyasse":7879,"ĠÅŀanyeva":7880,"Ġocombion":7881,"Ġocombenduri":7882,"Ġnelmo":7883,"Ġvartumne":7884,"Ġanaiel":7885,"Ġanaielve":7886,"ĠÃ¡nien":7887,"ĠnÃºte":7888,"ĠnÃºti":7889,"ĠnÃºtelÃŃnen":7890,"Hantale":7891,"Ġnahtuval":7892,"Ġnahtieltan":7893,"Ġcosta":7894,"ĠcostiÃ©li":7895,"Ġlaro":7896,"Ġlarnen":7897,"Ġlimpen":7898,"ĠemÃ©n":7899,"ĠemÃ©li":7900,"Ġemmanen":7901,"Ġempane":7902,"YÃ©tala":7903,"Ġarcanen":7904,"Ġarcalme":7905,"Ġyomencavo":7906,"Ġcoirearon":7907,"Ġmaureo":7908,"enyaiva":7909,"Ġlambarya":7910,"Ġaxaninyar":7911,"Ġtyerme":7912,"Ġtyeruvar":7913,"Ġtyerindor":7914,"Ġnastar":7915,"Ã³rali":7916,"Ã³rima":7917,"Ġperperin":7918,"Ġperperil":7919,"Ġperperier":7920,"Ġperperumne":7921,"ĠperperiÃ©li":7922,"sarne":7923,"Ġessenyasse":7924,"arav":7925,"Ġtiello":7926,"Ġtium":7927,"Ġcuive":7928,"Ġyalles":7929,"Ġcennet":7930,"Ġmahalmanna":7931,"Ġmahalmaryasse":7932,"Ġinwistenna":7933,"Ġinwisteva":7934,"Mano":7935,"Ġsavuvar":7936,"Ġsavila":7937,"Ġsavienya":7938,"yaleo":7939,"Ġsestuvan":7940,"Ġcarastala":7941,"Ġcarastaine":7942,"Ġcarastuvan":7943,"ĠÃºpar":7944,"ĠÃºpuhta":7945,"Ġpaityane":7946,"Ġmentauvan":7947,"ĠSÃŃmonwa":7948,"Ġtyastie":7949,"Ġtyastana":7950,"Ġtyastiesse":7951,"!'âĢĿ":7952,"Ġcomien":7953,"Ġhyamienya":7954,"ĠcÃ©nalde":7955,"ĠcÃ©nima":7956,"ĠElde":7957,"ĠElyacim":7958,"Ġnenello":7959,"Ġhimyalve":7960,"Ġattie":7961,"Ġattanen":7962,"ĠatÃ¡li":7963,"ĠatyÃ¡vi":7964,"Ġmapuva":7965,"Ġmapiello":7966,"Ġesseli":7967,"Ġesseryo":7968,"Ġalamo":7969,"ĠalapulÃºne":7970,"Ġnornes":7971,"ĠYÃ³ra":7972,"ĠYÃ³no":7973,"Ġmattar":7974,"Ġmatila":7975,"Ġmatilde":7976,"Ġroitanen":7977,"Ġroitaine":7978,"Ġroitier":7979,"ĠamyÃ¡rali":7980,"ĠmÃ³lion":7981,"Ġloitane":7982,"Ġloitala":7983,"Ġloitie":7984,"ĠFaila":7985,"Ġnevir":7986,"ĠcÃ³lan":7987,"Elden":7988,"ElÃŃa":7989,"cilla":7990,"Ġformarya":7991,"Ġainas":7992,"Ġvincassen":7993,"ĠetemÃ©n":7994,"Ġapsenne":7995,"Ġapsenuva":7996,"Ġapsenilde":7997,"Ġpeantave":7998,"ĠYÃ¡coven":7999,"Ġcimuva":8000,"ĠFeanna":8001,"ĠnÃºrorya":8002,"ĠnÃºroryain":8003,"Ġcaitar":8004,"Ġcaitienwa":8005,"Ġyaiwi":8006,"ĠlengiÃ©nen":8007,"ĠlengiÃ©va":8008,"ĠIlli":8009,"ĠIlqua":8010,"Ġaryono":8011,"Ġhravanen":8012,"ĠvÃ¡cina":8013,"ĠvÃ¡cine":8014,"ĠvÃ¡quente":8015,"Ġenorta":8016,"ĠenortiÃ©nen":8017,"Ġhehtala":8018,"Ġnosseryo":8019,"Ġmassava":8020,"Ġtoll":8021,"Ġcardal":8022,"ĠcardalÃŃnen":8023,"ĠlÃ¡velte":8024,"ĠHerolenna":8025,"ĠNaftali":8026,"ĠNaxon":8027,"Ġtiutane":8028,"Ġtiutie":8029,"Ġcilta":8030,"Ġcilmenen":8031,"Ġcildes":8032,"Ġquantelte":8033,"Ġantanelme":8034,"Ġantanyes":8035,"ĠahlÃ¡rielte":8036,"ĠsÃ³mar":8037,"ĠsÃ³manya":8038,"ĠsÃ³vina":8039,"ĠcÃŃma":8040,"Ġastarmon":8041,"ĠequÃ©tiel":8042,"Ġistyasse":8043,"Ġistumne":8044,"ĠhÃ¡nolva":8045,"ĠhÃ¡noldar":8046,"ĠhÃ¡nolyo":8047,"ĠhÃŃnin":8048,"ĠhÃŃnaltar":8049,"ĠhÃŃnalyar":8050,"ĠhÃŃnanyar":8051,"ĠacÃ¡mielte":8052,"Ġtop":8053,"Ġtopa":8054,"Ġquatien":8055,"Ġhepitas":8056,"hav":8057,"haira":8058,"hatir":8059,"Ġhyul":8060,"ĠHristondur":8061,"Ġamillenna":8062,"Ġhuruo":8063,"Ġhurunen":8064,"Ġmallelya":8065,"Ġmalleryasse":8066,"ĠÃļre":8067,"Ġlatil":8068,"collo":8069,"colco":8070,"colindor":8071,"ĠmÃ©nallo":8072,"ĠmÃ©nanna":8073,"ĠmÃ©nallon":8074,"Ġmanwaine":8075,"Ġapantiesse":8076,"ĠnÃ¡velyan":8077,"Ġhirnet":8078,"ĠAinolta":8079,"Ġmasta":8080,"Ġmastor":8081,"erieryasse":8082,"ĠecÃ©nielme":8083,"Ġfealdar":8084,"Ġnoirillon":8085,"Ġlunteo":8086,"Ġraucoin":8087,"Ġohtarin":8088,"Ġohtarion":8089,"Ġlehtaina":8090,"Ġlehtana":8091,"Ġlehtanelte":8092,"Ġvoronwelda":8093,"Ġtarwestane":8094,"Ġtarwestanelte":8095,"ĠmÃ¡mannar":8096,"Ġehtele":8097,"Ġehteler":8098,"Ġnaityanes":8099,"Ġnaityaner":8100,"Ġnaityale":8101,"ĠEnnesaret":8102,"Ġoccal":8103,"Ġarmaro":8104,"ĠAravia":8105,"ĠÅŁintave":8106,"Ġhlaiw":8107,"Ġnattoin":8108,"Ġhroaranta":8109,"Hyam":8110,"Ġtarnet":8111,"ĠVarsa":8112,"Ãļcar":8113,"ĠmoliÃ©no":8114,"Ġmolieryasse":8115,"Ġmolieryanen":8116,"ĠÃ±walme":8117,"Mici":8118,"ĠUi":8119,"ĠUal":8120,"ĠUalve":8121,"Ġantoryasse":8122,"ĠMirra":8123,"Ġnattorya":8124,"Ġverulya":8125,"Ġatarilvaron":8126,"Ġsarnosse":8127,"ĠYÃ³sefen":8128,"Ġnucumien":8129,"Ġhrupuhtiello":8130,"Ġhrupuhtieryo":8131,"ĠQuean":8132,"Ġlestasse":8133,"Ġmacilya":8134,"ĠÃ³raviÃ©va":8135,"ĠAtarinyava":8136,"Ġrunda":8137,"Ġrunce":8138,"ĠcÃ¡tina":8139,"Ġambassi":8140,"Ġsapsan":8141,"Ġhlassette":8142,"Ġoantet":8143,"Ġmanwan":8144,"ĠÃŃrima":8145,"ĠhlÃ¡rar":8146,"Ġongwenen":8147,"Ġongweldar":8148,"ĠmÃ¡naron":8149,"ĠpÃ¡lina":8150,"Ġenyalie":8151,"ĠSevul":8152,"ĠÅŁanyera":8153,"ĠÅŁanyelÃ³re":8154,"Ġlavila":8155,"Ġlavilde":8156,"Ġcordonen":8157,"ĠErulisseva":8158,"Ġtirisse":8159,"Ġtirneltes":8160,"ĠvÃ©rarya":8161,"Ġlapsi":8162,"Ġparmagolmor":8163,"ĠMaceronio":8164,"Ġhendultalto":8165,"Nanw":8166,"Nanwen":8167,"cestear":8168,"ĠsÃºma":8169,"ĠsÃºca":8170,"Ġharyaine":8171,"Ġnauvane":8172,"Ġfinwa":8173,"Ġfincave":8174,"Ġquettalyainen":8175,"ĠettÃºles":8176,"Ġhyamiessen":8177,"ĠmÃ¡leva":8178,"Ġcollalya":8179,"Ġcollaryo":8180,"Ġvistaine":8181,"Ġlehtaxe":8182,"ĠManasse":8183,"Ġamortala":8184,"ĠnÃŃrala":8185,"Ġimmotuntien":8186,"ĠRehtando":8187,"Ġmorniello":8188,"ĠmorniÃ©va":8189,"ĠÃīsau":8190,"Ġulcuo":8191,"Ġturune":8192,"Ġturuvalte":8193,"ĠVetsa":8194,"Ġnontes":8195,"Ġnonwen":8196,"Ġnetyaina":8197,"Ġholta":8198,"ĠusÃº":8199,"Ġhildonya":8200,"Ġsanweli":8201,"Ġciryamor":8202,"Ġtinw":8203,"Ġtehtelessen":8204,"Ġsuilier":8205,"Ġsuilienya":8206,"ĠÂºinta":8207,"Ġtuxanturenna":8208,"Ġfastien":8209,"Ġpeantarelda":8210,"ĠnÃ©ÅŁarya":8211,"ĠnÃ©ÅŁanya":8212,"ĠnÃ©ÅŁaryar":8213,"ĠnÃ³recÃ¡nonna":8214,"Hlar":8215,"Hlasselde":8216,"hlÃŃve":8217,"parmar":8218,"Ġcelvaron":8219,"Ġroqueni":8220,"Ġroccor":8221,"Ġmittar":8222,"Ġmityallo":8223,"ĠÅŁundul":8224,"Ġrainenna":8225,"Ġhosseo":8226,"ĠmÃ¡ryatse":8227,"ĠhyÃ³lo":8228,"ĠnyÃ¡ran":8229,"ĠtÃ³pala":8230,"Ġlestali":8231,"ĠrÃ©rinar":8232,"Ġpanyaneltes":8233,"ĠMela":8234,"Ġcemne":8235,"Ġcemnaro":8236,"Ġsavielvanen":8237,"Ġsarnor":8238,"Ġetequentane":8239,"Mentanes":8240,"Ġveluva":8241,"ĠEfesusenna":8242,"ĠEfesuyaron":8243,"ĠHever":8244,"Ġfanyar":8245,"Ġhroaryasse":8246,"ĠindÃ³meryo":8247,"ĠHellenyali":8248,"Samilte":8249,"TÃºles":8250,"Ġmehtinya":8251,"ĠsÃºrinna":8252,"Ġlelyalde":8253,"Ġlelyumne":8254,"Ġlelyumnes":8255,"Ġhandenna":8256,"Ġhandenen":8257,"Ġyuhtie":8258,"ĠyuhtiÃ©nen":8259,"Ġannalya":8260,"Ġannalyar":8261,"Ġpaimen":8262,"Ġpaimes":8263,"Ġquetieryar":8264,"ĠhrÃºceno":8265,"ĠhrÃºcennen":8266,"Ġlingwi":8267,"ĠlingwilÃŃva":8268,"Ġetelehtanes":8269,"Ġetelehtuvas":8270,"Ġarcandeli":8271,"Ġarcandenya":8272,"Ġailinde":8273,"tinwe":8274,"Ġantumnes":8275,"Ġintyanelte":8276,"ĠnÃ³messen":8277,"ĠnÃ³meryanna":8278,"ĠnÃ³melissen":8279,"Ġleucar":8280,"Ġtuliste":8281,"ĠmancanÃ³messen":8282,"Ġalasseryanen":8283,"Ġalasselma":8284,"ĠsÃ¡velte":8285,"Ġonotie":8286,"Ġnostalelvo":8287,"Ġcesteal":8288,"TÃ©can":8289,"minarav":8290,"ĠcÃ¡noron":8291,"Ġcaureo":8292,"Ġhurila":8293,"illelya":8294,"Ġmelmerya":8295,"Ġmelmelya":8296,"ĠyÃ¡mette":8297,"ĠnÃ©vala":8298,"ĠnÃ©velme":8299,"Ġsalquecolcasse":8300,"ĠlÃ³te":8301,"ĠhÃ³p":8302,"ĠhÃ³pa":8303,"ĠhÃ³pala":8304,"Ġnaityaina":8305,"ĠYordanna":8306,"ĠApollon":8307,"Ġohtasse":8308,"Ġpaimeo":8309,"Ġfalas":8310,"Ġfalma":8311,"ĠMenello":8312,"ĠyÃ¡vello":8313,"ĠAtarinyanna":8314,"ĠAtarinyallo":8315,"ĠÃ±entes":8316,"ĠutÃºlies":8317,"Ġcanwacimya":8318,"ĠihÃŃrier":8319,"Ġainocimye":8320,"ĠainocimiÃ©va":8321,"ĠÃºlÃ©vimar":8322,"Aure":8323,"Autala":8324,"Heca":8325,"querna":8326,"Ġofel":8327,"Ġinsesse":8328,"Ġrahtanes":8329,"Ġrahtanelme":8330,"Ġtermarnes":8331,"ĠsÃ©reva":8332,"ĠAndreas":8333,"ĠtyÃ¡rina":8334,"Ġrembeltar":8335,"ĠYohanneo":8336,"ĠLamascusenna":8337,"hilyaner":8338,"ĠQueni":8339,"ĠQuenwa":8340,"ĠQuentette":8341,"ĠicÃŃlies":8342,"Ġmulielta":8343,"Ġmulondo":8344,"Ġtyetir":8345,"Ġhestanelte":8346,"Ġyeltas":8347,"Ġnaxa":8348,"ĠÃºÅŁahtienna":8349,"Ġtulinwa":8350,"ĠortÃŃrie":8351,"ĠortÃŃriesse":8352,"ĠlÃ¡mÃ¡r":8353,"ĠÅŁanyengol":8354,"Ġaucirna":8355,"Ġcaurenen":8356,"Ġcaureltanen":8357,"Ġtyenye":8358,"ĠmÃ¡ltatse":8359,"ĠHellenyain":8360,"ĠÃļyÃºrannar":8361,"Ġmandon":8362,"Ġmandollo":8363,"Ġerumesse":8364,"ĠTÃŃro":8365,"ĠsÃ¡malyanen":8366,"ĠmÃ©line":8367,"ĠmÃ©letye":8368,"Ġvandilden":8369,"Ġquaptaner":8370,"ĠÃ±walmeli":8371,"ĠIsraelindion":8372,"ĠIsraelindinnar":8373,"Ġrohtalya":8374,"Ġrohtalva":8375,"Carnes":8376,"Saira":8377,"Ġinyenna":8378,"Ġfelmi":8379,"Ġcoalyasse":8380,"ĠMilet":8381,"Ġmeldoryar":8382,"Ġtalantes":8383,"Ġtalleset":8384,"ĠnattÃŃra":8385,"Ġcamnelve":8386,"ĠLevi":8387,"ĠTÃ©can":8388,"ĠsÃ¡maltassen":8389,"Ġveneo":8390,"ĠomÃ³lie":8391,"Ġquaistar":8392,"Ġambarenna":8393,"ĠSeverai":8394,"ĠSeveraion":8395,"Ġlisseryanen":8396,"Ġenvinyante":8397,"Ġenvinyata":8398,"hlaiwar":8399,"ĠperpÃ©res":8400,"ĠhundiÃ©li":8401,"Ġofelmeo":8402,"Ġnulla":8403,"Ġtaman":8404,"Ġtampo":8405,"Ġsuncer":8406,"Ġleryaina":8407,"Ġyulmo":8408,"Ġyulmallo":8409,"ĠnÃ¡monna":8410,"Ġantonya":8411,"Ġrerien":8412,"Ġmancalen":8413,"ĠmancalÃ©va":8414,"Ġetsatien":8415,"ĠStefÃ¡nas":8416,"Ġnattoltar":8417,"ĠLÃ©mas":8418,"Ġcanwanen":8419,"ĠAinonyava":8420,"ĠNÃ¡saret":8421,"ĠhyÃ¡malme":8422,"ĠSÃŃrono":8423,"ĠlalevÃŃti":8424,"hehtala":8425,"ĠlÃ©rya":8426,"Ġhwan":8427,"ĠavÃ¡nier":8428,"Ġaxor":8429,"Ġavama":8430,"ĠpÃ©tala":8431,"ĠpÃ©tina":8432,"Ġnasseo":8433,"Ġohtan":8434,"Ġohtali":8435,"Ġyaimea":8436,"ĠrÃ©lion":8437,"ĠÃºsahtie":8438,"ĠlÃ¡rear":8439,"Ġalantier":8440,"ĠÅŁelmanya":8441,"Ġnarcaina":8442,"Ġhanteset":8443,"Ġhanquetuvar":8444,"Ġraica":8445,"Ġveruryan":8446,"Ġveruryo":8447,"ĠÃºfailiÃ©va":8448,"Ġfealyanen":8449,"ĠehÃ©pie":8450,"Ġarmarorya":8451,"Ġimmotuntieldo":8452,"Ġrincenen":8453,"Tecin":8454,"Talo":8455,"Ġtielmasse":8456,"Ġlitte":8457,"Ġhauta":8458,"Ġhautie":8459,"ĠhelmahlÃŃve":8460,"Ġementie":8461,"ĠAmminarav":8462,"Ġostollon":8463,"ĠNicol":8464,"ĠNicorÃ©mus":8465,"ĠceÅŁie":8466,"ĠsÃ¡manyanen":8467,"Ġnossenyo":8468,"Ġnaiquetier":8469,"ĠnaiquetiÃ©li":8470,"Ġettulir":8471,"ĠRÃ³ma":8472,"Ġlingala":8473,"Ġturquima":8474,"Ġahtarie":8475,"Ġussardenen":8476,"ĠhlÃŃvelÃŃnen":8477,"ĠÅŁÃºlelda":8478,"Lehemesse":8479,"Ġvircolcaron":8480,"henta":8481,"laluval":8482,"lalanes":8483,"ĠsÃ©renya":8484,"Ġlasseli":8485,"Ġvehter":8486,"ĠÃºoscirie":8487,"Ġimmollo":8488,"Ġimmolaitie":8489,"ĠcenÅŁelte":8490,"Ġnancamuva":8491,"Ġmartyaine":8492,"Ġlanneranta":8493,"ĠTiverias":8494,"ĠTroas":8495,"ĠTroasse":8496,"ĠCilici":8497,"ĠCilicia":8498,"Ġnampaitya":8499,"Ġminquea":8500,"ĠVeroi":8501,"ĠVernice":8502,"Ġhlarultat":8503,"Ġhlarultanten":8504,"ĠYerico":8505,"Ġmilpialda":8506,"Ġlihtarya":8507,"Ġlihtaryar":8508,"ĠRÃ³mello":8509,"Ġsestielissen":8510,"Ġparmangolmoin":8511,"Ġehehtielme":8512,"Ġsapsasse":8513,"Ġsapsanna":8514,"ĠpÃ¡ÅŁenen":8515,"ĠCombesse":8516,"ĠtÃ³passe":8517,"ĠMeletya":8518,"ĠMeletyar":8519,"Ġtalulyatse":8520,"Ġcaimassea":8521,"ĠÃºacÃ¡rie":8522,"ĠVetanianna":8523,"ĠVetaniasse":8524,"Ġungwaleron":8525,"ĠVÃ©lsevuv":8526,"Ġsondar":8527,"ĠcÃŃrina":8528,"Ġatalantie":8529,"ĠYehÃºra":8530,"ĠYehÃºro":8531,"Ġmacari":8532,"Ġenwina":8533,"Ġenwine":8534,"ĠÃºvoronda":8535,"ĠorutÃºrie":8536,"ĠorutÃºrielde":8537,"ĠÅŁÃ¡ny":8538,"Ġisintie":8539,"ĠPontus":8540,"ĠPontio":8541,"ĠPrisca":8542,"ĠPriscilla":8543,"Ġracma":8544,"Ġmerentur":8545,"ĠÃ±armor":8546,"Ġpeantieryasse":8547,"ĠnÃºrolda":8548,"Ġnaiquetir":8549,"Ġlihtan":8550,"Ġvarnave":8551,"ĠnÃ³returwa":8552,"Ġloicottat":8553,"ĠocÃ³mi":8554,"ĠtercÃ¡noryaron":8555,"ĠSanducear":8556,"Ġsanwelunge":8557,"ĠHanquentelte":8558,"ĠCiprus":8559,"ĠquaihÃºmi":8560,"AcÃ¡ries":8561,"AhlÃ¡rielde":8562,"Canin":8563,"Cornelio":8564,"Cola":8565,"Yesaia":8566,"nanwa":8567,"nÃ¡veldan":8568,"ĠquÃ³rine":8569,"ĠvielÃ³rali":8570,"Ġnainie":8571,"ĠHyealtiel":8572,"ĠÃºtanca":8573,"ĠfifÃŃrula":8574,"Ġaldaron":8575,"Ġmarillar":8576,"ĠHeroliasso":8577,"ĠSeruvÃ¡vel":8578,"Ġestolienna":8579,"Ġhrang":8580,"Ġoloire":8581,"ĠÃºcarelvain":8582,"Ġulcarindor":8583,"Ġhirises":8584,"ĠRÃ¡hav":8585,"ĠOstor":8586,"Ġpalpuvar":8587,"Ġtoloque":8588,"ĠÂªanye":8589,"Ġoccat":8590,"Lavirion":8591,"ĠcÃŃlinaron":8592,"Ġnostaleron":8593,"Ġrestandier":8594,"ĠErasenyaiva":8595,"Ġsucuvanyes":8596,"ĠsaicelÃ©li":8597,"Ġneceltusso":8598,"ĠÅŀessalonicallo":8599,"ĠArtemisso":8600,"MÃ¡lo":8601,"Olca":8602,"YerÃºsale":8603,"Ġhyalin":8604,"ĠyÃ¡nallo":8605,"vaitanes":8606,"Ġanhoa":8607,"Ġotornasse":8608,"Ġorture":8609,"Ġmirucarne":8610,"ĠÅŁarnun":8611,"ĠSirianna":8612,"ĠPeres":8613,"laurio":8614,"Ġepemmar":8615,"Ġostimesse":8616,"Ġaupsarne":8617,"ĠyÃ¡velÃ³ra":8618,"ĠCeÅŁa":8619,"ĠCrÃ©teo":8620,"ĠÃģrono":8621,"Ġaccasu":8622,"ĠVoas":8623,"Ġtenges":8624,"Ġcalcava":8625,"ĠOnÃ³no":8626,"Ġimnetyaleo":8627,"ĠcempaliÃ©li":8628,"ĠtercÃ¡nonya":8629,"ĠÃºlÃ©vimanna":8630,"ĠMilpioiva":8631,"Ġelentirmor":8632,"Ġalahastima":8633,"ĠAlexandriallo":8634,"EquÃ©tien":8635,"Feanya":8636,"Laitan":8637,"Ġvestaracie":8638,"Ġpelec":8639,"ĠEpeta":8640,"ĠAreopahus":8641,"Ġmavalli":8642,"Ġencenuvalden":8643,"ĠÃºcÃ©nimar":8644,"Ġfindoriva":8645,"ĠetyÃ¡me":8646,"ĠMessÃŃas":8647,"ĠSiloam":8648,"ĠhlÃ¡pula":8649,"Ġerehties":8650,"ĠFrihia":8651,"Ġammirwa":8652,"ĠIscÃ¡riot":8653,"ĠOtsolaron":8654,"Ġnahtuvaltes":8655,"ĠemÃ©lier":8656,"Ġhyamienyassen":8657,"ĠNaftalio":8658,"Nanwenuvan":8659,"!\",":8660,"\".":8661,"Ava":8662,"Aire":8663,"Aqua":8664,"Aman":8665,"Apan":8666,"Caris":8667,"Euva":8668,"Eli":8669,"Ece":8670,"Epafr":8671,"Ha":8672,"Hor":8673,"Hyar":8674,"HÃ¡n":8675,"HÃ©r":8676,"HÃ¡no":8677,"Hend":8678,"HÃºna":8679,"Hata":8680,"Hranga":8681,"Ita":8682,"IhÃŃr":8683,"Lin":8684,"Lasarus":8685,"Mel":8686,"MÃ©":8687,"MÃ©n":8688,"Manna":8689,"Mane":8690,"Meldo":8691,"Maure":8692,"Mela":8693,"Nes":8694,"NÃŃ":8695,"Nam":8696,"Nalte":8697,"On":8698,"Oron":8699,"Pitya":8700,"QÃºen":8701,"Ra":8702,"RÃ¡":8703,"Rin":8704,"Ron":8705,"RÃŃ":8706,"Rus":8707,"Rappi":8708,"Sar":8709,"Sen":8710,"Sana":8711,"SÃ©nen":8712,"Salta":8713,"SÃ¡melte":8714,"Tel":8715,"Tien":8716,"Tur":8717,"Tyal":8718,"Tambe":8719,"TimoÅŁe":8720,"TyÃ©":8721,"Um":8722,"UtÃºlien":8723,"Vende":8724,"Voronda":8725,"Vaca":8726,"VÃ³rima":8727,"XX":8728,"Yasse":8729,"Yunque":8730,"Yulma":8731,"YÃ¡co":8732,"cc":8733,"cre":8734,"cenna":8735,"celde":8736,"cÃ¡m":8737,"cum":8738,"canen":8739,"cenen":8740,"canna":8741,"cila":8742,"cilde":8743,"celme":8744,"cilte":8745,"cuvalve":8746,"cuo":8747,"celtes":8748,"calya":8749,"conya":8750,"caiva":8751,"dum":8752,"dion":8753,"delya":8754,"delme":8755,"dili":8756,"diesse":8757,"dollo":8758,"dalÃŃnen":8759,"diryar":8760,"ecien":8761,"ecia":8762,"fos":8763,"fÃ³r":8764,"fia":8765,"gand":8766,"hal":8767,"hes":8768,"hol":8769,"ham":8770,"hÃºr":8771,"htanes":8772,"htya":8773,"htalde":8774,"htiÃ©nen":8775,"hyer":8776,"htando":8777,"hosta":8778,"hristoli":8779,"ico":8780,"itiel":8781,"iÃ©la":8782,"icia":8783,"iÃ©ron":8784,"ifÃ³r":8785,"lta":8786,"lesse":8787,"luva":8788,"let":8789,"lelta":8790,"lette":8791,"lÃŃva":8792,"lendes":8793,"mien":8794,"mpe":8795,"manta":8796,"mos":8797,"mÃŃa":8798,"mÃ¡ra":8799,"mÃŃre":8800,"mÃ¡rea":8801,"mmes":8802,"melÃŃnen":8803,"nal":8804,"nna":8805,"nenna":8806,"nala":8807,"nien":8808,"nyar":8809,"nÃ©r":8810,"ndu":8811,"ninen":8812,"nÃ³m":8813,"nelta":8814,"nallon":8815,"nannar":8816,"nalda":8817,"nielta":8818,"nÃ¡ven":8819,"nÃŃs":8820,"nanw":8821,"nÃ³rie":8822,"op":8823,"oir":8824,"opo":8825,"pÃŃ":8826,"pion":8827,"pila":8828,"parya":8829,"puh":8830,"peltes":8831,"ponna":8832,"ppar":8833,"pÃ©rier":8834,"ran":8835,"rÃ¡":8836,"res":8837,"rÃ³":8838,"resse":8839,"rasse":8840,"riel":8841,"sÃ©":8842,"sÃŃ":8843,"sesse":8844,"sÃŃr":8845,"ssi":8846,"tilde":8847,"tyana":8848,"tuvalme":8849,"tÃ¡ven":8850,"tÃŃra":8851,"uan":8852,"uas":8853,"ualde":8854,"umen":8855,"venna":8856,"velde":8857,"valde":8858,"vÃ©r":8859,"verya":8860,"venen":8861,"vuvan":8862,"vinya":8863,"vilde":8864,"vallon":8865,"vÃ©la":8866,"voronda":8867,"wien":8868,"wenen":8869,"weltar":8870,"xi":8871,"xello":8872,"xenen":8873,"yel":8874,"yuh":8875,"yuvalme":8876,"Ãĳ":8877,"Ġ(":8878,"Ġq":8879,"ĠÃ¡r":8880,"ĠĠčĊ":8881,"ĠQÃºen":8882,"aresse":8883,"arwa":8884,"arda":8885,"arcala":8886,"aryallon":8887,"ano":8888,"anca":8889,"anter":8890,"antanelte":8891,"anyÃ¡r":8892,"aneltes":8893,"anties":8894,"enello":8895,"enda":8896,"enyallo":8897,"enaio":8898,"Ġiva":8899,"Ġique":8900,"Ġiquin":8901,"Ġivin":8902,"Ġnie":8903,"Ġniel":8904,"Ġnilme":8905,"Ġnunte":8906,"alen":8907,"alyan":8908,"altie":8909,"altanen":8910,"alillon":8911,"almasse":8912,"alÃŃva":8913,"Ã¡to":8914,"Ã¡sar":8915,"Ã¡pi":8916,"Ã¡nasse":8917,"Ã¡por":8918,"Ã¡har":8919,"ĠmÃ¡no":8920,"Ġmusse":8921,"Ġmondo":8922,"Ġare":8923,"Ġarta":8924,"Ġarte":8925,"Ġaranen":8926,"Ġarman":8927,"Ġarwar":8928,"Ġarmali":8929,"ĠarciÃ©nen":8930,"Ġaralli":8931,"Ġtil":8932,"Ġtali":8933,"ĠtÃ©nen":8934,"Ġsesta":8935,"ĠsÃ¡nala":8936,"Ġsimpa":8937,"quala":8938,"quÃ©n":8939,"quere":8940,"quantie":8941,"ell":8942,"elar":8943,"eltan":8944,"elesse":8945,"elmar":8946,"elyes":8947,"elind":8948,"eltallo":8949,"elvaron":8950,"Ã©co":8951,"Ã©vi":8952,"Ã©van":8953,"Ã©mielte":8954,"inqu":8955,"ines":8956,"Ġlir":8957,"Ġlieryan":8958,"erindo":8959,"Ġcur":8960,"Ġcimb":8961,"ĠcÃŃrine":8962,"Ġhyan":8963,"ĠhÃ¡rala":8964,"Ġhalda":8965,"Ġhinyar":8966,"ĠhÃ¡rar":8967,"esÃ©n":8968,"esecia":8969,"esopo":8970,"Ġquestasse":8971,"Ġquestarya":8972,"tamo":8973,"tayer":8974,"Ġatya":8975,"ĠaÂº":8976,"Ġaxo":8977,"Ġaquantie":8978,"Ãºmello":8979,"Ãºvas":8980,"Ãºlienwa":8981,"tealde":8982,"temen":8983,"teaste":8984,"Ġyun":8985,"ĠyÃ©r":8986,"Ġyerya":8987,"nait":8988,"ĠvÃ³":8989,"Ġvenen":8990,"Ġvoro":8991,"ĠpÃŃ":8992,"Ġpala":8993,"Ġpul":8994,"Ġpelde":8995,"Ġpeli":8996,"Ġpilie":8997,"Ġporo":8998,"ĠpÃºlienwa":8999,"irya":9000,"irello":9001,"iranna":9002,"ireli":9003,"ono":9004,"ilquen":9005,"iltes":9006,"ilit":9007,"ilyaner":9008,"orya":9009,"ortane":9010,"orcas":9011,"ortayer":9012,"vat":9013,"ÃŃanna":9014,"ÃŃvie":9015,"tanuvan":9016,"tantur":9017,"tanoir":9018,"Ġep":9019,"Ġeter":9020,"Ġeuvan":9021,"Ġeper":9022,"Ġeces":9023,"Ġealve":9024,"ĠevÃ©":9025,"ĠeyÃ©":9026,"Ġuien":9027,"Ġumbar":9028,"Ġanam":9029,"Ġanno":9030,"Ġantuvan":9031,"Ġantieryan":9032,"Ġantieltan":9033,"ĠanÃ¡mie":9034,"Ġanhaira":9035,"ĠnaÅŁ":9036,"Ġnama":9037,"Ġnapan":9038,"Ġnairenen":9039,"Ġnatainen":9040,"Ã³vo":9041,"Ã³mi":9042,"Ã³lie":9043,"Ã³lala":9044,"Ã³vine":9045,"asin":9046,"astantur":9047,"meo":9048,"rehtane":9049,"rupuh":9050,"tisse":9051,"timar":9052,"titat":9053,"ola":9054,"olÃº":9055,"oltar":9056,"olyar":9057,"olasse":9058,"olion":9059,"oldar":9060,"olisse":9061,"oller":9062,"olÃŃto":9063,"ĠYess":9064,"neva":9065,"neas":9066,"inaiva":9067,"ĠEt":9068,"ĠEle":9069,"ĠEtse":9070,"rava":9071,"raina":9072,"Ġsatien":9073,"Ġsairon":9074,"yancar":9075,"yanda":9076,"yanca":9077,"yanelme":9078,"Ġquenwa":9079,"Ġquenda":9080,"Ġquenelion":9081,"ĠAt":9082,"ĠAu":9083,"ĠAqua":9084,"ĠAnen":9085,"ĠAha":9086,"ĠAcÃ¡r":9087,"ĠAmali":9088,"ĠAss":9089,"ĠAmbar":9090,"ĠAhlÃ¡r":9091,"ĠAnette":9092,"ĠAhyer":9093,"Ġcaro":9094,"Ġcaresse":9095,"Ġcarinya":9096,"Ġcaryo":9097,"Ġcaryanna":9098,"Ġcarpan":9099,"Ġcarieldan":9100,"Ġcarumnelte":9101,"Ġcarieryan":9102,"Ġcareldasse":9103,"Ġcaritye":9104,"Ġox":9105,"Ġotar":9106,"Ġomen":9107,"Ġyain":9108,"Ġyaca":9109,"Ġyacir":9110,"ĠyaviÃ©no":9111,"Ġyamie":9112,"Ġyahtya":9113,"Ġilin":9114,"Ġilyo":9115,"Ġilimo":9116,"Ġilaica":9117,"ĠilÃŃvie":9118,"ĠEruco":9119,"eto":9120,"etar":9121,"etie":9122,"etyar":9123,"ettes":9124,"etyet":9125,"ulva":9126,"ullo":9127,"ulyanes":9128,"ultat":9129,"ĠHa":9130,"ĠHÃ©":9131,"ĠHil":9132,"ĠHim":9133,"ĠHÃ©r":9134,"ĠHelma":9135,"ĠHoa":9136,"ĠHosanna":9137,"ĠHÃ¡har":9138,"Ġmatiello":9139,"Ġmatielyan":9140,"Ġing":9141,"Ġinen":9142,"Ġinque":9143,"Ġinga":9144,"Ġingar":9145,"uso":9146,"ustar":9147,"Ġri":9148,"ĠrÃ³":9149,"Ġrasse":9150,"ĠrÃ¡nie":9151,"Ġrice":9152,"Ġrandar":9153,"Ġrimpe":9154,"tarnelte":9155,"taryanna":9156,"inea":9157,"Ġmallen":9158,"imon":9159,"imannar":9160,"ĠtÃºnen":9161,"ĠtÃºpo":9162,"Ġenner":9163,"Ġencam":9164,"Ġenyali":9165,"Ġenequean":9166,"ĠenyÃ¡":9167,"Ġenhir":9168,"ÅŁel":9169,"ÅŁolo":9170,"ÅŁÃ©o":9171,"Ġvemb":9172,"Ġveaner":9173,"ĠÃºnar":9174,"ĠÃºnelde":9175,"ĠÃºcÃ¡r":9176,"ĠÃºvel":9177,"ĠÃºcÃ©nima":9178,"ĠÃºvello":9179,"ĠÃºcÃ¡ra":9180,"ĠÃºnanwa":9181,"ĠÃºresse":9182,"Ã¡ni":9183,"Ã¡nies":9184,"Ġmier":9185,"Ġmique":9186,"Ġmixe":9187,"Ġmiquin":9188,"Ġpahta":9189,"Ġpahte":9190,"ĠpaÅŁel":9191,"quentette":9192,"amar":9193,"amit":9194,"Ã¡ri":9195,"Ã¡rine":9196,"Ã¡ralte":9197,"talma":9198,"talda":9199,"talyasse":9200,"Ġfelme":9201,"Ġfili":9202,"ĠfÃ¡re":9203,"Ġfill":9204,"Ġlencave":9205,"Ġlendaryasse":9206,"paina":9207,"pater":9208,"pait":9209,"carila":9210,"carni":9211,"wat":9212,"ĠnÃ³taine":9213,"ĠnÃ³nie":9214,"ĠnÃ³tesse":9215,"Ġlev":9216,"Ġlevi":9217,"Ġlequet":9218,"unelte":9219,"unga":9220,"unÃºror":9221,"Ġtuly":9222,"Ġtuluval":9223,"Ġtulilte":9224,"Ġtulieltan":9225,"Ġtulumner":9226,"Ġtuless":9227,"Ġtulieryan":9228,"Ġtulienna":9229,"Ġtulierya":9230,"aice":9231,"aiyaron":9232,"Ġpantaina":9233,"Ġpanyanen":9234,"Ġpanieldan":9235,"Ġpanieltan":9236,"Ġpanyuvas":9237,"Ġpanieryan":9238,"Ġpanyuvalte":9239,"Ġpanyea":9240,"Ġmano":9241,"Ġmanna":9242,"Ġmancar":9243,"Ġmanca":9244,"Ġmanyane":9245,"Ġmanyala":9246,"Ġmanyanes":9247,"Ġmancien":9248,"Ġmanyaine":9249,"Ġmeni":9250,"Ġmenya":9251,"Ġmenir":9252,"Ġmentar":9253,"Ġmenner":9254,"Ġmennelte":9255,"Ġmenuvas":9256,"Ġmenumne":9257,"Ġmentas":9258,"Ġmentuvan":9259,"Ġmentalme":9260,"Ġmentarya":9261,"ĠÃŃquala":9262,"Ġcoaron":9263,"Ġcoaldar":9264,"Ġcoanyasse":9265,"Ġcoanyanna":9266,"Ġquetuval":9267,"Ġquettasse":9268,"Ġquettanna":9269,"pean":9270,"urtiel":9271,"urenya":9272,"dat":9273,"ttaina":9274,"ttasse":9275,"Anar":9276,"Anen":9277,"Antalme":9278,"AnanÃŃas":9279,"ĠtÃ©r":9280,"ĠtÃ©ma":9281,"ĠtÃ©ca":9282,"Ġort":9283,"Ġortien":9284,"Ġortea":9285,"Ġortumne":9286,"Ġortanelde":9287,"Ġoryuvalte":9288,"Ġortanie":9289,"Ġorortayer":9290,"teryar":9291,"teryainen":9292,"ĠasÃ¡nie":9293,"ĠasÃ¡nien":9294,"senen":9295,"mbin":9296,"ĠlÃ¡ta":9297,"ĠlÃ¡quete":9298,"ĠlÃ¡vaina":9299,"Ġetse":9300,"Ġetyar":9301,"Ġetter":9302,"Ġetterya":9303,"teset":9304,"lia":9305,"liÃ©la":9306,"combin":9307,"Ġmirw":9308,"Ġmirilyaner":9309,"menyar":9310,"menyasse":9311,"mentauvan":9312,"Ġimlen":9313,"Ġimnin":9314,"eryamum":9315,"Ġalal":9316,"Ġalir":9317,"Ġalwa":9318,"Ġaller":9319,"Ġaldali":9320,"ĠalÃ¡li":9321,"Ġalyave":9322,"ĠalÃ¡vien":9323,"Ġalquar":9324,"ĠalmÃ¡rea":9325,"antauvanes":9326,"ĠMis":9327,"ĠMÃ©n":9328,"ĠMau":9329,"ĠMinya":9330,"ĠMÃŃca":9331,"ĠMÃ¡ra":9332,"ĠMeri":9333,"ĠMesopo":9334,"ĠÅŁÃºr":9335,"ĠÅŁoron":9336,"ĠÅŁelma":9337,"ĠÅŁure":9338,"Ġcenuvan":9339,"Ġcenuvas":9340,"Ġcenumne":9341,"Ġcenilve":9342,"Ġcenilte":9343,"Ġcenumnes":9344,"Ġceniello":9345,"Ġcenielyan":9346,"ceva":9347,"ciel":9348,"cion":9349,"cico":9350,"cieryan":9351,"Ġnana":9352,"Ġistuvar":9353,"ĠistiÃ©no":9354,"Ġistuvas":9355,"Ġistieryan":9356,"tiet":9357,"Ã¡mielde":9358,"Ġnarwa":9359,"Ġnartie":9360,"Ġnarnen":9361,"Ġnartanelte":9362,"Ġnarcie":9363,"Ġnarcien":9364,"Ġnarcane":9365,"Ġteas":9366,"Ġteve":9367,"Ġmarie":9368,"Ġmaril":9369,"Ġmarenna":9370,"Ġmaresse":9371,"Ġmartala":9372,"Ġmarilde":9373,"Ġmaryanna":9374,"ĠmariÃ©nen":9375,"Ġmarilte":9376,"Ġmarilme":9377,"Ġmartea":9378,"Ġmarelma":9379,"Ġmartienwe":9380,"Ġmarelyanna":9381,"Ġmartyana":9382,"ĠÃ¡re":9383,"ĠÃ¡ra":9384,"ĠÃ¡yar":9385,"ĠÃ¡ven":9386,"ĠÃ¡tu":9387,"ĠÃ¡valye":9388,"ĠÃ¡vani":9389,"auco":9390,"ĠHeruva":9391,"ĠHermes":9392,"Ġquear":9393,"Ġquequentes":9394,"Ġquequentette":9395,"Ãģme":9396,"Ãģvalve":9397,"Ãģvani":9398,"Ãģpaina":9399,"ĠSen":9400,"ĠSine":9401,"ĠSpan":9402,"ĠSavi":9403,"ĠSera":9404,"ĠSiria":9405,"umpen":9406,"ĠlÃºÅŁina":9407,"Ġsinanen":9408,"Ġsinyali":9409,"ĠPis":9410,"ĠPenya":9411,"ĠPera":9412,"ĠPop":9413,"ĠPeryamum":9414,"ĠÃ³co":9415,"ĠÃ³reo":9416,"ĠÃ³com":9417,"ĠÃ³cÃ³m":9418,"Ġsamiello":9419,"ĠâĢĵâĢĿ":9420,"Ãºresse":9421,"Ġhany":9422,"Ġhantan":9423,"Ġhantane":9424,"Ġhantala":9425,"Ġhanyala":9426,"Ġhanyuva":9427,"Ġhanyanelde":9428,"Ġhilien":9429,"Ġhilyanes":9430,"Ġhilyaneltes":9431,"Ġhilyea":9432,"Quanda":9433,"Qualme":9434,"Quata":9435,"Ġeli":9436,"Ġelend":9437,"Ġeleryan":9438,"Ġelvesse":9439,"ĠelÃ©mielte":9440,"tienyan":9441,"Ġnauvatte":9442,"Ġestar":9443,"Ġestal":9444,"Ġesce":9445,"Ġestalde":9446,"viur":9447,"Ġhresta":9448,"Ġhrestasse":9449,"Ġhrondor":9450,"Ġero":9451,"Ġertaine":9452,"Ġerden":9453,"Ġermava":9454,"lemo":9455,"laine":9456,"laquet":9457,"Ġsenya":9458,"Ġsendasse":9459,"Ġtax":9460,"Ġtace":9461,"Ġtatya":9462,"Ġtavar":9463,"Ġraur":9464,"Ġrait":9465,"Ġramo":9466,"Ġrainen":9467,"Ġracie":9468,"Ġracil":9469,"Ġnindor":9470,"Ġninyallon":9471,"Ġninder":9472,"Ġtarya":9473,"Ġtarma":9474,"Ġtarnelte":9475,"Ġtaruvalde":9476,"Ġtarmar":9477,"ĠmÃ¡tanelte":9478,"ĠmÃ¡ttat":9479,"ĠmÃ¡tienwe":9480,"Ġqualm":9481,"Ġqualir":9482,"Ġqualis":9483,"Ġqualien":9484,"Ġqualmesse":9485,"Ġqualumnes":9486,"Ġqualuvalve":9487,"Ġquallelde":9488,"Ġaice":9489,"Ġaiwion":9490,"ĠaiÃ¡lie":9491,"teltan":9492,"telyanes":9493,"Ġmelu":9494,"Ġmeluvalde":9495,"Ġmeldol":9496,"Ġmelmenya":9497,"Ġmeldal":9498,"Ġmeletya":9499,"Ġmelmenyasse":9500,"nenen":9501,"ĠapacÃ©n":9502,"Ġapaitiel":9503,"Ġtalas":9504,"Ġtalala":9505,"Ġtalmo":9506,"Ġtalmar":9507,"Ġtalmon":9508,"Ġtalmanna":9509,"Ġtalyant":9510,"Ġlos":9511,"Ġloxi":9512,"Ġappala":9513,"ĠapesÃ©n":9514,"Ġoston":9515,"Ġospor":9516,"Ġostime":9517,"Ġostonnar":9518,"Ġostoron":9519,"Ġpolca":9520,"Ġpolit":9521,"Ġpolila":9522,"Ġpolden":9523,"Ġpolilme":9524,"Ġpolieldan":9525,"Ġpolieltan":9526,"Ġpolcal":9527,"Ġpollelde":9528,"Ġpolcaiva":9529,"Ġolcar":9530,"Ġolos":9531,"Ġolcie":9532,"Ġolles":9533,"Ġollelte":9534,"ĠolciÃ©no":9535,"Ġollelde":9536,"ĠsÃŃr":9537,"ostar":9538,"ĠFil":9539,"ĠFoi":9540,"ĠFaica":9541,"ĠFilar":9542,"Ġmerye":9543,"Ġmerilve":9544,"Ġauh":9545,"Ġauce":9546,"Ġautien":9547,"ĠauÅŁa":9548,"Ġaucor":9549,"Ġautuvas":9550,"Ġautumne":9551,"Ġaucel":9552,"Ġautienwa":9553,"Ġautienwe":9554,"Ġauquerna":9555,"Ġexellon":9556,"Ġexelion":9557,"darya":9558,"ielva":9559,"iellon":9560,"ielyasse":9561,"ielyes":9562,"ielmassen":9563,"ĠlÃ©li":9564,"ĠlÃ©ven":9565,"ĠlÃ©vala":9566,"Ġtanie":9567,"Ġtanor":9568,"Ġtanner":9569,"Ġtanuvas":9570,"ĠtaniÃ©nen":9571,"Ġtannelde":9572,"ĠtercÃ©nima":9573,"Ġlantien":9574,"ĠlantiÃ©va":9575,"Ġlantalte":9576,"Ġlanneli":9577,"Ġlannaron":9578,"ĠnattÃŃr":9579,"Ġnatinyar":9580,"Ġnattonya":9581,"Ġnatilyar":9582,"Ġamnes":9583,"Ġamper":9584,"Ġamnalda":9585,"Ġlatta":9586,"Ġlaquete":9587,"Ġlaimar":9588,"Ġlaistie":9589,"Ġlaquenter":9590,"Ġlaquetuva":9591,"Ġairenna":9592,"Ġairesse":9593,"Ġairiryar":9594,"Ġairelind":9595,"Ġeat":9596,"ituva":9597,"Ġrimbalillon":9598,"Ġcamila":9599,"Ġcamumne":9600,"Ġcamilme":9601,"ĠcamiÃ©no":9602,"Ġcamumnes":9603,"Ġcamuvalve":9604,"Ġcamumner":9605,"Ġengette":9606,"ĠyÃºyon":9607,"Ġmauyar":9608,"Ġmauyanes":9609,"Ġmauyaner":9610,"ĠLu":9611,"ĠLÃ³me":9612,"ĠLica":9613,"ĠLiria":9614,"ĠLorcas":9615,"Ġalcarenna":9616,"Ġalcarwa":9617,"Ġalcarinya":9618,"Ġalcaryanen":9619,"Ġalcareryo":9620,"Ġalcareryan":9621,"Ġalcaryuvan":9622,"Ġarano":9623,"Ġarannar":9624,"Ġaranelda":9625,"Ġaraniva":9626,"Ġaraniello":9627,"Ġaranienya":9628,"Ġaranielyasse":9629,"Ġatanissen":9630,"Ġataniva":9631,"Ġatanelma":9632,"ĠÃºcarir":9633,"ĠÃºcarenna":9634,"ĠÃºcarne":9635,"ĠÃºcaruva":9636,"ĠÃºcarilde":9637,"ĠÃºcarumne":9638,"ĠÃºcarelta":9639,"ĠÃºcarind":9640,"ĠÃºcareryar":9641,"Ġhopila":9642,"Ġaiquende":9643,"Ġundum":9644,"Ġunurtiel":9645,"duo":9646,"aryat":9647,"asseli":9648,"ĠNel":9649,"ĠNine":9650,"ĠNeri":9651,"ĠnÃŃtanes":9652,"ĠnÃŃessen":9653,"ĠnÃŃri":9654,"ĠnÃŃteal":9655,"Ġantauvalde":9656,"Ġantauvalte":9657,"Ġantauvaltes":9658,"Ġlemyan":9659,"Ġlemyuvar":9660,"ĠTien":9661,"alemenna":9662,"ĠceÅŁe":9663,"ĠceÅŁa":9664,"yoÅŁa":9665,"Ġverta":9666,"Ġverien":9667,"Ġveryar":9668,"Ġvertane":9669,"Ġveryanes":9670,"Ġveryaner":9671,"Ġverinna":9672,"Ġpetiello":9673,"ĠpeÃ¡nie":9674,"ĠAnel":9675,"ĠAnelde":9676,"ĠAntauvan":9677,"Ġlendanyasse":9678,"ĠCÃ¡no":9679,"ĠCendel":9680,"ĠClaurio":9681,"ĠCÃ¡nasse":9682,"Ġulyanes":9683,"Ġuller":9684,"Ġnamir":9685,"Ġnamnes":9686,"Ġnamuvar":9687,"Ġnamnen":9688,"ĠnamiÃ©no":9689,"Ġnamienna":9690,"Ġnamuvaltes":9691,"motun":9692,"Quiquie":9693,"ĠsÃ¡la":9694,"ĠsÃ¡malde":9695,"ĠsÃ¡maryasse":9696,"Ġcanie":9697,"Ġcanye":9698,"Ġcantar":9699,"Ġcanner":9700,"Ġcannel":9701,"Ġcanyave":9702,"Ġcantalyar":9703,"Ġcanastantur":9704,"ĠÅŁanganen":9705,"ĠÅŁangiÃ©nen":9706,"ĠÅŁangiello":9707,"ĠÅŁangiÃ©li":9708,"ĠÅŁangiessen":9709,"Ġontal":9710,"Ġontie":9711,"ĠonÃ³r":9712,"Ġontalesse":9713,"ĠmÃ³le":9714,"ĠmÃ³ron":9715,"ĠmÃ³tielda":9716,"ĠmÃ³tielma":9717,"Ġearello":9718,"Ġvanye":9719,"Ġvantanes":9720,"Ġvancelte":9721,"ĠhÃŃÂº":9722,"ĠhÃŃÅŁie":9723,"ĠhÃŃraina":9724,"Ġsuh":9725,"Ġsumba":9726,"Ġsuilie":9727,"Ġcapa":9728,"Ġcavo":9729,"ĠnanwÃ©nala":9730,"oronw":9731,"Ġtura":9732,"Ġtupe":9733,"Ġtucir":9734,"Ġtuia":9735,"Ġtuias":9736,"Ġnereli":9737,"tanenyes":9738,"Ġuaste":9739,"Enta":9740,"Endan":9741,"Ġcastar":9742,"Ġcastali":9743,"Ġcastarya":9744,"Ġharw":9745,"Ġharie":9746,"Ġharne":9747,"Ġharuva":9748,"Ġharwe":9749,"Ġharyane":9750,"Ġharyana":9751,"Ġharyanelte":9752,"Ġharnie":9753,"ĠnÃ³reli":9754,"ĠnÃ³relta":9755,"ĠnÃ³riello":9756,"Ġtaitin":9757,"tercÃ¡no":9758,"ĠhÃ¡noryanna":9759,"ĠÃ±andar":9760,"ĠÃ±ande":9761,"Ġmundorya":9762,"Ġtyal":9763,"Ġtyello":9764,"ĠtyÃ¡v":9765,"Ġpenil":9766,"Ġpennes":9767,"Ġpeniesse":9768,"Ġpennelde":9769,"Ġendeldallo":9770,"Ġhroanen":9771,"Ġhroanna":9772,"Ġhroamit":9773,"Ġsavienna":9774,"Ġsavielva":9775,"Ġsavieryanen":9776,"uvalo":9777,"ĠyÃ©tal":9778,"ĠyÃ©tuvalde":9779,"ĠnÃ¡veva":9780,"ĠErutercÃ¡ne":9781,"tÃºle":9782,"ĠÃģmon":9783,"ĠÃģcim":9784,"ĠÃģÄ§":9785,"ĠÃģvia":9786,"ĠÃģsor":9787,"ĠÃģviur":9788,"Ġnyaruvan":9789,"Ġnyarilme":9790,"Ġnyarnelme":9791,"Ġnyarnasse":9792,"Ġnyardaina":9793,"ĠmÃ¡rar":9794,"ĠmÃ¡ran":9795,"ĠmÃ¡ryanna":9796,"ĠmÃ¡ryallo":9797,"ĠmÃ¡ryalto":9798,"ĠmÃ¡ryanten":9799,"Ġacaitie":9800,"Ġacaltie":9801,"cante":9802,"Ġpeantan":9803,"Ġpeantuva":9804,"Ġpeantiel":9805,"ĠpeantiÃ©va":9806,"ĠpeantiÃ©no":9807,"Ġcoluvalde":9808,"Ġcolilte":9809,"Ġcoldes":9810,"Ġcolmalya":9811,"Ġvetto":9812,"Ġvettuva":9813,"Ġvettol":9814,"Ġvettier":9815,"ĠvettiÃ©nen":9816,"Ġvettalme":9817,"Ġvettumnes":9818,"Ġvettonya":9819,"Ġvettielya":9820,"Ġvettielta":9821,"Ġcemennen":9822,"maruine":9823,"Ġruve":9824,"Ġrucin":9825,"Ġrucuva":9826,"Ġminto":9827,"Ġmindar":9828,"Ġminyanna":9829,"Ġminalya":9830,"taleo":9831,"Ġairimoron":9832,"ĠairimÃ³li":9833,"Ġvalta":9834,"Ġvaltala":9835,"Ġvaltana":9836,"Ġvaltaine":9837,"Ġarah":9838,"Ġarata":9839,"Ġlaias":9840,"Ġlaive":9841,"Ġlaitane":9842,"Ġlaitana":9843,"Ġlaitea":9844,"Ġlaitiello":9845,"Ġlaitalme":9846,"Ġlaitalte":9847,"Ġlaituvalve":9848,"Ġataren":9849,"Ġatarillon":9850,"Ġatarwes":9851,"ĠatarnÃ³m":9852,"ĠMallo":9853,"ĠnÃºri":9854,"ĠnÃºrenen":9855,"ieryo":9856,"ĠVinya":9857,"ĠVoronda":9858,"ĠVÃ©ra":9859,"Ġsanalte":9860,"Ġsannen":9861,"Ġsanwali":9862,"Ġsanalye":9863,"Ġquettava":9864,"SÃŃve":9865,"SÃŃmeon":9866,"Ġnostane":9867,"Ġfailien":9868,"Ġfailanta":9869,"Ġfailannar":9870,"Ġfailielda":9871,"Ġfailienna":9872,"Ġhlarun":9873,"Ġhlaruvalde":9874,"Ġhlaruvas":9875,"Ġhlaruvalte":9876,"Ġhlarindo":9877,"Ġhlarunna":9878,"ĠÅŀÃ¡mo":9879,"ĠÅŀomas":9880,"ĠÅŀeo":9881,"eldain":9882,"Ġtyaruvar":9883,"ĠcÃ¡ranen":9884,"ĠcÃ¡ralte":9885,"ĠcÃ¡ralme":9886,"ĠHÃ©rullo":9887,"Ġparne":9888,"Ġparce":9889,"Ġpartaina":9890,"Ġparnel":9891,"sahta":9892,"Ġhirin":9893,"Ġhirir":9894,"Ġhiruvar":9895,"Ġhiruvalte":9896,"Ġhirieltan":9897,"Ġhirneltes":9898,"Ġhirdiryar":9899,"dant":9900,"Ġnaite":9901,"Ġnaiquenter":9902,"ĠÃ³manya":9903,"Ġcordanen":9904,"Ġcordaryasse":9905,"ĠMattan":9906,"ĠMairea":9907,"Ġamahtien":9908,"nierya":9909,"malta":9910,"maldar":9911,"malÃŃnen":9912,"malissen":9913,"maltassen":9914,"yalen":9915,"yalme":9916,"yaldasse":9917,"Ġtelyan":9918,"Ġteltane":9919,"Ġtelyana":9920,"Ġtelyanes":9921,"Ġtelyuva":9922,"Ġtelcor":9923,"Ġtelyumnes":9924,"Ġtelyanette":9925,"Ġyanwe":9926,"Ġyances":9927,"Ġyancal":9928,"Ġyancassen":9929,"ĠAtano":9930,"ĠAtanin":9931,"ĠAtanello":9932,"Ġmill":9933,"Ġmilyan":9934,"Ġmilyain":9935,"Ġqualiniltar":9936,"mane":9937,"manyasse":9938,"manwien":9939,"ÃŃrina":9940,"Ġpustuva":9941,"Ġpustanelte":9942,"Ġpustanelme":9943,"Ġpustanette":9944,"vaner":9945,"Ġtencer":9946,"Ġtengwa":9947,"ĠYohÃ¡nonna":9948,"Ġettir":9949,"Ġettello":9950,"NÃ¡s":9951,"tieltar":9952,"tiellon":9953,"tieltanen":9954,"Ġfairion":9955,"Ġfaireryasse":9956,"Ġfairennar":9957,"ĠfairelÃŃr":9958,"Ġcalanen":9959,"Ġcalarya":9960,"Ġcalmo":9961,"Ġcalpar":9962,"Ġcalmali":9963,"Ġcalpien":9964,"Ġveni":9965,"Ġvent":9966,"Ġvenin":9967,"donnar":9968,"Ġnoe":9969,"Ġnotir":9970,"Ġostoin":9971,"Ġmolis":9972,"Ġmolienya":9973,"Ġmolieltan":9974,"Ġmolielta":9975,"Ġhatir":9976,"Ġhaurar":9977,"Ġhatitat":9978,"Ġhaustar":9979,"Ġvorondal":9980,"Ġvorongand":9981,"ĠequÃ©rie":9982,"ĠequÃ©rier":9983,"Ġneldeo":9984,"Ġurta":9985,"Ġurtala":9986,"Ġrehtuval":9987,"Ġrehtieldan":9988,"panyaner":9989,"Ġsere":9990,"ĠaÅŁal":9991,"ĠaÅŁcÃ¡rima":9992,"ĠmÃ©ler":9993,"ĠmÃ©nasse":9994,"Ġranyala":9995,"Ġrancen":9996,"Ġrancer":9997,"Ġrangar":9998,"Ġrangwi":9999,"Ġyestaina":10000,"Ġtunt":10001,"Ġtunna":10002,"Ġtuntie":10003,"Ġtuntaina":10004,"Ġtuntiello":10005,"Ġtuncelte":10006,"Ġtuntierya":10007,"Ġtungwi":10008,"Ġtunceltes":10009,"Ġcestuva":10010,"Ġcestalde":10011,"Ġcestuvar":10012,"ĠnÃ©ver":10013,"Ġciryar":10014,"Ġciryanen":10015,"Ġcirumne":10016,"Ġciryallo":10017,"Ġcirnette":10018,"Ġcircarya":10019,"Ġcircalya":10020,"ĠAlcar":10021,"ĠAlantie":10022,"Ġelmenen":10023,"ĠelmendalÃŃnen":10024,"Ġaurepait":10025,"tenes":10026,"Ġlihtaine":10027,"ĠnancariÃ©no":10028,"Ġnancaritas":10029,"Ġnancarumneltes":10030,"Ġtalat":10031,"Ġtalamello":10032,"Ġlauce":10033,"Ġlaurea":10034,"yÃ¡rina":10035,"ĠtÃºrello":10036,"ĠtÃºreli":10037,"ĠtÃºrenya":10038,"ĠtÃºreryasse":10039,"ĠtÃºreryo":10040,"Ġvac":10041,"Ġvaca":10042,"Ġvattar":10043,"Ġvattaina":10044,"Ġmasso":10045,"Ġmasserya":10046,"Ġmassanen":10047,"Ġmassali":10048,"Ġmasselda":10049,"Ġmasselta":10050,"Ġmassalma":10051,"Ġperranga":10052,"Ġpoicar":10053,"Ġpoiciesse":10054,"Ġpoitielyan":10055,"Ġtarwandur":10056,"ĠmÃ³len":10057,"ĠmÃ³lin":10058,"ĠmÃ³les":10059,"ĠmÃ³lala":10060,"ĠmÃ³lyar":10061,"ĠmÃ³liryar":10062,"viron":10063,"iliÃ©va":10064,"Ġnestie":10065,"Ġnestando":10066,"ĠSÃŃs":10067,"ĠSÃŃon":10068,"ĠSÃŃra":10069,"ĠSÃŃnai":10070,"ĠRavi":10071,"ĠRappi":10072,"ĠRimbe":10073,"Ġhortar":10074,"Ġhortien":10075,"Ġhortaner":10076,"Ġendalya":10077,"Ġendalto":10078,"Ġendaldan":10079,"Ġendaldanen":10080,"Ġendalmasse":10081,"Ġendaltallo":10082,"iltexer":10083,"Ãģvase":10084,"Ġlunti":10085,"Ġluntel":10086,"Ġlunteli":10087,"ĠHerulma":10088,"ĠHerulvanen":10089,"Ġamilli":10090,"ĠacÃ¡riel":10091,"ĠacÃ¡rielde":10092,"ĠacÃ¡rielme":10093,"Ġlinte":10094,"Ġlinque":10095,"Ġlindie":10096,"ĠrÃºcime":10097,"varyanes":10098,"Ġturner":10099,"Ġturyaina":10100,"Ġturcol":10101,"ĠturÃºne":10102,"ĠturÃºva":10103,"ĠhÃºm":10104,"ĠhÃºne":10105,"ĠhÃºtar":10106,"ĠhÃºmesse":10107,"ĠhÃºmin":10108,"Ġhama":10109,"Ġhampe":10110,"Ġhammasse":10111,"ĠYÃºlio":10112,"Ġestelya":10113,"Ġestelenna":10114,"Ġestelwa":10115,"Ġestelelda":10116,"Ġillumen":10117,"Ġmahtar":10118,"Ġsarda":10119,"Ġsarnel":10120,"Ġsardeli":10121,"Ġhentanelde":10122,"Ġhenyant":10123,"ĠAtanyondonna":10124,"Ilce":10125,"Ġessetya":10126,"Ġessetyan":10127,"Ġraineo":10128,"ĠErutercÃ¡noiva":10129,"ĠErutercÃ¡nossen":10130,"ĠOr":10131,"ĠOla":10132,"ĠOloire":10133,"ĠquÃ¡lalme":10134,"Ġqueruva":10135,"Ġquerien":10136,"Ġquernelte":10137,"Ġvalatie":10138,"Ġaha":10139,"Ġahya":10140,"Ġahas":10141,"Ġahyane":10142,"ĠsÃ¡met":10143,"nelve":10144,"nelyaner":10145,"Ġtautamo":10146,"Ġleryala":10147,"Ġleryanes":10148,"ĠnÃ¡moli":10149,"ĠnÃ¡mielta":10150,"ĠnÃ¡mielyar":10151,"ĠnÃ¡moldar":10152,"Ġcoivielva":10153,"Ġcoivieryo":10154,"Ġhenden":10155,"Ġhendesse":10156,"Ġhendulma":10157,"Ġhendelyallo":10158,"ĠhendunÃºror":10159,"Ġortauvan":10160,"Ġortaxe":10161,"ĠortavÃ©nen":10162,"veryo":10163,"Ġlastas":10164,"Ġlastanelde":10165,"Ġhuonnar":10166,"Ġcardaryainen":10167,"Ġcardaryallon":10168,"Ġcendelelda":10169,"Ġcendelenya":10170,"Ġcendeleryasse":10171,"Ġcendeleltasse":10172,"Ġcendeleltanna":10173,"ĠAtanyondova":10174,"ĠAtanyondosse":10175,"ĠYondol":10176,"Ġcarienyan":10177,"ĠhrÃ¡velda":10178,"ĠhrÃ¡velvo":10179,"Ġmore":10180,"Ġmorne":10181,"Ġocombello":10182,"Ġnelcil":10183,"Ġnelestasse":10184,"Ã¡vesse":10185,"Ġvaranda":10186,"Ġpalya":10187,"Ġpaller":10188,"Ġpalles":10189,"Ġpalpala":10190,"Ġpalpie":10191,"Ġpalpane":10192,"Ġpalmassen":10193,"ĠpalÃºresse":10194,"Ġqualmetta":10195,"Ġqualmehar":10196,"ĠÃ¡niel":10197,"ĠnÃºtala":10198,"Ġquetiesse":10199,"ĠquetiÃ©no":10200,"ĠquetiÃ©li":10201,"Hantan":10202,"ĠQuiquie":10203,"Ġvandali":10204,"Ġvandaltar":10205,"Ġnahtuva":10206,"Ġnahtier":10207,"ĠnahtiÃ©no":10208,"Ġnahtumne":10209,"Ġnahtuvalte":10210,"Ġcostala":10211,"Ġcostien":10212,"ĠcostiÃ©va":10213,"Ġcosteli":10214,"ĠMarÃŃo":10215,"ĠMarÃŃanna":10216,"Ġlartane":10217,"Ġlartala":10218,"Ġlarmo":10219,"Ġlarmor":10220,"Ġlarmali":10221,"Ġlarnelta":10222,"Ġlimili":10223,"Ġfailave":10224,"Ġnanwenis":10225,"Ġnanwennen":10226,"Ġnanwenuvas":10227,"Ġemme":10228,"Ġemmar":10229,"Ġquettaryar":10230,"Ġmettaryanna":10231,"Ġarcuvas":10232,"ĠlamÃ¡re":10233,"Ġlamanwe":10234,"Ġlammalta":10235,"Ġeuvat":10236,"Ġyomeniel":10237,"Ġmandossen":10238,"Ġmandocundo":10239,"enyain":10240,"Ġtyavuvar":10241,"Ġtump":10242,"Ġtumyala":10243,"Ġtumper":10244,"ĠNÃ¡ne":10245,"Ġlamberya":10246,"Ġlambion":10247,"Ġlambanya":10248,"Ġlambelissen":10249,"Ġaxanya":10250,"Ġaxanion":10251,"Ġtyera":10252,"Ġtyerilde":10253,"Ġtyernelte":10254,"Ã³rello":10255,"Ġrimbalion":10256,"Ġperpera":10257,"Ġperperie":10258,"Ġperperis":10259,"Ġperperuva":10260,"Ġperperien":10261,"ettet":10262,"Ġessenyan":10263,"Ġessenyo":10264,"Ġtierya":10265,"Ġtieryasse":10266,"Ġticuvar":10267,"Ġcuivi":10268,"Ġcucuo":10269,"Ġyalta":10270,"Ġyaltanya":10271,"Ġmaquenten":10272,"ĠrÃ¡na":10273,"ĠrÃ¡va":10274,"ĠrÃ¡men":10275,"ĠrÃ¡nea":10276,"ĠrÃ¡vion":10277,"Ġcennette":10278,"Ġvaldave":10279,"Ġmahalmarya":10280,"Ġmahalmali":10281,"Ġmahalmassen":10282,"Ġmahalmaryanna":10283,"Ġyomencoaltasse":10284,"Ġinwisto":10285,"fat":10286,"molin":10287,"molie":10288,"moltar":10289,"molila":10290,"mollon":10291,"quetta":10292,"quetuvan":10293,"Ġsavuva":10294,"Ġsavuvalte":10295,"Ġsavilte":10296,"Ġsavuvalme":10297,"Ġistalye":10298,"Ġistaldes":10299,"ĠsestiÃ©nen":10300,"Ġcantasse":10301,"Ġcarastar":10302,"Ġcarastana":10303,"ĠcarastiÃ©no":10304,"ĠrÃŃer":10305,"ĠrÃŃcina":10306,"ĠrÃŃcine":10307,"ĠrÃŃpelte":10308,"Ġpaityana":10309,"Ġpaityuvan":10310,"Ġmentave":10311,"ĠmÃ¡lyat":10312,"ĠmÃ¡ltanten":10313,"ĠmÃ¡ldat":10314,"ĠSÃŃmonna":10315,"ĠSÃŃmondo":10316,"Ġtyastane":10317,"ĠtyastiÃ©va":10318,"Ġcomyal":10319,"Ġcomyaine":10320,"Ġcomyuvalte":10321,"Ġcomyanelde":10322,"Ġhyamin":10323,"Ġhyamie":10324,"Ġhyamuvar":10325,"Ġcenneses":10326,"elvasse":10327,"elvassen":10328,"ĠcÃ©nienwe":10329,"ĠcÃ©nimar":10330,"ĠcÃ©nelÃ³re":10331,"ĠElve":10332,"seso":10333,"Ġnenissen":10334,"Ġhimyala":10335,"Ġhimyaner":10336,"Ġattanna":10337,"ĠatÃ¡nie":10338,"Ġatsin":10339,"ĠatÃ¡lie":10340,"Ġmapar":10341,"Ġmapas":10342,"Ġesseryan":10343,"Ġesselyan":10344,"Nauvalde":10345,"Ġalapi":10346,"Ġalairi":10347,"ĠalamÃ³":10348,"Ġalamonnar":10349,"ĠalavÃ©la":10350,"Ġnorie":10351,"Ġnorme":10352,"Ġnorello":10353,"Ġnornelte":10354,"Ġnoriesse":10355,"Ġnoroll":10356,"quÃ©ta":10357,"quÃ©tina":10358,"quÃ©time":10359,"Ġherenya":10360,"Ġherunen":10361,"ĠYÃ³hya":10362,"ĠYÃ³tam":10363,"ĠYÃ³seso":10364,"Ġmattan":10365,"Ġmatto":10366,"Ġmattanen":10367,"Ġmatuvalte":10368,"Ġmatten":10369,"Ġroitar":10370,"Ġroitaner":10371,"Ġroitanelte":10372,"Ġroituvalte":10373,"Ġloitan":10374,"Ġloitar":10375,"Ġloituva":10376,"ĠloitiÃ©nen":10377,"Ġloicor":10378,"Ġloitalte":10379,"Ġloitanelde":10380,"tulya":10381,"tullo":10382,"tultanes":10383,"tulyuvas":10384,"Ġnem":10385,"Ġnemir":10386,"Ġparmangolmoltar":10387,"Elme":10388,"Elve":10389,"Elyenen":10390,"cilar":10391,"ĠcÃ©ÅŁ":10392,"ĠcÃ©ÅŁina":10393,"Ġquelle":10394,"Ġmauresse":10395,"Ġmaurelta":10396,"Ġmaurelma":10397,"Ġmaureltar":10398,"Ġmaurenyan":10399,"Ġformasse":10400,"Ġformaryasse":10401,"ĠosciriÃ©nen":10402,"Ġoscirnaron":10403,"Ġaistala":10404,"ĠaistiÃ©va":10405,"Ġaistalve":10406,"Ġvinyali":10407,"ĠetequÃ©tala":10408,"Ġapsena":10409,"Ġapsenir":10410,"Ġapsennes":10411,"ĠapseniÃ©nen":10412,"ĠYÃ¡covello":10413,"Ġcimnes":10414,"ĠcimiÃ©nen":10415,"Ġcimnelde":10416,"ĠÃºfailar":10417,"ĠFean":10418,"ĠFeasse":10419,"Ġairitie":10420,"ĠairitiÃ©nen":10421,"ĠnÃ³rienna":10422,"ĠnÃºroryan":10423,"ĠnÃºroryaron":10424,"Ġcaitea":10425,"ĠhÃ¡ma":10426,"ĠhÃ¡tala":10427,"Ġlengala":10428,"Ġlengien":10429,"Ġlengalde":10430,"Ġlengiesse":10431,"ĠlengiÃ©no":10432,"Ġlengiello":10433,"Ġlengielda":10434,"Ġlengierya":10435,"Ġlenganes":10436,"ĠIlquenen":10437,"ĠIluvalo":10438,"ĠhÃ¡nonil":10439,"ĠhÃ¡nonilme":10440,"ĠhÃ¡nonyain":10441,"aviÅŁa":10442,"ĠvÃ¡quenter":10443,"ĠvÃ¡quetila":10444,"ĠvÃ¡vaner":10445,"Ġenortalesse":10446,"Ġcennenyes":10447,"ĠPilÃ¡ton":10448,"ĠPilÃ¡tollo":10449,"Ġhehtien":10450,"Ġhehtanelte":10451,"Ġcastatya":10452,"Ġnossion":10453,"Ġnosselya":10454,"Ġnosselyo":10455,"Ġorontette":10456,"Ġmassainen":10457,"yaneltet":10458,"Ġcardallon":10459,"Ġcardalta":10460,"Ġcardaldar":10461,"Ġcarneses":10462,"Ġsumbanen":10463,"Ġtiuca":10464,"Ġtiutien":10465,"Ġtiutieryan":10466,"Ġciltaina":10467,"Ġciltanes":10468,"Ġcilles":10469,"Ġquanter":10470,"Ġquantala":10471,"oicave":10472,"ĠsÃ³vine":10473,"ĠsÃ³vala":10474,"Ġastaro":10475,"Ġastarindor":10476,"ĠequÃ©tielme":10477,"Ġistuval":10478,"Ġistyal":10479,"ĠhÃ¡nolyanna":10480,"Ġondova":10481,"Ġondocolco":10482,"ĠhÃŃnal":10483,"ĠhÃŃnannar":10484,"ĠacÃ¡mies":10485,"ĠacÃ¡mielme":10486,"Ġtoava":10487,"Ġquata":10488,"Ġquatir":10489,"Ġquainea":10490,"Ġattean":10491,"Ġvandava":10492,"ĠennÃ³na":10493,"Ġhepie":10494,"Ġhepilde":10495,"Ġhepuvalde":10496,"Ġhepuvas":10497,"Ġhepienya":10498,"hatitas":10499,"Ġmardenna":10500,"Ġamillin":10501,"Ġhurun":10502,"Ġhuruli":10503,"Ġhuruvi":10504,"Ġhuruhristoli":10505,"Ġhurupean":10506,"ĠYondotya":10507,"cÃ¡ro":10508,"Ġlantassion":10509,"Ġmallenna":10510,"Ġmallenen":10511,"Ġmallessen":10512,"Ġlatili":10513,"ĠrÃºÅŁen":10514,"ĠrÃºÅŁenna":10515,"ĠrÃºÅŁerya":10516,"ĠrÃºÅŁeryava":10517,"ĠAvrahamello":10518,"altaron":10519,"ĠmÃ©nienwe":10520,"Ġlumba":10521,"Ġhrucen":10522,"Ġapantanes":10523,"Ġapantuva":10524,"ĠapantiÃ©va":10525,"Ġcanwainen":10526,"ĠAinollo":10527,"ĠAinolda":10528,"ĠAinolvan":10529,"rip":10530,"altain":10531,"ĠecÃ©nien":10532,"ĠecÃ©nielte":10533,"Ġfean":10534,"Ġfeanna":10535,"Ġfealda":10536,"Ġfealya":10537,"Ġfealdain":10538,"ĠnÃ³naressen":10539,"ĠnÃ³narÃ©li":10540,"ĠnÃ³nareryasse":10541,"ĠSÃ¡lemo":10542,"ĠyÃ¡lala":10543,"Ġcordahes":10544,"Ġnoirio":10545,"Ġquiltal":10546,"Ġquiltane":10547,"Ġohtarho":10548,"Ġohtarhosta":10549,"imoÅŁÃ©o":10550,"ĠlehtiÃ©nen":10551,"Ġlehtuvan":10552,"Ġlehtuvanyes":10553,"Ġvoronwerya":10554,"Ġvoronwiesse":10555,"ĠvoronwiÃ©va":10556,"Ġvoronwielda":10557,"Ġvoronwielya":10558,"Ġtarwestien":10559,"Ġtarwestaner":10560,"Ġtarwestaneltes":10561,"ĠnyÃ©reo":10562,"ĠmÃ¡manya":10563,"ĠmÃ¡maryar":10564,"ĠmÃ¡manyar":10565,"Ġnaityar":10566,"Ġnaityala":10567,"ĠYeconya":10568,"ĠEnyala":10569,"ĠocÃ³li":10570,"Ġtuxi":10571,"Ġtuxali":10572,"valima":10573,"sefion":10574,"ĠSamin":10575,"ĠSamuel":10576,"Ġhlaiwali":10577,"ĠapÃ¡nier":10578,"ĠapÃ¡nies":10579,"ĠapÃ¡nielde":10580,"ĠapÃ¡nielve":10581,"Ġnattosse":10582,"Ġhrupuhta":10583,"piÃ©li":10584,"endette":10585,"Ġronda":10586,"ĠVarÅŁolo":10587,"Lahtala":10588,"Ãļh":10589,"Ãļvoronda":10590,"Ġmolier":10591,"Ġmolienna":10592,"Ġmolieryo":10593,"Ġpeltaina":10594,"Ġpeltanes":10595,"Ġpelder":10596,"Ġpelonen":10597,"Ġpilir":10598,"Ġpilil":10599,"Ġpiluvas":10600,"Ġpilwi":10601,"Ġpilweo":10602,"Ġpilunna":10603,"Ġquetienya":10604,"Ġulcain":10605,"ĠÃ±walya":10606,"ĠSÃ¡tanwa":10607,"ĠUl":10608,"ĠUalte":10609,"ĠUtÃºlien":10610,"ĠUndu":10611,"ĠUssi":10612,"Ġantoryo":10613,"Ġendaron":10614,"Ġendaryanna":10615,"Ġtarastie":10616,"Ġatarilvain":10617,"Ġatarilvannar":10618,"Ġnucumila":10619,"ĠAraucon":10620,"Ġhrupuhtor":10621,"Ġhrupuhtandor":10622,"ĠQuÃ©tan":10623,"Ġlestassen":10624,"Ġcardain":10625,"Ġmacilelya":10626,"Ġmalleo":10627,"ĠÃ³ravi":10628,"ĠÃ³ravas":10629,"ĠÃ³raviÃ©no":10630,"ĠFeava":10631,"Ġveriryanna":10632,"Ġrunces":10633,"Ġtungwemende":10634,"Ġnirmen":10635,"ĠcÃ¡tine":10636,"Ġambasse":10637,"Ġsapta":10638,"Ġsapsa":10639,"ĠHerunya":10640,"ĠIsraelyar":10641,"Ġcaruvanyes":10642,"ĠfÃ³ler":10643,"Ġmanwaner":10644,"Ġmanwanes":10645,"Ġmanwanelte":10646,"ĠÃŃrin":10647,"ĠÃŃreli":10648,"ĠÃŃreltassen":10649,"ĠhlÃ¡ral":10650,"ĠhlÃ¡ralve":10651,"ĠhlÃ¡relÃ³ra":10652,"ĠhlÃ¡relÃ³rar":10653,"Ġongwel":10654,"Ġongweltar":10655,"Ġongweryar":10656,"Ġocomuvar":10657,"ĠnÃºromolien":10658,"ĠnÃºromolielya":10659,"ĠmÃ¡nar":10660,"ĠmÃ¡nten":10661,"Ġsirpeo":10662,"ĠpÃ¡laina":10663,"Ġenyaluvan":10664,"Ġenyalder":10665,"Ġveuyar":10666,"Ġveuyal":10667,"Ġveuyanes":10668,"Ġveuyaina":10669,"Ġoravuva":10670,"ĠÅŁanyer":10671,"ĠÅŁanyenna":10672,"ĠÅŁanyesse":10673,"Ġlavin":10674,"Ġlavien":10675,"Ġlavuvan":10676,"Ġlavumnes":10677,"Ġcordonion":10678,"Ġcordontyer":10679,"Ġtirie":10680,"Ġtiruva":10681,"Ġlelyar":10682,"Ġlelyal":10683,"ĠvÃ©ralda":10684,"ĠvÃ©ralta":10685,"ĠvÃ©ralya":10686,"ĠvÃ©raryallon":10687,"Ġlapsen":10688,"Ġlapseo":10689,"ĠYerÃºsalemanna":10690,"Ġsercenna":10691,"Ġsercerya":10692,"Ġhendulta":10693,"Ġhendulmanten":10694,"Ġyaiwesse":10695,"Ġyaiwelta":10696,"cestane":10697,"tyet":10698,"velien":10699,"velunte":10700,"ĠrÃ©l":10701,"Ġfinde":10702,"Ġquettalta":10703,"ĠettÃºlienwe":10704,"Ġnaracie":10705,"ĠmÃ¡lea":10706,"ĠmÃ¡leo":10707,"Alanties":10708,"cinar":10709,"Ġlornar":10710,"Ġlienyan":10711,"Ġhostar":10712,"Ġhostie":10713,"Ġhostien":10714,"Ġvistanes":10715,"ĠnÃ¡ren":10716,"ĠAnaren":10717,"ĠAnaresse":10718,"Ġmavaro":10719,"ĠMano":10720,"ĠamortiÃ©li":10721,"Ġlahtane":10722,"Ġlahtanelte":10723,"ĠlahtiÃ©va":10724,"ĠnÃŃrar":10725,"ĠnÃŃrina":10726,"ĠnÃŃrion":10727,"ĠnÃŃressen":10728,"ĠnÃŃreryar":10729,"ĠnÃŃrelÃŃnen":10730,"ĠnÃŃreryainen":10731,"ĠCoirea":10732,"ĠhÃŃrala":10733,"ĠimmotuntiÃ©nen":10734,"ĠimmotuntiÃ©no":10735,"Ġimmotuntiello":10736,"ĠRehton":10737,"ĠRehÃ³vo":10738,"Ġhyaryasse":10739,"Ġhyarmello":10740,"Ġhyarmalya":10741,"Ġuiuhtie":10742,"matÃ©":10743,"ĠÃīve":10744,"ĠÃīnoc":10745,"Ġcamneset":10746,"Ġturuvas":10747,"ĠVetto":10748,"ĠÅŀanyeldasse":10749,"ĠtÃ¡ralde":10750,"ĠtÃ¡riello":10751,"Ġusquenen":10752,"Ġhildonna":10753,"Ġsanwenen":10754,"Ġsanwenyar":10755,"ĠnossetÃºr":10756,"Ã¡veltan":10757,"ĠIngaranna":10758,"Ġsalpe":10759,"Ġsalquenna":10760,"Ġlisso":10761,"Ġtehto":10762,"ĠlÃºmissen":10763,"ĠlÃºmeryasse":10764,"Ġtaluttat":10765,"Ġyondonyan":10766,"ĠtÃ¡rave":10767,"Ġsuilane":10768,"Ġhenduo":10769,"Ġhuorelma":10770,"ĠÂºÃº":10771,"ĠfÃ³leo":10772,"ĠfÃ³leva":10773,"Ġtuxanturen":10774,"Aiya":10775,"ErutercÃ¡no":10776,"ĠcÃ¡malÃ³re":10777,"Ġhelyan":10778,"Ġfastana":10779,"Ġnyarnet":10780,"Ġnyarnette":10781,"ĠnÃ©ÅŁal":10782,"ĠnÃ©ÅŁenyallo":10783,"ĠnÃ³recÃ¡nor":10784,"Nyarnes":10785,"Nyarnen":10786,"hlar":10787,"hlasse":10788,"hanter":10789,"Ġluhtane":10790,"Ġluhtala":10791,"Ġluhtien":10792,"Ġcelum":10793,"Ġmatsova":10794,"Ġmatsocolcar":10795,"Ġroquen":10796,"Ġrincelte":10797,"Ġrocoll":10798,"Ġmittala":10799,"Ġmityaldasse":10800,"ĠÅŁunduo":10801,"Ġtecuvan":10802,"Ġtecumne":10803,"Ġerdello":10804,"Ġerdion":10805,"Ġerdelya":10806,"Ġerderyan":10807,"Ġqualinain":10808,"ĠÃ±etienna":10809,"ĠnyÃ¡ralme":10810,"ĠtÃ³panya":10811,"Ġsoa":10812,"esserya":10813,"Ġnacantelde":10814,"Ġpanyanet":10815,"ĠMelci":10816,"ĠolÃ³lielde":10817,"Ġampitye":10818,"ĠnÃŃÅŁime":10819,"ĠhÃŃnaryain":10820,"Ġsavieltan":10821,"Ġsavielyanen":10822,"Ġsavieldan":10823,"Ġhaimerya":10824,"Ġhaimenen":10825,"Ġhaimassen":10826,"Ġhaimeryanen":10827,"ĠperpÃ©rala":10828,"Ġsarnenna":10829,"Ġsarneli":10830,"Ġsarninen":10831,"Ġpaityaleryo":10832,"Ġetequentalve":10833,"malion":10834,"palÃºne":10835,"palpaner":10836,"tÃŃrasse":10837,"Ã©vanen":10838,"ĠnÃ¡moham":10839,"ĠnÃ¡mocombin":10840,"Ġsailaron":10841,"Ġsailallon":10842,"ĠÅŁÃºre":10843,"ĠPat":10844,"ĠPafos":10845,"ĠHellenyan":10846,"ĠHellenyasse":10847,"ĠHellenyaron":10848,"ĠAntiocesse":10849,"Samuvalte":10850,"Samilve":10851,"Samilme":10852,"Ãĵse":10853,"Ãĵrava":10854,"Ġmehtenen":10855,"Ġmehtelma":10856,"ĠsÃºrillon":10857,"Ã©lin":10858,"Ġhandal":10859,"Ġhandesse":10860,"Ġhandallon":10861,"Ġhunter":10862,"Ġhuntelte":10863,"ĠyuhtiÃ©no":10864,"ĠannalÃŃnen":10865,"ĠÃºlÃ©vi":10866,"ĠPanyala":10867,"ĠhrÃºceni":10868,"ĠÃ±etala":10869,"Ġpustanexe":10870,"Ġrantaron":10871,"Ġlingwion":10872,"Ġlingwio":10873,"Ġetelehtie":10874,"Ġetelehtien":10875,"Ġetelehtaina":10876,"Ġnelliva":10877,"Ġarcandenen":10878,"Ġarcandeldanen":10879,"?',":10880,"Ġlalar":10881,"Ġlalye":10882,"Ġlalanelte":10883,"ĠantÃ¡veltan":10884,"Ġcariltasse":10885,"Ġcarnengwe":10886,"Ġintyane":10887,"ĠnÃ³melta":10888,"Ġleucoron":10889,"Ġmancaner":10890,"Ġmentanetye":10891,"Ġalassie":10892,"ĠsÃ¡ves":10893,"ĠsÃ¡vina":10894,"ĠÃ±uruh":10895,"ĠÃ±urullo":10896,"Ġnostaruryat":10897,"ĠnostalÃ©nen":10898,"Ġcestean":10899,"Ġcestealte":10900,"Ġcesteaste":10901,"ĠOrontesse":10902,"Ġvandaryanen":10903,"Ġlamatelta":10904,"Ġyomencoain":10905,"Ġetementaina":10906,"Ġetementanes":10907,"ĠcÃ¡noli":10908,"Ġhurir":10909,"illÃŃnen":10910,"Ġumilde":10911,"Ġumilte":10912,"Ġumilye":10913,"ĠYoanna":10914,"ĠYosefion":10915,"Ġmaileryar":10916,"Ġtaluldal":10917,"Ġveryanwe":10918,"Ġveryanwenna":10919,"ĠCorasin":10920,"Ġlaitaleo":10921,"Ġvendeo":10922,"Ġhortanelme":10923,"Ġhenyatse":10924,"ĠElÃŃo":10925,"Ġsalqueo":10926,"camner":10927,"tyarien":10928,"tyarila":10929,"yera":10930,"Â».":10931,"Ġhastima":10932,"ĠaquÃ¡lielve":10933,"Ġnaityaine":10934,"Ġohtacarien":10935,"ĠÃºaire":10936,"Ġpaimetien":10937,"Ġpaimetiello":10938,"ĠoraviÃ©no":10939,"ĠMene":10940,"ĠMentanes":10941,"ĠMentuvan":10942,"ĠtercÃ¡no":10943,"ĠtercÃ¡noli":10944,"Ġammatuva":10945,"Ġammaira":10946,"ĠyÃ¡veli":10947,"ĠyÃ¡velda":10948,"Ġantauvane":10949,"ĠÃ±entelte":10950,"ĠutÃºlielme":10951,"Ġcirihtuva":10952,"Ġcirihtuvar":10953,"Ġturcova":10954,"ĠihÃŃriel":10955,"ĠihÃŃrielme":10956,"ĠIngaranwa":10957,"ppas":10958,"sante":10959,"Âºer":10960,"Ġsailiesse":10961,"Ġrestallo":10962,"Ġrestallon":10963,"Ġentuluva":10964,"Ġentuluvan":10965,"Ġpanyaneltet":10966,"ĠSÃŃrio":10967,"Quetie":10968,"Ġtermaruvan":10969,"ĠTÃºles":10970,"ĠTÃºlelte":10971,"ĠTÃºreo":10972,"Enges":10973,"ĠYohannenna":10974,"ĠhÃºmeo":10975,"ĠÃ±ottoldar":10976,"Ġurustami":10977,"Ġhuoreo":10978,"Uaste":10979,"YÃºyo":10980,"exen":10981,"ĠQueneli":10982,"Ġmulmanen":10983,"Ġhestane":10984,"ĠhestiÃ©la":10985,"tandoiva":10986,"Ġeff":10987,"Ġandoryar":10988,"Ġantolta":10989,"Ġantoltasse":10990,"Ġantoltallo":10991,"Ġantoldallo":10992,"Ġnaxalissen":10993,"ĠÃºÅŁelte":10994,"ĠÃºÅŁahtaina":10995,"ĠÃºÅŁahtiÃ©nen":10996,"ĠlenÃ¡ri":10997,"ĠlenÃ¡rion":10998,"Ġtulinwe":10999,"ĠortÃŃrala":11000,"ĠortÃŃrielda":11001,"ĠasÃ¡mier":11002,"ĠÅŁanyenyar":11003,"Ġostoramb":11004,"ĠungwalÃŃnen":11005,"ĠCÃ©fan":11006,"ĠCÃ©sarea":11007,"Ġsucila":11008,"Ġsucilde":11009,"Ġsucuvalde":11010,"Ġsucuvaste":11011,"Ġcauresse":11012,"Ġtyenyar":11013,"ĠFarisava":11014,"ĠOlyoÅŁa":11015,"ĠindÃ³men":11016,"Ġlimpunque":11017,"Ġlimpunqua":11018,"Ġtumnave":11019,"ĠnyÃ©ri":11020,"Ġoscirnain":11021,"ĠhyÃ³lar":11022,"Erya":11023,"Eryave":11024,"Ġmandol":11025,"Ġmandonna":11026,"Ġletse":11027,"Ġhalar":11028,"Ġhalla":11029,"Ġhalyaina":11030,"ĠquÃ©rinar":11031,"Ġyelwe":11032,"Ġrestassen":11033,"Ġrestaryasse":11034,"Ġennenya":11035,"ĠÃºmirwa":11036,"Ġtallun":11037,"Ġtallette":11038,"Ġtalienyan":11039,"Ġalcareryava":11040,"ĠTÃŃren":11041,"ĠsÃ¡maldo":11042,"ĠsÃ¡malyo":11043,"Ġhroalto":11044,"Ġhroaloi":11045,"Ġhroalmasse":11046,"ĠmÃ©lina":11047,"Ġnissennar":11048,"Ġneceliva":11049,"Ġtiutaleldan":11050,"ĠocÃ³mien":11051,"ĠocÃ³mienwa":11052,"ĠÃ±walmeryava":11053,"ĠCombeo":11054,"Ġrohtalie":11055,"Ġrohtalyo":11056,"ĠYordanello":11057,"Caram":11058,"Carilde":11059,"Carpan":11060,"Sava":11061,"Savin":11062,"anwie":11063,"Ġmoicar":11064,"Ġmoicie":11065,"Ġpiutie":11066,"Ġpiutanelte":11067,"Ġevettier":11068,"Ġantare":11069,"ĠAlapulÃºne":11070,"ĠAlapalÃºne":11071,"Ġfelmeli":11072,"Ġetteleallon":11073,"ĠÅŁahta":11074,"ĠÅŁahtaina":11075,"ĠSacc":11076,"Ġhildolyallon":11077,"Ġtalante":11078,"Ġmeriste":11079,"Ġcamneldes":11080,"ĠLemet":11081,"ĠLisce":11082,"ĠLisias":11083,"Ġhempelte":11084,"Ġongweo":11085,"Ġongwemo":11086,"ĠAinonyan":11087,"ĠYondoryasse":11088,"ĠomÃ³tien":11089,"ĠomÃ³lier":11090,"Ġheruldar":11091,"Ġherulyo":11092,"Ġquelexa":11093,"Ġquaistali":11094,"ĠSamÃ¡riallo":11095,"Ġhroarantan":11096,"Ġambaro":11097,"ĠihÃŃmielte":11098,"Ġenvinyatuva":11099,"ĠenvinyatÃ¡la":11100,"Ġcalmatarma":11101,"Ġcalmatarmar":11102,"Ġcalmatarmaron":11103,"hlaiwali":11104,"ĠperpÃ©relte":11105,"ĠperpÃ©relde":11106,"ĠCÃ©sareasse":11107,"ĠCÃ©sareallo":11108,"appane":11109,"tumnen":11110,"tumneltes":11111,"Ġnuldiesse":11112,"Ġtamma":11113,"Ġsunce":11114,"Ġcundo":11115,"ĠyÃ¡rar":11116,"ĠyÃ¡raron":11117,"ĠyÃ¡rannar":11118,"ĠyaliÃ©nen":11119,"ĠnÃ¡monnar":11120,"Ġeccar":11121,"ĠuÅŁuva":11122,"ĠuÅŁuvalte":11123,"Ġrenta":11124,"Ġrenne":11125,"Ġreril":11126,"ĠasÃ¡viel":11127,"ĠMandosto":11128,"ĠMandostonna":11129,"ĠMandostosse":11130,"Ġeldenna":11131,"Ġaucoin":11132,"ĠÃºcarelyar":11133,"ĠÃºcareldassen":11134,"Ġcanwarya":11135,"ĠlaitalÃ©va":11136,"Ġlaitalelma":11137,"Ġlaitalyexe":11138,"Ġyangwanen":11139,"Ġyangwallo":11140,"Ġnisquema":11141,"Ġtarwestaine":11142,"Ġhamuner":11143,"Ġroitainar":11144,"Ġnecelillon":11145,"ĠnecellÃŃva":11146,"ĠhyÃ¡man":11147,"ĠhyÃ¡mane":11148,"ĠverulÃ³rali":11149,"ĠverulÃ³raron":11150,"ĠSecarÃŃo":11151,"ĠSÃŃronen":11152,"ĠungwalÃ©nen":11153,"ĠlalevÃŃtenna":11154,"Herurya":11155,"hehtanes":11156,"Ã±etie":11157,"Ġtamba":11158,"ĠtÃŃrar":11159,"ĠtÃŃrala":11160,"ĠtÃŃraner":11161,"ĠlÃ©rar":11162,"ĠlÃ©riÃ©va":11163,"Ġavahtie":11164,"nampe":11165,"namper":11166,"nampes":11167,"Ġsavaht":11168,"Ġcardanyar":11169,"Ġcarnelyanes":11170,"Ġmahtas":11171,"Ġrassi":11172,"ĠÃºsah":11173,"ĠÃºsahtienna":11174,"Ġfindi":11175,"Ġfindiva":11176,"Ġalanarda":11177,"ĠÅŁelmarya":11178,"ĠÅŁelmanen":11179,"ĠSoromo":11180,"Ġsamienyan":11181,"Ġhanquetuvas":11182,"Ġraitandoli":11183,"ĠIÅŁilo":11184,"Ġlanganes":11185,"ĠyÃ¡vion":11186,"Ġveruryallo":11187,"ĠCanuvas":11188,"Ġpeantieryanen":11189,"Ġparahtane":11190,"ĠLahtien":11191,"ĠLahtiÃ©va":11192,"ĠLahtiÃ©no":11193,"ĠLahtiesse":11194,"ĠÃºpuhtale":11195,"ĠÃºpuhtiÃ©nen":11196,"ĠÃºpuhtiÃ©va":11197,"Ġalahasta":11198,"ĠÃºfailiÃ©no":11199,"Ġistuvaldet":11200,"Ġnirmunque":11201,"Ġnirmeryanen":11202,"Ġulculi":11203,"Ġsanwelyar":11204,"Ġroccosse":11205,"Ġotsolasse":11206,"ĠAndrÃ©o":11207,"Hilyuvan":11208,"sinwa":11209,"sinwe":11210,"Ġnildie":11211,"Ġnehtane":11212,"Ġnehtien":11213,"Ġnehtari":11214,"Ġtiellon":11215,"Ġtimbareryasse":11216,"ĠsÃ³masse":11217,"ĠsÃ³manna":11218,"Ġlitse":11219,"Ġlitsesse":11220,"Ġquorir":11221,"tanettes":11222,"ĠevÃ©rier":11223,"Ġnaute":11224,"ĠAmillelya":11225,"ĠrÃ©nar":11226,"ĠrÃ©nallo":11227,"Ġmalleryar":11228,"ĠfÃŃrime":11229,"ĠmÃ¡main":11230,"Ġostolta":11231,"Ġoloitier":11232,"Ġnattiruva":11233,"ĠCenie":11234,"ĠCencre":11235,"ĠCirÃ©n":11236,"ĠCirÃ©ne":11237,"ĠsÃ¡manyo":11238,"Ġvanwiello":11239,"Ġlaicelva":11240,"Ġvaimarya":11241,"ĠlingiÃ©nen":11242,"Ġahtaruva":11243,"ĠemÃ©lien":11244,"Ġcomyaneltet":11245,"Natto":11246,"ĠainolÃ³re":11247,"ĠainolÃ³rie":11248,"Ġraucoharyain":11249,"Ġatarildaron":11250,"Ġtungwemoron":11251,"ĠÂºang":11252,"ĠÂºanyenen":11253,"ĠhlÃŃvellon":11254,"ĠCorintenna":11255,"Lehem":11256,"Lehemenna":11257,"ĠoÅŁwerya":11258,"ĠoÅŁwelya":11259,"Amill":11260,"AmÃ¡pi":11261,"fÃŃlo":11262,"mÃ©na":11263,"mÃ©le":11264,"mÃ©nasse":11265,"ĠsÃ©rerya":11266,"Ġlilma":11267,"Ġlasseryar":11268,"Ġpetuva":11269,"ĠYairo":11270,"Ġmaquetiello":11271,"Ġrandasse":11272,"ĠÃºoscirna":11273,"Ġmityave":11274,"Ġortirindo":11275,"ĠcenÅŁer":11276,"ĠSard":11277,"ĠSaro":11278,"ĠSalÃ³me":11279,"ĠhlÃ¡raina":11280,"ĠhlÃ¡raine":11281,"Ġrambasse":11282,"Ġrambarya":11283,"ĠrambelÃŃnen":11284,"Ġtanome":11285,"ĠTicico":11286,"ĠCarnes":11287,"Ġtyarneset":11288,"ĠYericonna":11289,"ĠYericollo":11290,"Ġorontissen":11291,"Ġtelpenen":11292,"Ġtelpenya":11293,"Ġmilpial":11294,"ĠAlÃŃleo":11295,"ĠLaoricea":11296,"ĠRÃ³mallo":11297,"Ġyomencoanturwa":11298,"Ġcanaquea":11299,"ĠpÃ¡ÅŁesse":11300,"ĠpÃ¡ÅŁelar":11301,"ĠpÃ¡ÅŁeva":11302,"Ġhosseli":11303,"ĠtÃ³panna":11304,"Ġohtacarir":11305,"ĠÃºacÃ¡rien":11306,"ĠÃºacÃ¡rier":11307,"ĠVÃ©lsevul":11308,"ĠVÃ©lsevÃºlo":11309,"Ainol":11310,"Ainonya":11311,"HÃŃni":11312,"MarÃŃa":11313,"MarÅŁa":11314,"Rimbe":11315,"ainor":11316,"cundon":11317,"roitar":11318,"Ġarintinwe":11319,"Ġarinwat":11320,"ĠcoliÃ©nen":11321,"Ġcolitas":11322,"Ġcolitat":11323,"ĠpÃ©ltanten":11324,"ĠÃºtulya":11325,"Ġfirumne":11326,"Ġoromardesse":11327,"Ġetsanter":11328,"Ġetsanteset":11329,"Ġcenuvaldes":11330,"Ġisintier":11331,"Ġtevuvas":11332,"Ġhilyanettes":11333,"Ġtapta":11334,"Ġtapte":11335,"Ġloimallo":11336,"Ġammitya":11337,"ĠammÃ¡tala":11338,"ĠammÃ¡tina":11339,"ĠamÃ¡tien":11340,"Ġamanwie":11341,"Ġamanwiel":11342,"Ġlaulesta":11343,"Ġlaulestarya":11344,"Ġlaulestalta":11345,"ĠLÃºcas":11346,"ĠNÃ³nare":11347,"Ġontaru":11348,"Ġontarultan":11349,"ĠÃ±armo":11350,"ĠÃ±Ã©teltan":11351,"Ġpeantielyasse":11352,"Ġvettienya":11353,"Ġruiveryallo":11354,"Ġlaituvaxe":11355,"Ġnaiquetilte":11356,"Ġnaicelion":11357,"Ġnaicelea":11358,"ĠMattÃŃas":11359,"Ġlihto":11360,"Ġnestienyan":11361,"Ġlindala":11362,"ĠnÃ¡mosonda":11363,"Ġhendunyatse":11364,"ĠYondonen":11365,"Ġpalpaner":11366,"Ġnasseltanen":11367,"Ġcumbalyan":11368,"ĠmÃ¡lyato":11369,"Ġheruryo":11370,"Ġhepienyasse":11371,"Ġpiluiva":11372,"ĠTehtelessen":11373,"ĠTehtelellon":11374,"Ġlapserya":11375,"Ġlapsion":11376,"ĠtercÃ¡noryanen":11377,"ĠSanducearon":11378,"Ġeccoitaner":11379,"Ġhwerme":11380,"Ġsanwelung":11381,"ĠHanquentasse":11382,"ĠCiprusenna":11383,"ĠeÃ±Ã©tiel":11384,"ĠÃºhandea":11385,"Atanin":11386,"AcÃ¡riel":11387,"CÃ©nelÃ³rar":11388,"Inyen":11389,"LÃºmenya":11390,"Singe":11391,"Yestanelte":11392,"hÃ¡ta":11393,"sue":11394,"ĠÄ¦Ã¡ran":11395,"ĠÄ¦esecia":11396,"Ġnwalyaine":11397,"Ġseldor":11398,"Ġselyen":11399,"Ġsoice":11400,"Ġlieli":11401,"ĠquÃ³rina":11402,"Ġyutya":11403,"ĠvielÃ³re":11404,"Ġpota":11405,"Ġpoco":11406,"ĠanarÃ³re":11407,"ĠanarÃ³rello":11408,"ĠnatalÃŃnen":11409,"Ġnaxanyar":11410,"Ġnaxanyainen":11411,"ĠcarielÃŃnen":11412,"ĠrÃ¡maryat":11413,"ĠenutÃºlie":11414,"ĠenutÃºliel":11415,"Ġfenn":11416,"Ġfenda":11417,"Ġlepta":11418,"Ġtuluner":11419,"Ġtulunelte":11420,"Ġorirya":11421,"Ġorirestar":11422,"Ġetsesse":11423,"ĠÅŁorni":11424,"ĠHerolias":11425,"Ġsingeo":11426,"Ġhilmoryar":11427,"ĠestoliÃ©no":11428,"Ġninquima":11429,"Ġninquissenen":11430,"Ġtallenyes":11431,"Ġoloiri":11432,"ĠLervenna":11433,"ĠÃºcarinde":11434,"ĠÃºcarelvaiva":11435,"Ġhomancan":11436,"Ġhomancien":11437,"ĠNÃºmenna":11438,"ĠNÃºmello":11439,"ĠNoaÄ§":11440,"Ġlemyuvalve":11441,"ĠCestuvalden":11442,"Ġyondoldar":11443,"Ġanahtielde":11444,"Ġnuquernes":11445,"Ġontaleparmar":11446,"Ġhroanyanen":11447,"Ġatarinyan":11448,"ĠnÃºronyar":11449,"ĠValam":11450,"ĠnaiquÃ©taina":11451,"ĠurdiÃ©nen":11452,"ĠAlfaio":11453,"Ġlauperya":11454,"Ġvattuvalte":11455,"Ġnessaryar":11456,"ĠhrÃ¡venyanen":11457,"Ġlimilion":11458,"ĠmÃ¡ltato":11459,"Ġtoloquean":11460,"Ġcilmelyanen":11461,"Ġantanelyane":11462,"ĠahlÃ¡rielmes":11463,"ĠÂªan":11464,"ĠmÃ©naltallon":11465,"ĠSamÃ¡rear":11466,"ĠSamÃ¡reaiva":11467,"ĠapÃ¡nieltes":11468,"Ġambostelta":11469,"Ġlapsarwa":11470,"Ġlapsarwe":11471,"Ġhendulyatse":11472,"ĠcÃŃlinaryar":11473,"ĠManwie":11474,"ĠManwiÃ©va":11475,"ĠCainan":11476,"Ġciryampa":11477,"Ġciryampar":11478,"Ġsovallenen":11479,"ĠEfesusello":11480,"Ġtyelpecolca":11481,"Ġandamacilden":11482,"ĠErasto":11483,"ĠAlatia":11484,"ĠAlatiasse":11485,"ĠsaicelÃ©nen":11486,"Ġneceltussa":11487,"Ġalasailar":11488,"ĠÅŀessalonicanna":11489,"Anaien":11490,"Eteleh":11491,"ImÃŃca":11492,"Lempe":11493,"Lertalme":11494,"Tyara":11495,"ĠmÃºco":11496,"Ġsorosta":11497,"Ġsitunen":11498,"ĠlÃŃrinen":11499,"Ġvaitane":11500,"Ġpocolle":11501,"ĠYosÃŃa":11502,"ĠYosua":11503,"ĠEulen":11504,"ĠEliur":11505,"ĠAvriel":11506,"Ġohtalli":11507,"Ġencarastuvan":11508,"Ġencarastumne":11509,"ĠÃºmelte":11510,"ĠÃºmÃ¡re":11511,"ĠÃºnain":11512,"Ġpaitie":11513,"Ġpaitien":11514,"Ġfanyassen":11515,"Ġmancale":11516,"Ġascatuva":11517,"Ġascatuvas":11518,"ĠetyÃ¡mes":11519,"ĠÅŁintanÃ©ya":11520,"ĠHristoryo":11521,"Ġnarcanes":11522,"Ġmarillainen":11523,"Ġquetiellon":11524,"ĠSinai":11525,"ĠSionde":11526,"ĠSostenes":11527,"Ġhluss":11528,"ĠPeter":11529,"ĠÃ³rÃ¡vala":11530,"Ġrappal":11531,"ĠItalianna":11532,"Ġappieryan":11533,"Ġlanneltar":11534,"ĠairilÃŃr":11535,"ĠairitÃ¡ve":11536,"ĠairelÃŃresse":11537,"ĠyÃ¡veryar":11538,"ĠyÃ¡veryanen":11539,"ĠTertullo":11540,"ĠTurco":11541,"ĠTrifimo":11542,"ĠceutiÃ©va":11543,"Ġulumpion":11544,"Ġtuiane":11545,"Ġtuianelte":11546,"ĠÃ±onalme":11547,"ĠÃģsia":11548,"Ġnyardane":11549,"Ġlaitanyexe":11550,"ĠÅŀiatÃŃra":11551,"ĠÅŀiatÃŃrasse":11552,"ĠMattatÃŃas":11553,"Ġfairenyo":11554,"Ġmolieltanen":11555,"Ġranceses":11556,"Ġcarampette":11557,"Ġhlasseldes":11558,"Ġnesselesse":11559,"Ġturconnar":11560,"Ġvarnass":11561,"Ġvarnassenna":11562,"Ġsaviste":11563,"ĠatÃ¡rier":11564,"Ġvinimor":11565,"Ġtoluparma":11566,"Ġcilintilla":11567,"Ġtompeltes":11568,"ĠÃļcaretyar":11569,"Ġehentie":11570,"Ġehentanie":11571,"ĠQuetin":11572,"ĠQuetto":11573,"ĠFilippisse":11574,"ĠliyÃºmeli":11575,"ĠVetÃ¡nia":11576,"Atarilmar":11577,"Ġtecettanya":11578,"Ġampityallo":11579,"ĠNasaretenna":11580,"ĠrelyÃ¡valdallo":11581,"ĠsalquecÃ¡p":11582,"ĠsalquecÃ¡por":11583,"ĠCaraxomen":11584,"Ġimbacindi":11585,"ĠminaÅŁÃºra":11586,"Ġhalmahlaiwar":11587,"ĠEhenno":11588,"Ġolvaryassen":11589,"Ġfindileryanen":11590,"ĠCanÃ¡anya":11591,"Ġementaye":11592,"Ġnampaityuva":11593,"Ġnampaityale":11594,"ĠNancariÃ©va":11595,"Ġavaleryala":11596,"ĠPamfilia":11597,"ĠPamfiliasse":11598,"Ġhelexeva":11599,"Estel":11600,"Faila":11601,"Fahenna":11602,"Imnetyandor":11603,"MÃ³ses":11604,"NicorÃ©mus":11605,"Polimme":11606,"Tarner":11607,"Yalles":11608,"YÃºras":11609,"Ġnunter":11610,"Ġtieltassen":11611,"Ġsimpetar":11612,"elyenya":11613,"Ġlumnane":11614,"Ġlelyea":11615,"ĠculmÃŃre":11616,"Ġhlicilar":11617,"Ġquarca":11618,"Ġquestaryasse":11619,"Ġacarastie":11620,"Ġvelitas":11621,"Ġpimpeltasse":11622,"ildain":11623,"Ġeulenyain":11624,"ĠuÂºie":11625,"ĠEpafrolÃŃto":11626,"Ġopoitie":11627,"Ġyaxir":11628,"ĠHyarmello":11629,"ĠentÃºlala":11630,"ĠÃºfanwie":11631,"Ġtulyandor":11632,"mauya":11633,"ĠetutÃºlielde":11634,"Ġimnatyandor":11635,"Ġalmare":11636,"ĠMÃ¡ria":11637,"ĠÅŁÃ©yar":11638,"ĠÃ¡pantiel":11639,"ĠSÃ¡roc":11640,"Ġsingenen":11641,"ĠhrÃ³tanoir":11642,"ĠtarambolÃŃnen":11643,"ĠapÃ¡rien":11644,"ĠFÃ¡ro":11645,"Ġautulyal":11646,"ĠÃĵver":11647,"Ġnattonyar":11648,"ĠLoto":11649,"ĠLirda":11650,"ĠTocot":11651,"ĠhÃ©paine":11652,"ĠceÂºe":11653,"ĠsÃ¡nealde":11654,"ĠÃ±warie":11655,"ĠtyÃ¡velasseli":11656,"ĠÃģvelo":11657,"Ġminqueses":11658,"ĠYeremÃŃa":11659,"ĠYerusalemenna":11660,"ĠYerÃºsalÃ©mo":11661,"ĠYohÃ¡nion":11662,"Ġhatuvaltet":11663,"ĠaÅŁceni":11664,"ĠaÅŁcÃ©nime":11665,"Ġlivyale":11666,"ĠRÃºf":11667,"ĠOnesifÃ³r":11668,"Ġnastaror":11669,"Ġperperilyes":11670,"Ġtiumar":11671,"ĠatyÃ¡vier":11672,"Ġalamoin":11673,"ĠYÃ³ram":11674,"ĠetemÃ©nier":11675,"Ġtollasse":11676,"Ġastarmonya":11677,"Ġhyulmaruine":11678,"Ġlehtaneltet":11679,"Ġhlaiwassen":11680,"ĠVarsappas":11681,"Ãļcarelyar":11682,"Ġrundacolindor":11683,"Ġmanwanette":11684,"ĠSevulondo":11685,"ĠVetsairanna":11686,"Ġfalastala":11687,"Ġfalmainen":11688,"Ġofelmenen":11689,"ĠÅŁanyengolmo":11690,"ĠMiletus":11691,"ĠnattÃŃraine":11692,"ĠNicolaiyaron":11693,"Ġvehteryanna":11694,"ĠTroasenna":11695,"ĠCiliciasse":11696,"ĠMeletyaryo":11697,"ĠÅŁÃ¡nyelÃ³r":11698,"Ġlihtanar":11699,"ĠocÃ³miÃ©la":11700,"YerÃºsalem":11701,"ĠÅŁarnuntar":11702,"Ġaccasucier":11703,"Ġpelecco":11704,"Amancien":11705,"Epafras":11706,"Hyarmeno":11707,"HÃ¡nolya":11708,"LintiÃ©nen":11709,"Rusqui":11710,"Saltamarya":11711,"Telpe":11712,"TimoÅŁeonna":11713,"YÃ¡cov":11714,"naldie":11715,"nanwen":11716,"rÃ³menna":11717,"sÃŃresse":11718,"ĠÃ¡rasse":11719,"anyÃ¡rien":11720,"Ġnieltar":11721,"Ġlirilte":11722,"Ġatyas":11723,"ĠaÂºea":11724,"temennelte":11725,"ĠvÃ³rea":11726,"Ġporoce":11727,"Ġeterah":11728,"ĠeperpÃ©rier":11729,"Ġecestie":11730,"Ġanamo":11731,"ĠYessaion":11732,"ĠEleÃ¡sar":11733,"ĠEtsemane":11734,"ĠAhavo":11735,"ĠAhlÃ¡rielde":11736,"ĠAhyero":11737,"Ġotarmi":11738,"ĠHimenaio":11739,"ĠHelmahlaiwa":11740,"ĠÃºveltallo":11741,"Ġfilici":11742,"Ġfillanne":11743,"Ġtulesseryasse":11744,"ĠMauyane":11745,"ĠMÃŃcael":11746,"ĠMesopotami":11747,"ĠSpanianna":11748,"ĠSavielya":11749,"ĠPerat":11750,"ĠPoplio":11751,"ĠÃ³comner":11752,"Ġelendie":11753,"Ġeleryanie":11754,"laquetuval":11755,"Ġraitoli":11756,"ĠapacÃ©nala":11757,"ĠFilarel":11758,"Ġaucelie":11759,"Ġlaimaril":11760,"Ġcamumnetye":11761,"Ġundumello":11762,"ĠonÃ³rien":11763,"ĠmÃ³ronen":11764,"Endanya":11765,"ĠtyÃ¡verya":11766,"Ġhroamittalyar":11767,"ĠÃģÄ§as":11768,"Ġlaitalmexer":11769,"ĠÅŀeofÃŃlo":11770,"Ġtelcoryat":11771,"ĠfairelÃŃrÃŃnen":11772,"Ġvorondalyan":11773,"Ġaurepaityalen":11774,"Ġvattarestarya":11775,"ĠsarnelÃŃnen":11776,"Ġhendulmatse":11777,"Ġnelciltar":11778,"ĠlamÃ¡reo":11779,"Ġalapihta":11780,"ĠalamÃ³lin":11781,"ĠYÃ³hyafat":11782,"Ġcardaltainen":11783,"Ġohtarhosse":11784,"ĠVarÅŁolomÃ©o":11785,"ĠUssia":11786,"ĠRehÃ³voam":11787,"ĠnossetÃºri":11788,"ĠÃºlÃ©vime":11789,"Ġtaluldalto":11790,"Ġurustamitta":11791,"ĠSaccaio":11792,"ĠLemetrio":11793,"ĠsavahtÃ¡ni":11794,"ĠCencreai":11795,"AmÃ¡pielte":11796,"ĠhrÃ³tanoirisse":11797,"ĠOnesifÃ³ro":11798}